{
  "version": "1.0",
  "truncation": null,
  "padding": null,
  "added_tokens": [
    {
      "id": 0,
      "content": "[PAD]",
      "single_word": false,
      "lstrip": false,
      "rstrip": false,
      "normalized": false,
      "special": true
    },
    {
      "id": 1,
      "content": "[UNK]",
      "single_word": false,
      "lstrip": false,
      "rstrip": false,
      "normalized": false,
      "special": true
    },
    {
      "id": 2,
      "content": "[CLS]",
      "single_word": false,
      "lstrip": false,
      "rstrip": false,
      "normalized": false,
      "special": true
    },
    {
      "id": 3,
      "content": "[SEP]",
      "single_word": false,
      "lstrip": false,
      "rstrip": false,
      "normalized": false,
      "special": true
    },
    {
      "id": 4,
      "content": "[MASK]",
      "single_word": false,
      "lstrip": false,
      "rstrip": false,
      "normalized": false,
      "special": true
    }
  ],
  "normalizer": {
    "type": "BertNormalizer",
    "clean_text": true,
    "handle_chinese_chars": true,
    "strip_accents": null,
    "lowercase": true
  },
  "pre_tokenizer": {
    "type": "BertPreTokenizer"
  },
  "post_processor": {
    "type": "TemplateProcessing",
    "single": [
      {
        "SpecialToken": {
          "id": "[CLS]",
          "type_id": 0
        }
      },
      {
        "Sequence": {
          "id": "A",
          "type_id": 0
        }
      },
      {
        "SpecialToken": {
          "id": "[SEP]",
          "type_id": 0
        }
      }
    ],
    "pair": [
      {
        "SpecialToken": {
          "id": "[CLS]",
          "type_id": 0
        }
      },
      {
        "Sequence": {
          "id": "A",
          "type_id": 0
        }
      },
      {
        "SpecialToken": {
          "id": "[SEP]",
          "type_id": 0
        }
      },
      {
        "Sequence": {
          "id": "B",
          "type_id": 1
        }
      },
      {
        "SpecialToken": {
          "id": "[SEP]",
          "type_id": 1
        }
      }
    ],
    "special_tokens": {
      "[CLS]": {
        "id": "[CLS]",
        "ids": [
          2
        ],
        "tokens": [
          "[CLS]"
        ]
      },
      "[SEP]": {
        "id": "[SEP]",
        "ids": [
          3
        ],
        "tokens": [
          "[SEP]"
        ]
      }
    }
  },
  "decoder": {
    "type": "WordPiece",
    "prefix": "##",
    "cleanup": true
  },
  "model": {
    "type": "WordPiece",
    "unk_token": "[UNK]",
    "continuing_subword_prefix": "##",
    "max_input_chars_per_word": 100,
    "vocab": {
      "[PAD]": 0,
      "[UNK]": 1,
      "[CLS]": 2,
      "[SEP]": 3,
      "[MASK]": 4,
      "!": 5,
      "\"": 6,
      "#": 7,
      "$": 8,
      "%": 9,
      "&": 10,
      "'": 11,
      "(": 12,
      ")": 13,
      "*": 14,
      "+": 15,
      ",": 16,
      "-": 17,
      ".": 18,
      "/": 19,
      "0": 20,
      "1": 21,
      "2": 22,
      "3": 23,
      "4": 24,
      "5": 25,
      "6": 26,
      "7": 27,
      "8": 28,
      "9": 29,
      ":": 30,
      ";": 31,
      "<": 32,
      "=": 33,
      ">": 34,
      "?": 35,
      "@": 36,
      "A": 37,
      "B": 38,
      "C": 39,
      "D": 40,
      "E": 41,
      "F": 42,
      "G": 43,
      "H": 44,
      "I": 45,
      "J": 46,
      "K": 47,
      "L": 48,
      "M": 49,
      "N": 50,
      "O": 51,
      "P": 52,
      "Q": 53,
      "R": 54,
      "S": 55,
      "T": 56,
      "U": 57,
      "V": 58,
      "W": 59,
      "X": 60,
      "Y": 61,
      "Z": 62,
      "[": 63,
      "\\": 64,
      "]": 65,
      "^": 66,
      "_": 67,
      "`": 68,
      "a": 69,
      "b": 70,
      "c": 71,
      "d": 72,
      "e": 73,
      "f": 74,
      "g": 75,
      "h": 76,
      "i": 77,
      "j": 78,
      "k": 79,
      "l": 80,
      "m": 81,
      "n": 82,
      "o": 83,
      "p": 84,
      "q": 85,
      "r": 86,
      "s": 87,
      "t": 88,
      "u": 89,
      "v": 90,
      "w": 91,
      "x": 92,
      "y": 93,
      "z": 94,
      "{": 95,
      "|": 96,
      "}": 97,
      "~": 98,
      "¡": 99,
      "¢": 100,
      "£": 101,
      "¤": 102,
      "¥": 103,
      "¦": 104,
      "§": 105,
      "¨": 106,
      "©": 107,
      "«": 108,
      "¬": 109,
      "®": 110,
      "¯": 111,
      "°": 112,
      "±": 113,
      "²": 114,
      "³": 115,
      "´": 116,
      "µ": 117,
      "¶": 118,
      "·": 119,
      "¹": 120,
      "º": 121,
      "»": 122,
      "¼": 123,
      "½": 124,
      "¾": 125,
      "¿": 126,
      "À": 127,
      "Á": 128,
      "Â": 129,
      "Ã": 130,
      "Ä": 131,
      "Å": 132,
      "Æ": 133,
      "Ç": 134,
      "È": 135,
      "É": 136,
      "Î": 137,
      "Ð": 138,
      "Ñ": 139,
      "Ó": 140,
      "Ô": 141,
      "Ö": 142,
      "×": 143,
      "Ø": 144,
      "Ü": 145,
      "Þ": 146,
      "ß": 147,
      "à": 148,
      "á": 149,
      "â": 150,
      "ã": 151,
      "ä": 152,
      "å": 153,
      "æ": 154,
      "ç": 155,
      "è": 156,
      "é": 157,
      "ê": 158,
      "ë": 159,
      "ì": 160,
      "í": 161,
      "î": 162,
      "ï": 163,
      "ð": 164,
      "ñ": 165,
      "ò": 166,
      "ó": 167,
      "ô": 168,
      "õ": 169,
      "ö": 170,
      "ø": 171,
      "ù": 172,
      "ú": 173,
      "û": 174,
      "ü": 175,
      "ý": 176,
      "þ": 177,
      "ā": 178,
      "ă": 179,
      "ą": 180,
      "ć": 181,
      "Č": 182,
      "č": 183,
      "Đ": 184,
      "đ": 185,
      "ē": 186,
      "ė": 187,
      "ę": 188,
      "ě": 189,
      "ğ": 190,
      "ī": 191,
      "İ": 192,
      "ı": 193,
      "Ł": 194,
      "ł": 195,
      "ń": 196,
      "Ō": 197,
      "ō": 198,
      "ŏ": 199,
      "ő": 200,
      "œ": 201,
      "ř": 202,
      "Ś": 203,
      "ś": 204,
      "Ş": 205,
      "ş": 206,
      "Š": 207,
      "š": 208,
      "Ţ": 209,
      "ţ": 210,
      "ū": 211,
      "ů": 212,
      "Ÿ": 213,
      "ż": 214,
      "Ž": 215,
      "ž": 216,
      "ƒ": 217,
      "ǎ": 218,
      "ș": 219,
      "ț": 220,
      "ɐ": 221,
      "ɔ": 222,
      "ə": 223,
      "ɛ": 224,
      "ɪ": 225,
      "ʁ": 226,
      "ʠ": 227,
      "ʻ": 228,
      "ʼ": 229,
      "ʾ": 230,
      "ʿ": 231,
      "ˈ": 232,
      "ː": 233,
      "˚": 234,
      "˜": 235,
      "́": 236,
      "̃": 237,
      "̇": 238,
      "̈": 239,
      "̶": 240,
      "Α": 241,
      "Δ": 242,
      "Ε": 243,
      "Θ": 244,
      "Ι": 245,
      "Κ": 246,
      "Λ": 247,
      "Μ": 248,
      "Ο": 249,
      "Π": 250,
      "Σ": 251,
      "Τ": 252,
      "Φ": 253,
      "Χ": 254,
      "Ω": 255,
      "ά": 256,
      "έ": 257,
      "ή": 258,
      "ί": 259,
      "α": 260,
      "β": 261,
      "γ": 262,
      "δ": 263,
      "ε": 264,
      "η": 265,
      "θ": 266,
      "ι": 267,
      "κ": 268,
      "λ": 269,
      "μ": 270,
      "ν": 271,
      "ξ": 272,
      "ο": 273,
      "π": 274,
      "ρ": 275,
      "ς": 276,
      "σ": 277,
      "τ": 278,
      "υ": 279,
      "φ": 280,
      "χ": 281,
      "ω": 282,
      "ό": 283,
      "ύ": 284,
      "ώ": 285,
      "ϵ": 286,
      "А": 287,
      "Б": 288,
      "В": 289,
      "Г": 290,
      "Д": 291,
      "Е": 292,
      "З": 293,
      "И": 294,
      "К": 295,
      "Л": 296,
      "М": 297,
      "Н": 298,
      "О": 299,
      "П": 300,
      "Р": 301,
      "С": 302,
      "Т": 303,
      "У": 304,
      "Ф": 305,
      "Х": 306,
      "Э": 307,
      "Я": 308,
      "а": 309,
      "б": 310,
      "в": 311,
      "г": 312,
      "д": 313,
      "е": 314,
      "ж": 315,
      "з": 316,
      "и": 317,
      "й": 318,
      "к": 319,
      "л": 320,
      "м": 321,
      "н": 322,
      "о": 323,
      "п": 324,
      "р": 325,
      "с": 326,
      "т": 327,
      "у": 328,
      "ф": 329,
      "х": 330,
      "ц": 331,
      "ч": 332,
      "ш": 333,
      "щ": 334,
      "ъ": 335,
      "ы": 336,
      "ь": 337,
      "э": 338,
      "ю": 339,
      "я": 340,
      "ё": 341,
      "ѕ": 342,
      "і": 343,
      "א": 344,
      "ב": 345,
      "ד": 346,
      "ה": 347,
      "ו": 348,
      "ח": 349,
      "י": 350,
      "ל": 351,
      "ם": 352,
      "מ": 353,
      "נ": 354,
      "ע": 355,
      "פ": 356,
      "ק": 357,
      "ר": 358,
      "ש": 359,
      "ת": 360,
      "،": 361,
      "ء": 362,
      "آ": 363,
      "أ": 364,
      "إ": 365,
      "ئ": 366,
      "ا": 367,
      "ب": 368,
      "ة": 369,
      "ت": 370,
      "ث": 371,
      "ج": 372,
      "ح": 373,
      "خ": 374,
      "د": 375,
      "ذ": 376,
      "ر": 377,
      "ز": 378,
      "س": 379,
      "ش": 380,
      "ص": 381,
      "ض": 382,
      "ط": 383,
      "ظ": 384,
      "ع": 385,
      "غ": 386,
      "ف": 387,
      "ق": 388,
      "ك": 389,
      "ل": 390,
      "م": 391,
      "ن": 392,
      "ه": 393,
      "و": 394,
      "ى": 395,
      "ي": 396,
      "ً": 397,
      "ٍ": 398,
      "َ": 399,
      "ُ": 400,
      "ِ": 401,
      "ّ": 402,
      "ْ": 403,
      "ٰ": 404,
      "ی": 405,
      "ं": 406,
      "क": 407,
      "त": 408,
      "न": 409,
      "म": 410,
      "य": 411,
      "र": 412,
      "ल": 413,
      "व": 414,
      "स": 415,
      "ा": 416,
      "ि": 417,
      "ी": 418,
      "े": 419,
      "ो": 420,
      "्": 421,
      "ก": 422,
      "ข": 423,
      "ค": 424,
      "ง": 425,
      "จ": 426,
      "ช": 427,
      "ด": 428,
      "ต": 429,
      "ท": 430,
      "น": 431,
      "บ": 432,
      "ป": 433,
      "พ": 434,
      "ม": 435,
      "ย": 436,
      "ร": 437,
      "ล": 438,
      "ว": 439,
      "ส": 440,
      "ห": 441,
      "อ": 442,
      "ะ": 443,
      "ั": 444,
      "า": 445,
      "ำ": 446,
      "ิ": 447,
      "ี": 448,
      "ื": 449,
      "ุ": 450,
      "ู": 451,
      "เ": 452,
      "แ": 453,
      "ใ": 454,
      "ไ": 455,
      "็": 456,
      "่": 457,
      "้": 458,
      "์": 459,
      "ა": 460,
      "ი": 461,
      "ḥ": 462,
      "ṃ": 463,
      "ṇ": 464,
      "ṛ": 465,
      "ṣ": 466,
      "ṭ": 467,
      "ả": 468,
      "ễ": 469,
      "ệ": 470,
      "ụ": 471,
      "ứ": 472,
      "ἀ": 473,
      "‐": 474,
      "‑": 475,
      "–": 476,
      "—": 477,
      "―": 478,
      "‘": 479,
      "’": 480,
      "‚": 481,
      "“": 482,
      "”": 483,
      "„": 484,
      "†": 485,
      "•": 486,
      "…": 487,
      "‰": 488,
      "′": 489,
      "″": 490,
      "‹": 491,
      "›": 492,
      "※": 493,
      "⁄": 494,
      "€": 495,
      "₹": 496,
      "™": 497,
      "ℵ": 498,
      "←": 499,
      "↑": 500,
      "→": 501,
      "↓": 502,
      "⇒": 503,
      "⇓": 504,
      "∂": 505,
      "−": 506,
      "∗": 507,
      "√": 508,
      "∞": 509,
      "∫": 510,
      "∷": 511,
      "∼": 512,
      "≈": 513,
      "≤": 514,
      "≥": 515,
      "⋅": 516,
      "─": 517,
      "│": 518,
      "┌": 519,
      "┐": 520,
      "└": 521,
      "┘": 522,
      "├": 523,
      "┬": 524,
      "┴": 525,
      "═": 526,
      "║": 527,
      "▀": 528,
      "▄": 529,
      "█": 530,
      "░": 531,
      "▒": 532,
      "■": 533,
      "□": 534,
      "▪": 535,
      "▬": 536,
      "▲": 537,
      "▶": 538,
      "►": 539,
      "▼": 540,
      "◊": 541,
      "●": 542,
      "★": 543,
      "☆": 544,
      "♠": 545,
      "♥": 546,
      "♦": 547,
      "♪": 548,
      "✓": 549,
      "✮": 550,
      "❤": 551,
      "➫": 552,
      "⠀": 553,
      "、": 554,
      "。": 555,
      "々": 556,
      "「": 557,
      "」": 558,
      "『": 559,
      "』": 560,
      "【": 561,
      "】": 562,
      "あ": 563,
      "い": 564,
      "う": 565,
      "え": 566,
      "お": 567,
      "か": 568,
      "が": 569,
      "き": 570,
      "く": 571,
      "け": 572,
      "げ": 573,
      "こ": 574,
      "さ": 575,
      "し": 576,
      "じ": 577,
      "す": 578,
      "ず": 579,
      "せ": 580,
      "そ": 581,
      "た": 582,
      "だ": 583,
      "ち": 584,
      "っ": 585,
      "つ": 586,
      "て": 587,
      "で": 588,
      "と": 589,
      "ど": 590,
      "な": 591,
      "に": 592,
      "ね": 593,
      "の": 594,
      "は": 595,
      "ば": 596,
      "へ": 597,
      "べ": 598,
      "ま": 599,
      "み": 600,
      "め": 601,
      "も": 602,
      "ゃ": 603,
      "や": 604,
      "ょ": 605,
      "よ": 606,
      "ら": 607,
      "り": 608,
      "る": 609,
      "れ": 610,
      "ろ": 611,
      "わ": 612,
      "を": 613,
      "ん": 614,
      "ァ": 615,
      "ア": 616,
      "ィ": 617,
      "イ": 618,
      "ウ": 619,
      "ェ": 620,
      "エ": 621,
      "ォ": 622,
      "オ": 623,
      "カ": 624,
      "ガ": 625,
      "キ": 626,
      "ク": 627,
      "グ": 628,
      "コ": 629,
      "サ": 630,
      "ザ": 631,
      "シ": 632,
      "ジ": 633,
      "ス": 634,
      "ズ": 635,
      "セ": 636,
      "タ": 637,
      "ダ": 638,
      "チ": 639,
      "ッ": 640,
      "ツ": 641,
      "テ": 642,
      "デ": 643,
      "ト": 644,
      "ド": 645,
      "ナ": 646,
      "ニ": 647,
      "ネ": 648,
      "ノ": 649,
      "ハ": 650,
      "バ": 651,
      "パ": 652,
      "ビ": 653,
      "ピ": 654,
      "フ": 655,
      "ブ": 656,
      "プ": 657,
      "ベ": 658,
      "ボ": 659,
      "ポ": 660,
      "マ": 661,
      "ミ": 662,
      "ム": 663,
      "メ": 664,
      "モ": 665,
      "ャ": 666,
      "ヤ": 667,
      "ュ": 668,
      "ョ": 669,
      "ラ": 670,
      "リ": 671,
      "ル": 672,
      "レ": 673,
      "ロ": 674,
      "ワ": 675,
      "ン": 676,
      "ヴ": 677,
      "・": 678,
      "ー": 679,
      "ㅋ": 680,
      "一": 681,
      "上": 682,
      "下": 683,
      "不": 684,
      "世": 685,
      "中": 686,
      "事": 687,
      "京": 688,
      "人": 689,
      "今": 690,
      "代": 691,
      "以": 692,
      "件": 693,
      "会": 694,
      "体": 695,
      "何": 696,
      "作": 697,
      "使": 698,
      "信": 699,
      "倭": 700,
      "入": 701,
      "全": 702,
      "公": 703,
      "内": 704,
      "出": 705,
      "分": 706,
      "前": 707,
      "力": 708,
      "動": 709,
      "化": 710,
      "北": 711,
      "十": 712,
      "南": 713,
      "原": 714,
      "取": 715,
      "受": 716,
      "合": 717,
      "同": 718,
      "和": 719,
      "問": 720,
      "回": 721,
      "国": 722,
      "國": 723,
      "在": 724,
      "地": 725,
      "場": 726,
      "変": 727,
      "夏": 728,
      "多": 729,
      "大": 730,
      "天": 731,
      "太": 732,
      "女": 733,
      "子": 734,
      "学": 735,
      "定": 736,
      "実": 737,
      "家": 738,
      "射": 739,
      "小": 740,
      "山": 741,
      "島": 742,
      "年": 743,
      "度": 744,
      "当": 745,
      "彼": 746,
      "後": 747,
      "思": 748,
      "性": 749,
      "情": 750,
      "意": 751,
      "感": 752,
      "我": 753,
      "所": 754,
      "手": 755,
      "放": 756,
      "数": 757,
      "文": 758,
      "新": 759,
      "方": 760,
      "日": 761,
      "明": 762,
      "時": 763,
      "景": 764,
      "書": 765,
      "最": 766,
      "月": 767,
      "有": 768,
      "本": 769,
      "来": 770,
      "東": 771,
      "果": 772,
      "業": 773,
      "機": 774,
      "気": 775,
      "水": 776,
      "海": 777,
      "無": 778,
      "物": 779,
      "王": 780,
      "現": 781,
      "理": 782,
      "生": 783,
      "用": 784,
      "画": 785,
      "界": 786,
      "発": 787,
      "的": 788,
      "目": 789,
      "真": 790,
      "私": 791,
      "科": 792,
      "第": 793,
      "結": 794,
      "者": 795,
      "能": 796,
      "自": 797,
      "行": 798,
      "表": 799,
      "要": 800,
      "見": 801,
      "言": 802,
      "記": 803,
      "語": 804,
      "説": 805,
      "調": 806,
      "起": 807,
      "通": 808,
      "道": 809,
      "部": 810,
      "開": 811,
      "間": 812,
      "関": 813,
      "集": 814,
      "電": 815,
      "音": 816,
      "高": 817,
      "가": 818,
      "각": 819,
      "간": 820,
      "같": 821,
      "거": 822,
      "건": 823,
      "걸": 824,
      "것": 825,
      "게": 826,
      "겠": 827,
      "격": 828,
      "결": 829,
      "경": 830,
      "고": 831,
      "공": 832,
      "과": 833,
      "광": 834,
      "구": 835,
      "국": 836,
      "그": 837,
      "근": 838,
      "금": 839,
      "기": 840,
      "길": 841,
      "김": 842,
      "까": 843,
      "나": 844,
      "난": 845,
      "남": 846,
      "내": 847,
      "는": 848,
      "니": 849,
      "다": 850,
      "단": 851,
      "달": 852,
      "당": 853,
      "대": 854,
      "데": 855,
      "도": 856,
      "동": 857,
      "되": 858,
      "된": 859,
      "드": 860,
      "든": 861,
      "들": 862,
      "등": 863,
      "때": 864,
      "라": 865,
      "람": 866,
      "러": 867,
      "런": 868,
      "레": 869,
      "려": 870,
      "력": 871,
      "로": 872,
      "률": 873,
      "르": 874,
      "를": 875,
      "리": 876,
      "마": 877,
      "만": 878,
      "많": 879,
      "면": 880,
      "명": 881,
      "모": 882,
      "못": 883,
      "무": 884,
      "문": 885,
      "미": 886,
      "방": 887,
      "번": 888,
      "병": 889,
      "보": 890,
      "부": 891,
      "분": 892,
      "비": 893,
      "빠": 894,
      "사": 895,
      "살": 896,
      "상": 897,
      "생": 898,
      "서": 899,
      "석": 900,
      "선": 901,
      "성": 902,
      "소": 903,
      "속": 904,
      "수": 905,
      "스": 906,
      "습": 907,
      "시": 908,
      "신": 909,
      "씨": 910,
      "아": 911,
      "안": 912,
      "않": 913,
      "야": 914,
      "어": 915,
      "언": 916,
      "없": 917,
      "었": 918,
      "에": 919,
      "엘": 920,
      "여": 921,
      "연": 922,
      "영": 923,
      "오": 924,
      "와": 925,
      "외": 926,
      "요": 927,
      "용": 928,
      "우": 929,
      "원": 930,
      "위": 931,
      "유": 932,
      "으": 933,
      "은": 934,
      "을": 935,
      "음": 936,
      "의": 937,
      "이": 938,
      "인": 939,
      "일": 940,
      "임": 941,
      "있": 942,
      "자": 943,
      "장": 944,
      "재": 945,
      "저": 946,
      "적": 947,
      "전": 948,
      "정": 949,
      "제": 950,
      "주": 951,
      "중": 952,
      "증": 953,
      "지": 954,
      "진": 955,
      "처": 956,
      "체": 957,
      "최": 958,
      "출": 959,
      "치": 960,
      "크": 961,
      "킴": 962,
      "타": 963,
      "터": 964,
      "트": 965,
      "프": 966,
      "피": 967,
      "하": 968,
      "한": 969,
      "할": 970,
      "해": 971,
      "했": 972,
      "행": 973,
      "호": 974,
      "화": 975,
      "확": 976,
      "회": 977,
      "ﬁ": 978,
      "ﬂ": 979,
      "️": 980,
      "！": 981,
      "（": 982,
      "）": 983,
      "，": 984,
      "０": 985,
      "１": 986,
      "２": 987,
      "３": 988,
      "４": 989,
      "５": 990,
      "６": 991,
      "：": 992,
      "？": 993,
      "＿": 994,
      "～": 995,
      "｡": 996,
      "･": 997,
      "ﾟ": 998,
      "￼": 999,
      "🐻": 1000,
      "😀": 1001,
      "😂": 1002,
      "😉": 1003,
      "🙂": 1004,
      "##d": 1005,
      "##v": 1006,
      "##e": 1007,
      "##r": 1008,
      "##t": 1009,
      "##i": 1010,
      "##s": 1011,
      "##m": 1012,
      "##n": 1013,
      "##1": 1014,
      "##8": 1015,
      "##M": 1016,
      "##h": 1017,
      "##F": 1018,
      "##B": 1019,
      "##w": 1020,
      "##O": 1021,
      "##o": 1022,
      "##c": 1023,
      "##l": 1024,
      "##a": 1025,
      "##N": 1026,
      "##p": 1027,
      "##2": 1028,
      "##u": 1029,
      "##b": 1030,
      "##g": 1031,
      "##D": 1032,
      "##k": 1033,
      "##E": 1034,
      "##G": 1035,
      "##Y": 1036,
      "##P": 1037,
      "##T": 1038,
      "##I": 1039,
      "##A": 1040,
      "##J": 1041,
      "##x": 1042,
      "##f": 1043,
      "##3": 1044,
      "##y": 1045,
      "##W": 1046,
      "##0": 1047,
      "##V": 1048,
      "##C": 1049,
      "##H": 1050,
      "##z": 1051,
      "##4": 1052,
      "##S": 1053,
      "##も": 1054,
      "##Ã": 1055,
      "##©": 1056,
      "##R": 1057,
      "##9": 1058,
      "##L": 1059,
      "##6": 1060,
      "##도": 1061,
      "##j": 1062,
      "##q": 1063,
      "##U": 1064,
      "##ρ": 1065,
      "##γ": 1066,
      "##ό": 1067,
      "##X": 1068,
      "##®": 1069,
      "##K": 1070,
      "##5": 1071,
      "##の": 1072,
      "##よ": 1073,
      "##う": 1074,
      "##な": 1075,
      "##人": 1076,
      "##場": 1077,
      "##が": 1078,
      "##多": 1079,
      "##数": 1080,
      "##あ": 1081,
      "##る": 1082,
      "##だ": 1083,
      "##ろ": 1084,
      "##7": 1085,
      "##ش": 1086,
      "##ر": 1087,
      "##ف": 1088,
      "##š": 1089,
      "##ć": 1090,
      "##í": 1091,
      "##а": 1092,
      "##м": 1093,
      "##и": 1094,
      "##р": 1095,
      "##э": 1096,
      "##х": 1097,
      "##â": 1098,
      "##€": 1099,
      "##¦": 1100,
      "##ν": 1101,
      "##ち": 1102,
      "##に": 1103,
      "##調": 1104,
      "##べ": 1105,
      "##で": 1106,
      "##明": 1107,
      "##é": 1108,
      "##►": 1109,
      "##ž": 1110,
      "##ل": 1111,
      "##أ": 1112,
      "##ن": 1113,
      "##ا": 1114,
      "##ك": 1115,
      "##ي": 1116,
      "##ة": 1117,
      "##у": 1118,
      "##н": 1119,
      "##я": 1120,
      "##č": 1121,
      "##ü": 1122,
      "##ä": 1123,
      "##آ": 1124,
      "##خ": 1125,
      "##京": 1126,
      "##國": 1127,
      "##大": 1128,
      "##Z": 1129,
      "##ó": 1130,
      "##è": 1131,
      "##ّ": 1132,
      "##َ": 1133,
      "##ُ": 1134,
      "##م": 1135,
      "##ْ": 1136,
      "##ő": 1137,
      "##は": 1138,
      "##さ": 1139,
      "##ら": 1140,
      "##マ": 1141,
      "##ラ": 1142,
      "##ヤ": 1143,
      "##ス": 1144,
      "##と": 1145,
      "##キ": 1146,
      "##ャ": 1147,
      "##ン": 1148,
      "##プ": 1149,
      "##間": 1150,
      "##с": 1151,
      "##т": 1152,
      "##о": 1153,
      "##ă": 1154,
      "##山": 1155,
      "##代": 1156,
      "##ี": 1157,
      "##Q": 1158,
      "##ţ": 1159,
      "##ā": 1160,
      "##ī": 1161,
      "##á": 1162,
      "##î": 1163,
      "##年": 1164,
      "##ت": 1165,
      "##г": 1166,
      "##л": 1167,
      "##д": 1168,
      "##ы": 1169,
      "##в": 1170,
      "##▪": 1171,
      "##↑": 1172,
      "##ē": 1173,
      "##к": 1174,
      "##ñ": 1175,
      "##˚": 1176,
      "##ś": 1177,
      "##ş": 1178,
      "##ö": 1179,
      "##е": 1180,
      "##і": 1181,
      "##い": 1182,
      "##中": 1183,
      "##科": 1184,
      "##合": 1185,
      "##π": 1186,
      "##ο": 1187,
      "##κ": 1188,
      "##α": 1189,
      "##λ": 1190,
      "##ύ": 1191,
      "##τ": 1192,
      "##ε": 1193,
      "##ι": 1194,
      "##±": 1195,
      "##¼": 1196,
      "##ê": 1197,
      "##μ": 1198,
      "##ー": 1199,
      "##ã": 1200,
      "##다": 1201,
      "##ʿ": 1202,
      "##×": 1203,
      "##Â": 1204,
      "##⁄": 1205,
      "##ț": 1206,
      "##하": 1207,
      "##는": 1208,
      "##█": 1209,
      "##分": 1210,
      "##出": 1211,
      "##不": 1212,
      "##作": 1213,
      "##라": 1214,
      "##소": 1215,
      "##자": 1216,
      "##体": 1217,
      "##力": 1218,
      "##え": 1219,
      "##こ": 1220,
      "##り": 1221,
      "##ま": 1222,
      "##す": 1223,
      "##데": 1224,
      "##ь": 1225,
      "##Н": 1226,
      "##ṭ": 1227,
      "##ū": 1228,
      "##η": 1229,
      "##Ä": 1230,
      "##사": 1231,
      "##로": 1232,
      "##０": 1233,
      "##１": 1234,
      "##３": 1235,
      "##月": 1236,
      "##ç": 1237,
      "##™": 1238,
      "##ع": 1239,
      "##ب": 1240,
      "##à": 1241,
      "##ج": 1242,
      "##ز": 1243,
      "##ء": 1244,
      "##ล": 1245,
      "##ะ": 1246,
      "##ก": 1247,
      "##า": 1248,
      "##ร": 1249,
      "##ป": 1250,
      "##ิ": 1251,
      "##ด": 1252,
      "##ั": 1253,
      "##้": 1254,
      "##น": 1255,
      "##ข": 1256,
      "##อ": 1257,
      "##ม": 1258,
      "##ู": 1259,
      "##เ": 1260,
      "##ท": 1261,
      "##่": 1262,
      "##²": 1263,
      "##æ": 1264,
      "##수": 1265,
      "##전": 1266,
      "##광": 1267,
      "##석": 1268,
      "##이": 1269,
      "##에": 1270,
      "##ː": 1271,
      "##ł": 1272,
      "##ง": 1273,
      "##ว": 1274,
      "##ค": 1275,
      "##ช": 1276,
      "##บ": 1277,
      "##แ": 1278,
      "##ใ": 1279,
      "##ุ": 1280,
      "##พ": 1281,
      "##ô": 1282,
      "##ш": 1283,
      "##ю": 1284,
      "##щ": 1285,
      "##만": 1286,
      "##メ": 1287,
      "##ガ": 1288,
      "##コ": 1289,
      "##ロ": 1290,
      "##ニ": 1291,
      "##を": 1292,
      "##使": 1293,
      "##っ": 1294,
      "##て": 1295,
      "##°": 1296,
      "##β": 1297,
      "##й": 1298,
      "##د": 1299,
      "##و": 1300,
      "##ِ": 1301,
      "##س": 1302,
      "##스": 1303,
      "##트": 1304,
      "##ق": 1305,
      "##ß": 1306,
      "##오": 1307,
      "##서": 1308,
      "##¢": 1309,
      "##ж": 1310,
      "##정": 1311,
      "##니": 1312,
      "##까": 1313,
      "##ح": 1314,
      "##ה": 1315,
      "##ב": 1316,
      "##ל": 1317,
      "##ד": 1318,
      "##י": 1319,
      "##ם": 1320,
      "##υ": 1321,
      "##ί": 1322,
      "##ω": 1323,
      "##タ": 1324,
      "##イ": 1325,
      "##ズ": 1326,
      "##ア": 1327,
      "##リ": 1328,
      "##シ": 1329,
      "##ョ": 1330,
      "##開": 1331,
      "##発": 1332,
      "##者": 1333,
      "##し": 1334,
      "##か": 1335,
      "##た": 1336,
      "##自": 1337,
      "##わ": 1338,
      "##해": 1339,
      "##ص": 1340,
      "##ř": 1341,
      "##ú": 1342,
      "##부": 1343,
      "##ø": 1344,
      "##´": 1345,
      "##方": 1346,
      "##️": 1347,
      "##ッ": 1348,
      "##ド": 1349,
      "##의": 1350,
      "##ğ": 1351,
      "##ı": 1352,
      "##ه": 1353,
      "##ō": 1354,
      "##ต": 1355,
      "##ำ": 1356,
      "##з": 1357,
      "##Š": 1358,
      "##п": 1359,
      "##중": 1360,
      "##공": 1361,
      "##격": 1362,
      "##彼": 1363,
      "##書": 1364,
      "##비": 1365,
      "##מ": 1366,
      "##א": 1367,
      "##נ": 1368,
      "##ו": 1369,
      "##ע": 1370,
      "##グ": 1371,
      "##ル": 1372,
      "##θ": 1373,
      "##ς": 1374,
      "##É": 1375,
      "##▄": 1376,
      "##▒": 1377,
      "##░": 1378,
      "##한": 1379,
      "##ん": 1380,
      "##å": 1381,
      "##İ": 1382,
      "##Ф": 1383,
      "##見": 1384,
      "##く": 1385,
      "##غ": 1386,
      "##ě": 1387,
      "##ï": 1388,
      "##을": 1389,
      "##δ": 1390,
      "##χ": 1391,
      "##έ": 1392,
      "##ș": 1393,
      "##ѕ": 1394,
      "##ч": 1395,
      "##õ": 1396,
      "##ę": 1397,
      "##아": 1398,
      "##진": 1399,
      "##Ω": 1400,
      "##思": 1401,
      "##ど": 1402,
      "##集": 1403,
      "##れ": 1404,
      "##터": 1405,
      "##가": 1406,
      "##→": 1407,
      "##□": 1408,
      "##国": 1409,
      "##北": 1410,
      "##û": 1411,
      "##क": 1412,
      "##ð": 1413,
      "##件": 1414,
      "##生": 1415,
      "##所": 1416,
      "##き": 1417,
      "##物": 1418,
      "##語": 1419,
      "##б": 1420,
      "##現": 1421,
      "##実": 1422,
      "##行": 1423,
      "##以": 1424,
      "##来": 1425,
      "##２": 1426,
      "##리": 1427,
      "##면": 1428,
      "##Σ": 1429,
      "##Τ": 1430,
      "##Ε": 1431,
      "##Д": 1432,
      "##Æ": 1433,
      "##̶": 1434,
      "##機": 1435,
      "##ʼ": 1436,
      "##ṣ": 1437,
      "##ḥ": 1438,
      "##러": 1439,
      "##ئ": 1440,
      "##ベ": 1441,
      "##モ": 1442,
      "##ə": 1443,
      "##σ": 1444,
      "##จ": 1445,
      "##ส": 1446,
      "##ื": 1447,
      "##ห": 1448,
      "##世": 1449,
      "##界": 1450,
      "##ボ": 1451,
      "##ト": 1452,
      "##画": 1453,
      "##ی": 1454,
      "##め": 1455,
      "##や": 1456,
      "##一": 1457,
      "##Δ": 1458,
      "##Ι": 1459,
      "##射": 1460,
      "##能": 1461,
      "##公": 1462,
      "##ジ": 1463,
      "##ェ": 1464,
      "##ク": 1465,
      "##ा": 1466,
      "##स": 1467,
      "##情": 1468,
      "##通": 1469,
      "##会": 1470,
      "##시": 1471,
      "##지": 1472,
      "##미": 1473,
      "##Þ": 1474,
      "##ё": 1475,
      "##ظ": 1476,
      "##ф": 1477,
      "##구": 1478,
      "##⇓": 1479,
      "##地": 1480,
      "##子": 1481,
      "##４": 1482,
      "##上": 1483,
      "##어": 1484,
      "##들": 1485,
      "##은": 1486,
      "##회": 1487,
      "##적": 1488,
      "##으": 1489,
      "##有": 1490,
      "##全": 1491,
      "##要": 1492,
      "##ず": 1493,
      "##何": 1494,
      "##十": 1495,
      "##的": 1496,
      "##ώ": 1497,
      "##원": 1498,
      "##■": 1499,
      "##√": 1500,
      "##化": 1501,
      "##当": 1502,
      "##起": 1503,
      "##ً": 1504,
      "##ى": 1505,
      "##ů": 1506,
      "##前": 1507,
      "##在": 1508,
      "##つ": 1509,
      "##−": 1510,
      "##¨": 1511,
      "##˜": 1512,
      "##天": 1513,
      "##ذ": 1514,
      "##ム": 1515,
      "##ë": 1516,
      "##ý": 1517,
      "##♠": 1518,
      "##행": 1519,
      "##³": 1520,
      "##¹": 1521,
      "##А": 1522,
      "##Р": 1523,
      "##К": 1524,
      "##Т": 1525,
      "##Е": 1526,
      "##И": 1527,
      "##С": 1528,
      "##분": 1529,
      "##本": 1530,
      "##太": 1531,
      "##カ": 1532,
      "##★": 1533,
      "##ą": 1534,
      "##ṇ": 1535,
      "##日": 1536,
      "##ビ": 1537,
      "##ネ": 1538,
      "##目": 1539,
      "##화": 1540,
      "##ュ": 1541,
      "##気": 1542,
      "##े": 1543,
      "##ά": 1544,
      "##남": 1545,
      "##ק": 1546,
      "##手": 1547,
      "##람": 1548,
      "##ṛ": 1549,
      "##へ": 1550,
      "##♪": 1551,
      "##ξ": 1552,
      "##거": 1553,
      "##를": 1554,
      "##상": 1555,
      "##ゃ": 1556,
      "##お": 1557,
      "##ダ": 1558,
      "##달": 1559,
      "##▼": 1560,
      "##치": 1561,
      "##ц": 1562,
      "##ょ": 1563,
      "##そ": 1564,
      "##時": 1565,
      "##ね": 1566,
      "##타": 1567,
      "##일": 1568,
      "##ย": 1569,
      "##ụ": 1570,
      "##ė": 1571,
      "##드": 1572,
      "##프": 1573,
      "##ǎ": 1574,
      "##小": 1575,
      "##Ö": 1576,
      "##け": 1577,
      "##đ": 1578,
      "##原": 1579,
      "##関": 1580,
      "##็": 1581,
      "##기": 1582,
      "##£": 1583,
      "##┬": 1584,
      "##º": 1585,
      "##家": 1586,
      "##무": 1587,
      "##定": 1588,
      "##ả": 1589,
      "##외": 1590,
      "##信": 1591,
      "##受": 1592,
      "##高": 1593,
      "##テ": 1594,
      "##チ": 1595,
      "##事": 1596,
      "##력": 1597,
      "##과": 1598,
      "##ض": 1599,
      "##島": 1600,
      "##せ": 1601,
      "##없": 1602,
      "##文": 1603,
      "##안": 1604,
      "##デ": 1605,
      "##ィ": 1606,
      "##ث": 1607,
      "##빠": 1608,
      "##고": 1609,
      "##ż": 1610,
      "##œ": 1611,
      "##♥": 1612,
      "##ไ": 1613,
      "##์": 1614,
      "##속": 1615,
      "##後": 1616,
      "##פ": 1617,
      "##ר": 1618,
      "##学": 1619,
      "##最": 1620,
      "##ㅋ": 1621,
      "##水": 1622,
      "##̈": 1623,
      "##５": 1624,
      "##¾": 1625,
      "##¬": 1626,
      "##ʻ": 1627,
      "##단": 1628,
      "##ी": 1629,
      "##エ": 1630,
      "##ば": 1631,
      "##ò": 1632,
      "##Ñ": 1633,
      "##～": 1634,
      "##길": 1635,
      "##같": 1636,
      "##습": 1637,
      "##생": 1638,
      "##각": 1639,
      "##르": 1640,
      "##フ": 1641,
      "##ブ": 1642,
      "##ザ": 1643,
      "##私": 1644,
      "##動": 1645,
      "##못": 1646,
      "##되": 1647,
      "##じ": 1648,
      "##ヴ": 1649,
      "##ァ": 1650,
      "##ウ": 1651,
      "##저": 1652,
      "##대": 1653,
      "##동": 1654,
      "##와": 1655,
      "##Ō": 1656,
      "##セ": 1657,
      "##게": 1658,
      "##記": 1659,
      "##Χ": 1660,
      "##ת": 1661,
      "##ח": 1662,
      "##ɐ": 1663,
      "##Å": 1664,
      "##ि": 1665,
      "##न": 1666,
      "##र": 1667,
      "##ल": 1668,
      "##용": 1669,
      "##⋅": 1670,
      "##있": 1671,
      "##問": 1672,
      "##된": 1673,
      "##ù": 1674,
      "##건": 1675,
      "##サ": 1676,
      "##女": 1677,
      "##入": 1678,
      "##ˈ": 1679,
      "##下": 1680,
      "##ミ": 1681,
      "##表": 1682,
      "##장": 1683,
      "##げ": 1684,
      "##П": 1685,
      "##部": 1686,
      "##명": 1687,
      "##ʾ": 1688,
      "##문": 1689,
      "##ピ": 1690,
      "##었": 1691,
      "##음": 1692,
      "##Μ": 1693,
      "##Α": 1694,
      "##했": 1695,
      "##µ": 1696,
      "##々": 1697,
      "##þ": 1698,
      "##バ": 1699,
      "##ứ": 1700,
      "##ễ": 1701,
      "##放": 1702,
      "##性": 1703,
      "##同": 1704,
      "##레": 1705,
      "##보": 1706,
      "##真": 1707,
      "##回": 1708,
      "##感": 1709,
      "##南": 1710,
      "##ﬁ": 1711,
      "##체": 1712,
      "##피": 1713,
      "##확": 1714,
      "##률": 1715,
      "##パ": 1716,
      "##内": 1717,
      "##ɛ": 1718,
      "##東": 1719,
      "##海": 1720,
      "##ń": 1721,
      "##살": 1722,
      "##ή": 1723,
      "##ʁ": 1724,
      "##̃": 1725,
      "##½": 1726,
      "##Á": 1727,
      "##¯": 1728,
      "##́": 1729,
      "##言": 1730,
      "##み": 1731,
      "##業": 1732,
      "##音": 1733,
      "##レ": 1734,
      "##意": 1735,
      "##≈": 1736,
      "##景": 1737,
      "##금": 1738,
      "##्": 1739,
      "##म": 1740,
      "##説": 1741,
      "##¤": 1742,
      "##병": 1743,
      "##إ": 1744,
      "##用": 1745,
      "##ש": 1746,
      "##ポ": 1747,
      "##ط": 1748,
      "##간": 1749,
      "##─": 1750,
      "##┘": 1751,
      "##∫": 1752,
      "##ナ": 1753,
      "##取": 1754,
      "##씨": 1755,
      "##ो": 1756,
      "##인": 1757,
      "##¥": 1758,
      "##◊": 1759,
      "##♦": 1760,
      "##ệ": 1761,
      "##호": 1762,
      "##국": 1763,
      "##果": 1764,
      "##ъ": 1765,
      "##ṃ": 1766,
      "##オ": 1767,
      "##ﾟ": 1768,
      "##度": 1769,
      "##걸": 1770,
      "##ワ": 1771,
      "##夏": 1772,
      "##ɔ": 1773,
      "##無": 1774,
      "##킴": 1775,
      "##나": 1776,
      "##今": 1777,
      "##겠": 1778,
      "##Ô": 1779,
      "##ٰ": 1780,
      "##영": 1781,
      "##ი": 1782,
      "##≥": 1783,
      "##요": 1784,
      "##Г": 1785,
      "##우": 1786,
      "##신": 1787,
      "##ì": 1788,
      "##려": 1789,
      "##크": 1790,
      "##제": 1791,
      "##ツ": 1792,
      "##Ø": 1793,
      "##선": 1794,
      "##￼": 1795,
      "##第": 1796,
      "##電": 1797,
      "##▶": 1798,
      "##ォ": 1799,
      "##야": 1800,
      "##ノ": 1801,
      "##य": 1802,
      "##Ç": 1803,
      "##６": 1804,
      "##Э": 1805,
      "##変": 1806,
      "##☆": 1807,
      "##φ": 1808,
      "##연": 1809,
      "##할": 1810,
      "##런": 1811,
      "##Î": 1812,
      "##마": 1813,
      "##結": 1814,
      "##출": 1815,
      "##ٍ": 1816,
      "##ა": 1817,
      "##임": 1818,
      "##М": 1819,
      "##理": 1820,
      "##和": 1821,
      "##Ÿ": 1822,
      "##新": 1823,
      "##Б": 1824,
      "##주": 1825,
      "##∞": 1826,
      "##व": 1827,
      "##त": 1828,
      "##🙂": 1829,
      "##유": 1830,
      "##성": 1831,
      "##ハ": 1832,
      "##많": 1833,
      "##З": 1834,
      "##倭": 1835,
      "##ɪ": 1836,
      "##ﬂ": 1837,
      "##▀": 1838,
      "##Я": 1839,
      "##├": 1840,
      "##당": 1841,
      "##Π": 1842,
      "##̇": 1843,
      "##재": 1844,
      "##⇒": 1845,
      "##我": 1846,
      "##위": 1847,
      "##═": 1848,
      "##王": 1849,
      "##ं": 1850,
      "##내": 1851,
      "##⠀": 1852,
      "##Ο": 1853,
      "##모": 1854,
      "##У": 1855,
      "##Ş": 1856,
      "##道": 1857,
      "##Ð": 1858,
      "##여": 1859,
      "##≤": 1860,
      "##Л": 1861,
      "##Ü": 1862,
      "##증": 1863,
      "##║": 1864,
      "##Φ": 1865,
      "##❤": 1866,
      "##В": 1867,
      "##О": 1868,
      "##그": 1869,
      "##최": 1870,
      "##▬": 1871,
      "##│": 1872,
      "##결": 1873,
      "##든": 1874,
      "##Ţ": 1875,
      "##└": 1876,
      "##ŏ": 1877,
      "##Č": 1878,
      "##것": 1879,
      "##∼": 1880,
      "##Κ": 1881,
      "##Θ": 1882,
      "##방": 1883,
      "##✓": 1884,
      "##●": 1885,
      "##번": 1886,
      "##À": 1887,
      "##È": 1888,
      "##처": 1889,
      "##ℵ": 1890,
      "##←": 1891,
      "##∷": 1892,
      "##✮": 1893,
      "##┴": 1894,
      "##┐": 1895,
      "##난": 1896,
      "##ƒ": 1897,
      "##근": 1898,
      "##때": 1899,
      "##등": 1900,
      "##▲": 1901,
      "##😂": 1902,
      "##∂": 1903,
      "##Ž": 1904,
      "##경": 1905,
      "##Ó": 1906,
      "##Λ": 1907,
      "##∗": 1908,
      "##김": 1909,
      "##ϵ": 1910,
      "##↓": 1911,
      "##😀": 1912,
      "##Х": 1913,
      "##┌": 1914,
      "##he": 1915,
      "##er": 1916,
      "the": 1917,
      "##in": 1918,
      "##on": 1919,
      "##at": 1920,
      "##es": 1921,
      "##or": 1922,
      "##en": 1923,
      "##ed": 1924,
      "##nd": 1925,
      "##ing": 1926,
      "##ar": 1927,
      "##an": 1928,
      "##ou": 1929,
      "to": 1930,
      "##it": 1931,
      "##al": 1932,
      "of": 1933,
      "in": 1934,
      "##is": 1935,
      "##re": 1936,
      "and": 1937,
      "##as": 1938,
      "##ic": 1939,
      "th": 1940,
      "##om": 1941,
      "##ion": 1942,
      "##le": 1943,
      "##ent": 1944,
      "##ll": 1945,
      "##ly": 1946,
      "be": 1947,
      "##st": 1948,
      "##ot": 1949,
      "re": 1950,
      "##ve": 1951,
      "##id": 1952,
      "##ut": 1953,
      "##ac": 1954,
      "##ow": 1955,
      "on": 1956,
      "that": 1957,
      "##et": 1958,
      "##ay": 1959,
      "is": 1960,
      "for": 1961,
      "##ur": 1962,
      "##am": 1963,
      "##ad": 1964,
      "##ig": 1965,
      "##ro": 1966,
      "##se": 1967,
      "##ct": 1968,
      "##ld": 1969,
      "st": 1970,
      "##ver": 1971,
      "it": 1972,
      "##im": 1973,
      "##ir": 1974,
      "##ter": 1975,
      "The": 1976,
      "wh": 1977,
      "##ation": 1978,
      "##ith": 1979,
      "##ce": 1980,
      "##ol": 1981,
      "with": 1982,
      "as": 1983,
      "##il": 1984,
      "an": 1985,
      "##ch": 1986,
      "##ill": 1987,
      "##ers": 1988,
      "he": 1989,
      "was": 1990,
      "you": 1991,
      "con": 1992,
      "ha": 1993,
      "de": 1994,
      "##est": 1995,
      "##ess": 1996,
      "##her": 1997,
      "##ate": 1998,
      "at": 1999,
      "se": 2000,
      "com": 2001,
      "##ag": 2002,
      "##op": 2003,
      "##ke": 2004,
      "we": 2005,
      "##ul": 2006,
      "##ri": 2007,
      "##ment": 2008,
      "are": 2009,
      "##pp": 2010,
      "##us": 2011,
      "##ist": 2012,
      "##ain": 2013,
      "pro": 2014,
      "fr": 2015,
      "##igh": 2016,
      "ne": 2017,
      "##od": 2018,
      "##ort": 2019,
      "ex": 2020,
      "or": 2021,
      "##ore": 2022,
      "##um": 2023,
      "not": 2024,
      "##un": 2025,
      "##ab": 2026,
      "##em": 2027,
      "have": 2028,
      "##ity": 2029,
      "##ould": 2030,
      "by": 2031,
      "##os": 2032,
      "##ant": 2033,
      "##and": 2034,
      "##art": 2035,
      "al": 2036,
      "from": 2037,
      "##oc": 2038,
      "##if": 2039,
      "su": 2040,
      "##ive": 2041,
      "##el": 2042,
      "sh": 2043,
      "##ear": 2044,
      "this": 2045,
      "##out": 2046,
      "##ight": 2047,
      "##ust": 2048,
      "ch": 2049,
      "##ies": 2050,
      "sa": 2051,
      "ab": 2052,
      "pr": 2053,
      "##ect": 2054,
      "##ap": 2055,
      "##ack": 2056,
      "##th": 2057,
      "pl": 2058,
      "##all": 2059,
      "##ie": 2060,
      "##ally": 2061,
      "has": 2062,
      "go": 2063,
      "tr": 2064,
      "##ome": 2065,
      "20": 2066,
      "##ard": 2067,
      "his": 2068,
      "##iv": 2069,
      "##ost": 2070,
      "##gh": 2071,
      "##our": 2072,
      "##ere": 2073,
      "sp": 2074,
      "##ast": 2075,
      "##ak": 2076,
      "do": 2077,
      "##ud": 2078,
      "le": 2079,
      "they": 2080,
      "but": 2081,
      "wor": 2082,
      "##end": 2083,
      "##nt": 2084,
      "can": 2085,
      "will": 2086,
      "whe": 2087,
      "said": 2088,
      "##ge": 2089,
      "##rou": 2090,
      "all": 2091,
      "##ich": 2092,
      "##ok": 2093,
      "Th": 2094,
      "who": 2095,
      "out": 2096,
      "##ame": 2097,
      "##ial": 2098,
      "##ans": 2099,
      "their": 2100,
      "up": 2101,
      "In": 2102,
      "##ff": 2103,
      "##ong": 2104,
      "##ep": 2105,
      "##ther": 2106,
      "more": 2107,
      "##ice": 2108,
      "li": 2109,
      "##ue": 2110,
      "##ions": 2111,
      "##ous": 2112,
      "##age": 2113,
      "ad": 2114,
      "##ure": 2115,
      "##one": 2116,
      "##act": 2117,
      "me": 2118,
      "##ine": 2119,
      "en": 2120,
      "about": 2121,
      "int": 2122,
      "comp": 2123,
      "one": 2124,
      "us": 2125,
      "##ber": 2126,
      "so": 2127,
      "St": 2128,
      "##ated": 2129,
      "res": 2130,
      "##mp": 2131,
      "##ime": 2132,
      "year": 2133,
      "cl": 2134,
      "##og": 2135,
      "had": 2136,
      "It": 2137,
      "which": 2138,
      "were": 2139,
      "##ip": 2140,
      "##cc": 2141,
      "##ia": 2142,
      "##ide": 2143,
      "##ra": 2144,
      "would": 2145,
      "##ub": 2146,
      "cont": 2147,
      "##ence": 2148,
      "ag": 2149,
      "##ake": 2150,
      "un": 2151,
      "off": 2152,
      "te": 2153,
      "exp": 2154,
      "##iz": 2155,
      "##ind": 2156,
      "##pt": 2157,
      "been": 2158,
      "##ec": 2159,
      "like": 2160,
      "##ary": 2161,
      "##au": 2162,
      "inc": 2163,
      "##so": 2164,
      "##qu": 2165,
      "ev": 2166,
      "##ace": 2167,
      "man": 2168,
      "##ook": 2169,
      "##own": 2170,
      "##ew": 2171,
      "##ign": 2172,
      "##ose": 2173,
      "pe": 2174,
      "##ays": 2175,
      "per": 2176,
      "ar": 2177,
      "##ry": 2178,
      "201": 2179,
      "##ite": 2180,
      "##able": 2181,
      "other": 2182,
      "##mer": 2183,
      "##00": 2184,
      "some": 2185,
      "##ass": 2186,
      "##ord": 2187,
      "##ile": 2188,
      "##ire": 2189,
      "##ople": 2190,
      "dis": 2191,
      "there": 2192,
      "over": 2193,
      "new": 2194,
      "Ch": 2195,
      "##ations": 2196,
      "##ult": 2197,
      "##ks": 2198,
      "##ical": 2199,
      "rep": 2200,
      "bec": 2201,
      "than": 2202,
      "##lic": 2203,
      "also": 2204,
      "sc": 2205,
      "app": 2206,
      "them": 2207,
      "##ough": 2208,
      "part": 2209,
      "##ance": 2210,
      "her": 2211,
      "what": 2212,
      "##ib": 2213,
      "when": 2214,
      "##ount": 2215,
      "your": 2216,
      "##ail": 2217,
      "time": 2218,
      "##av": 2219,
      "##are": 2220,
      "##ree": 2221,
      "##ru": 2222,
      "people": 2223,
      "He": 2224,
      "##int": 2225,
      "##fter": 2226,
      "We": 2227,
      "##ond": 2228,
      "just": 2229,
      "##orm": 2230,
      "kn": 2231,
      "qu": 2232,
      "##ase": 2233,
      "any": 2234,
      "its": 2235,
      "##ens": 2236,
      "19": 2237,
      "get": 2238,
      "##ach": 2239,
      "if": 2240,
      "tw": 2241,
      "rec": 2242,
      "my": 2243,
      "fir": 2244,
      "##ob": 2245,
      "##reat": 2246,
      "work": 2247,
      "into": 2248,
      "##ound": 2249,
      "##ian": 2250,
      "##ction": 2251,
      "##vel": 2252,
      "imp": 2253,
      "no": 2254,
      "inter": 2255,
      "##ings": 2256,
      "##ory": 2257,
      "co": 2258,
      "##ress": 2259,
      "our": 2260,
      "##ick": 2261,
      "##ition": 2262,
      "##amp": 2263,
      "##du": 2264,
      "##fer": 2265,
      "##ors": 2266,
      "##ang": 2267,
      "pre": 2268,
      "play": 2269,
      "pol": 2270,
      "she": 2271,
      "##ause": 2272,
      "##per": 2273,
      "##ink": 2274,
      "##ents": 2275,
      "##hing": 2276,
      "##ade": 2277,
      "##ates": 2278,
      "##ark": 2279,
      "##aw": 2280,
      "##itt": 2281,
      "cr": 2282,
      "after": 2283,
      "first": 2284,
      "ever": 2285,
      "could": 2286,
      "how": 2287,
      "po": 2288,
      "##ious": 2289,
      "acc": 2290,
      "Wh": 2291,
      "him": 2292,
      "But": 2293,
      "only": 2294,
      "bl": 2295,
      "This": 2296,
      "att": 2297,
      "##ild": 2298,
      "##nder": 2299,
      "fe": 2300,
      "##hed": 2301,
      "comm": 2302,
      "##ict": 2303,
      "two": 2304,
      "##ons": 2305,
      "ser": 2306,
      "##ov": 2307,
      "act": 2308,
      "##enc": 2309,
      "back": 2310,
      "##ish": 2311,
      "##ove": 2312,
      "##ery": 2313,
      "dec": 2314,
      "##ft": 2315,
      "bet": 2316,
      "fo": 2317,
      "##form": 2318,
      "And": 2319,
      "##ning": 2320,
      "gr": 2321,
      "most": 2322,
      "##ne": 2323,
      "##oy": 2324,
      "des": 2325,
      "did": 2326,
      "##li": 2327,
      "##ater": 2328,
      "under": 2329,
      "again": 2330,
      "##rough": 2331,
      "am": 2332,
      "cons": 2333,
      "##round": 2334,
      "ind": 2335,
      "##ock": 2336,
      "##wn": 2337,
      "##ual": 2338,
      "want": 2339,
      "now": 2340,
      "because": 2341,
      "Un": 2342,
      "see": 2343,
      "even": 2344,
      "##ise": 2345,
      "##ull": 2346,
      "##sel": 2347,
      "br": 2348,
      "##lud": 2349,
      "As": 2350,
      "years": 2351,
      "##ublic": 2352,
      "##we": 2353,
      "##anc": 2354,
      "inv": 2355,
      "need": 2356,
      "sec": 2357,
      "know": 2358,
      "##iss": 2359,
      "##vers": 2360,
      "add": 2361,
      "##ident": 2362,
      "##day": 2363,
      "##ments": 2364,
      "##les": 2365,
      "every": 2366,
      "##man": 2367,
      "Tr": 2368,
      "wr": 2369,
      "##urn": 2370,
      "supp": 2371,
      "make": 2372,
      "##fore": 2373,
      "##other": 2374,
      "##uch": 2375,
      "these": 2376,
      "bu": 2377,
      "where": 2378,
      "call": 2379,
      "right": 2380,
      "look": 2381,
      "##vern": 2382,
      "##ational": 2383,
      "##ject": 2384,
      "##ell": 2385,
      "way": 2386,
      "don": 2387,
      "being": 2388,
      "##xt": 2389,
      "##oss": 2390,
      "includ": 2391,
      "def": 2392,
      "##ck": 2393,
      "##res": 2394,
      "##ating": 2395,
      "may": 2396,
      "##ower": 2397,
      "then": 2398,
      "rem": 2399,
      "many": 2400,
      "dif": 2401,
      "reg": 2402,
      "pres": 2403,
      "##ily": 2404,
      "ve": 2405,
      "##lect": 2406,
      "##ason": 2407,
      "think": 2408,
      "##ump": 2409,
      "sy": 2410,
      "##ased": 2411,
      "fl": 2412,
      "rel": 2413,
      "say": 2414,
      "##ood": 2415,
      "##meric": 2416,
      "##iew": 2417,
      "very": 2418,
      "200": 2419,
      "through": 2420,
      "##aking": 2421,
      "##ert": 2422,
      "##ath": 2423,
      "Americ": 2424,
      "should": 2425,
      "##ited": 2426,
      "##rib": 2427,
      "10": 2428,
      "ph": 2429,
      "end": 2430,
      "last": 2431,
      "state": 2432,
      "those": 2433,
      "You": 2434,
      "much": 2435,
      "##uring": 2436,
      "##ities": 2437,
      "own": 2438,
      "##ty": 2439,
      "down": 2440,
      "Re": 2441,
      "New": 2442,
      "show": 2443,
      "##ics": 2444,
      "mon": 2445,
      "##oth": 2446,
      "##ont": 2447,
      "ro": 2448,
      "well": 2449,
      "ass": 2450,
      "count": 2451,
      "##ative": 2452,
      "Fr": 2453,
      "long": 2454,
      "str": 2455,
      "bel": 2456,
      "does": 2457,
      "##ved": 2458,
      "##und": 2459,
      "##als": 2460,
      "##arg": 2461,
      "govern": 2462,
      "##arly": 2463,
      "##hen": 2464,
      "use": 2465,
      "##gr": 2466,
      "##ven": 2467,
      "before": 2468,
      "An": 2469,
      "id": 2470,
      "##ters": 2471,
      "##let": 2472,
      "##omet": 2473,
      "If": 2474,
      "##ward": 2475,
      "##ange": 2476,
      "start": 2477,
      "report": 2478,
      "##ific": 2479,
      "##ince": 2480,
      "made": 2481,
      "##oun": 2482,
      "fin": 2483,
      "##ible": 2484,
      "##ting": 2485,
      "im": 2486,
      "such": 2487,
      "gen": 2488,
      "##ues": 2489,
      "sm": 2490,
      "##olog": 2491,
      "##ife": 2492,
      "team": 2493,
      "##ied": 2494,
      "game": 2495,
      "##ced": 2496,
      "Br": 2497,
      "world": 2498,
      "going": 2499,
      "##ble": 2500,
      "##ee": 2501,
      "ac": 2502,
      "##ually": 2503,
      "min": 2504,
      "##ism": 2505,
      "set": 2506,
      "ter": 2507,
      "good": 2508,
      "##lp": 2509,
      "##ss": 2510,
      "sub": 2511,
      "##erson": 2512,
      "eff": 2513,
      "They": 2514,
      "stud": 2515,
      "##ists": 2516,
      "##llow": 2517,
      "sur": 2518,
      "##ful": 2519,
      "point": 2520,
      "gu": 2521,
      "##old": 2522,
      "##its": 2523,
      "wee": 2524,
      "##ility": 2525,
      "against": 2526,
      "Al": 2527,
      "For": 2528,
      "##urr": 2529,
      "produ": 2530,
      "##ars": 2531,
      "##stem": 2532,
      "lead": 2533,
      "##ax": 2534,
      "##ix": 2535,
      "help": 2536,
      "ke": 2537,
      "still": 2538,
      "##ys": 2539,
      "##gan": 2540,
      "while": 2541,
      "col": 2542,
      "##ently": 2543,
      "##imes": 2544,
      "##roup": 2545,
      "##ving": 2546,
      "##alk": 2547,
      "##ank": 2548,
      "##tern": 2549,
      "ob": 2550,
      "law": 2551,
      "inst": 2552,
      "##ote": 2553,
      "##ork": 2554,
      "##ween": 2555,
      "though": 2556,
      "sim": 2557,
      "There": 2558,
      "differ": 2559,
      "##air": 2560,
      "##illion": 2561,
      "says": 2562,
      "op": 2563,
      "Ar": 2564,
      "##ever": 2565,
      "Sh": 2566,
      "disc": 2567,
      "resp": 2568,
      "##ope": 2569,
      "take": 2570,
      "high": 2571,
      "offic": 2572,
      "##ms": 2573,
      "##self": 2574,
      "government": 2575,
      "That": 2576,
      "Sp": 2577,
      "same": 2578,
      "ins": 2579,
      "num": 2580,
      "between": 2581,
      "##land": 2582,
      "prov": 2583,
      "##ah": 2584,
      "##ution": 2585,
      "##ures": 2586,
      "##up": 2587,
      "sign": 2588,
      "##ather": 2589,
      "##ner": 2590,
      "##eral": 2591,
      "Com": 2592,
      "##cess": 2593,
      "somet": 2594,
      "run": 2595,
      "De": 2596,
      "ret": 2597,
      "##pl": 2598,
      "##uss": 2599,
      "##io": 2600,
      "found": 2601,
      "real": 2602,
      "trans": 2603,
      "##atch": 2604,
      "mem": 2605,
      "##ets": 2606,
      "Is": 2607,
      "##gg": 2608,
      "##read": 2609,
      "med": 2610,
      "##ool": 2611,
      "around": 2612,
      "##way": 2613,
      "three": 2614,
      "##ames": 2615,
      "day": 2616,
      "hand": 2617,
      "car": 2618,
      "spec": 2619,
      "##led": 2620,
      "##hes": 2621,
      "##velop": 2622,
      "system": 2623,
      "##hip": 2624,
      "cour": 2625,
      "mod": 2626,
      "##any": 2627,
      "used": 2628,
      "here": 2629,
      "##ves": 2630,
      "##az": 2631,
      "##yp": 2632,
      "##ives": 2633,
      "##der": 2634,
      "##cept": 2635,
      "##ouse": 2636,
      "really": 2637,
      "##ng": 2638,
      "group": 2639,
      "Le": 2640,
      "public": 2641,
      "support": 2642,
      "##ave": 2643,
      "ext": 2644,
      "000": 2645,
      "##ale": 2646,
      "Trump": 2647,
      "cap": 2648,
      "great": 2649,
      "##cent": 2650,
      "So": 2651,
      "fam": 2652,
      "##ern": 2653,
      "fact": 2654,
      "##ying": 2655,
      "Cl": 2656,
      "month": 2657,
      "happ": 2658,
      "read": 2659,
      "aut": 2660,
      "sl": 2661,
      "det": 2662,
      "both": 2663,
      "##irect": 2664,
      "em": 2665,
      "##ense": 2666,
      "##con": 2667,
      "conf": 2668,
      "find": 2669,
      "##ience": 2670,
      "cent": 2671,
      "wom": 2672,
      "cre": 2673,
      "##alth": 2674,
      "person": 2675,
      "##ts": 2676,
      "##dit": 2677,
      "##ines": 2678,
      "##ices": 2679,
      "##ular": 2680,
      "during": 2681,
      "iss": 2682,
      "##ins": 2683,
      "old": 2684,
      "war": 2685,
      "develop": 2686,
      "On": 2687,
      "big": 2688,
      "told": 2689,
      "dep": 2690,
      "##ivers": 2691,
      "##ision": 2692,
      "polit": 2693,
      "week": 2694,
      "bo": 2695,
      "follow": 2696,
      "leg": 2697,
      "##oh": 2698,
      "##ically": 2699,
      "Mar": 2700,
      "How": 2701,
      "##akes": 2702,
      "##ton": 2703,
      "##ene": 2704,
      "since": 2705,
      "##ages": 2706,
      "##ient": 2707,
      "few": 2708,
      "##aj": 2709,
      "power": 2710,
      "##ording": 2711,
      "##iet": 2712,
      "##ider": 2713,
      "che": 2714,
      "12": 2715,
      "cor": 2716,
      "requ": 2717,
      "too": 2718,
      "belie": 2719,
      "Ad": 2720,
      "lot": 2721,
      "fil": 2722,
      "##orth": 2723,
      "contin": 2724,
      "##ces": 2725,
      "At": 2726,
      "cle": 2727,
      "##att": 2728,
      "##min": 2729,
      "##chool": 2730,
      "##med": 2731,
      "prot": 2732,
      "soc": 2733,
      "loc": 2734,
      "life": 2735,
      "put": 2736,
      "something": 2737,
      "##pr": 2738,
      "##ash": 2739,
      "art": 2740,
      "opp": 2741,
      "##bers": 2742,
      "##ially": 2743,
      "Rep": 2744,
      "plan": 2745,
      "far": 2746,
      "head": 2747,
      "##ott": 2748,
      "##ention": 2749,
      "##ata": 2750,
      "##ized": 2751,
      "invest": 2752,
      "commun": 2753,
      "another": 2754,
      "met": 2755,
      "par": 2756,
      "inf": 2757,
      "rele": 2758,
      "things": 2759,
      "##get": 2760,
      "##ret": 2761,
      "pass": 2762,
      "char": 2763,
      "US": 2764,
      "poss": 2765,
      "##ency": 2766,
      "Bl": 2767,
      "##ute": 2768,
      "open": 2769,
      "15": 2770,
      "ask": 2771,
      "dem": 2772,
      "11": 2773,
      "never": 2774,
      "##red": 2775,
      "ll": 2776,
      "camp": 2777,
      "expl": 2778,
      "second": 2779,
      "##thing": 2780,
      "bus": 2781,
      "might": 2782,
      "##ize": 2783,
      "##ody": 2784,
      "mark": 2785,
      "Sc": 2786,
      "quest": 2787,
      "different": 2788,
      "##ross": 2789,
      "##iness": 2790,
      "##sp": 2791,
      "best": 2792,
      "each": 2793,
      "next": 2794,
      "come": 2795,
      "##ants": 2796,
      "adv": 2797,
      "She": 2798,
      "18": 2799,
      "child": 2800,
      "allow": 2801,
      "home": 2802,
      "including": 2803,
      "contro": 2804,
      "##ier": 2805,
      "feel": 2806,
      "called": 2807,
      "direct": 2808,
      "post": 2809,
      "##ittle": 2810,
      "What": 2811,
      "##ital": 2812,
      "percent": 2813,
      "seem": 2814,
      "##view": 2815,
      "pri": 2816,
      "ent": 2817,
      "conc": 2818,
      "##ield": 2819,
      "dist": 2820,
      "exper": 2821,
      "##ric": 2822,
      "##ness": 2823,
      "When": 2824,
      "##orn": 2825,
      "incre": 2826,
      "hum": 2827,
      "##ug": 2828,
      "##ling": 2829,
      "##rop": 2830,
      "result": 2831,
      "##ected": 2832,
      "Ph": 2833,
      "let": 2834,
      "##gy": 2835,
      "build": 2836,
      "##gram": 2837,
      "import": 2838,
      "##eng": 2839,
      "curr": 2840,
      "place": 2841,
      "gl": 2842,
      "hard": 2843,
      "inform": 2844,
      "without": 2845,
      "av": 2846,
      "number": 2847,
      "stand": 2848,
      "##osed": 2849,
      "##conom": 2850,
      "top": 2851,
      "care": 2852,
      "Ind": 2853,
      "season": 2854,
      "proble": 2855,
      "##erv": 2856,
      "million": 2857,
      "el": 2858,
      "##less": 2859,
      "##ately": 2860,
      "##chn": 2861,
      "four": 2862,
      "##ama": 2863,
      "ide": 2864,
      "country": 2865,
      "pop": 2866,
      "##rat": 2867,
      "mov": 2868,
      "emp": 2869,
      "##aim": 2870,
      "interest": 2871,
      "##riend": 2872,
      "dr": 2873,
      "red": 2874,
      "##oney": 2875,
      "American": 2876,
      "less": 2877,
      "##son": 2878,
      "tri": 2879,
      "fun": 2880,
      "turn": 2881,
      "##ral": 2882,
      "case": 2883,
      "##ably": 2884,
      "##ished": 2885,
      "partic": 2886,
      "##ration": 2887,
      "level": 2888,
      "better": 2889,
      "got": 2890,
      "Te": 2891,
      "##ways": 2892,
      "little": 2893,
      "val": 2894,
      "left": 2895,
      "beh": 2896,
      "Pro": 2897,
      "ref": 2898,
      "##ained": 2899,
      "win": 2900,
      "ann": 2901,
      "##over": 2902,
      "mil": 2903,
      "##ract": 2904,
      "dri": 2905,
      "##iting": 2906,
      "full": 2907,
      "main": 2908,
      "##ised": 2909,
      "keep": 2910,
      "##line": 2911,
      "attack": 2912,
      "rest": 2913,
      "police": 2914,
      "##ode": 2915,
      "##ned": 2916,
      "move": 2917,
      "didn": 2918,
      "##inal": 2919,
      "##ains": 2920,
      "prev": 2921,
      "##ina": 2922,
      "Ob": 2923,
      "effect": 2924,
      "serv": 2925,
      "test": 2926,
      "##ren": 2927,
      "class": 2928,
      "##ajor": 2929,
      "##ature": 2930,
      "school": 2931,
      "##atur": 2932,
      "pay": 2933,
      "form": 2934,
      "econom": 2935,
      "Be": 2936,
      "##ple": 2937,
      "program": 2938,
      "prof": 2939,
      "data": 2940,
      "pos": 2941,
      "based": 2942,
      "free": 2943,
      "Chr": 2944,
      "##ared": 2945,
      "##hor": 2946,
      "using": 2947,
      "bre": 2948,
      "typ": 2949,
      "##ined": 2950,
      "process": 2951,
      "appear": 2952,
      "30": 2953,
      "##arge": 2954,
      "small": 2955,
      "##ology": 2956,
      "All": 2957,
      "##atter": 2958,
      "##ik": 2959,
      "##leg": 2960,
      "giv": 2961,
      "Go": 2962,
      "list": 2963,
      "Can": 2964,
      "change": 2965,
      "##rem": 2966,
      "prom": 2967,
      "##uck": 2968,
      "##ready": 2969,
      "sol": 2970,
      "##ided": 2971,
      "eas": 2972,
      "spe": 2973,
      "##reen": 2974,
      "##rap": 2975,
      "unt": 2976,
      "##app": 2977,
      "company": 2978,
      "##ister": 2979,
      "United": 2980,
      "order": 2981,
      "Pr": 2982,
      "No": 2983,
      "women": 2984,
      "talk": 2985,
      "hist": 2986,
      "already": 2987,
      "##iversity": 2988,
      "rece": 2989,
      "##ten": 2990,
      "president": 2991,
      "##ird": 2992,
      "##ruct": 2993,
      "##ph": 2994,
      "official": 2995,
      "techn": 2996,
      "design": 2997,
      "##ians": 2998,
      "money": 2999,
      "later": 3000,
      "chang": 3001,
      "organ": 3002,
      "sk": 3003,
      "##br": 3004,
      "##here": 3005,
      "story": 3006,
      "why": 3007,
      "##urs": 3008,
      "business": 3009,
      "##ired": 3010,
      "always": 3011,
      "project": 3012,
      "major": 3013,
      "##used": 3014,
      "vis": 3015,
      "appro": 3016,
      "ele": 3017,
      "book": 3018,
      "est": 3019,
      "health": 3020,
      "thing": 3021,
      "##aining": 3022,
      "sever": 3023,
      "claim": 3024,
      "##sc": 3025,
      "edit": 3026,
      "##ases": 3027,
      "13": 3028,
      "information": 3029,
      "##aign": 3030,
      "oper": 3031,
      "var": 3032,
      "job": 3033,
      "##ohn": 3034,
      "199": 3035,
      "able": 3036,
      "One": 3037,
      "##outh": 3038,
      "grow": 3039,
      "friend": 3040,
      "cost": 3041,
      "16": 3042,
      "kill": 3043,
      "must": 3044,
      "To": 3045,
      "past": 3046,
      "const": 3047,
      "away": 3048,
      "making": 3049,
      "consider": 3050,
      "elect": 3051,
      "mar": 3052,
      "##ards": 3053,
      "important": 3054,
      "happen": 3055,
      "Pres": 3056,
      "Mr": 3057,
      "Con": 3058,
      "pat": 3059,
      "##ior": 3060,
      "city": 3061,
      "##aff": 3062,
      "##ption": 3063,
      "##ron": 3064,
      "tax": 3065,
      "Pl": 3066,
      "##uc": 3067,
      "14": 3068,
      "Or": 3069,
      "Se": 3070,
      "aff": 3071,
      "kind": 3072,
      "##ead": 3073,
      "##ample": 3074,
      "##stand": 3075,
      "##ury": 3076,
      "##orts": 3077,
      "##ission": 3078,
      "##ending": 3079,
      "##ror": 3080,
      "air": 3081,
      "doesn": 3082,
      "least": 3083,
      "large": 3084,
      "tell": 3085,
      "John": 3086,
      "men": 3087,
      "##ertain": 3088,
      "polic": 3089,
      "days": 3090,
      "gener": 3091,
      "campaign": 3092,
      "line": 3093,
      "name": 3094,
      "##row": 3095,
      "Comm": 3096,
      "Eur": 3097,
      "May": 3098,
      "view": 3099,
      "family": 3100,
      "##acy": 3101,
      "record": 3102,
      "##ides": 3103,
      "came": 3104,
      "Republic": 3105,
      "##urity": 3106,
      "enough": 3107,
      "##ered": 3108,
      "##co": 3109,
      "##ney": 3110,
      "until": 3111,
      "Tw": 3112,
      "sit": 3113,
      "prop": 3114,
      "news": 3115,
      "##ccess": 3116,
      "working": 3117,
      "##ences": 3118,
      "vide": 3119,
      "##els": 3120,
      "ear": 3121,
      "fund": 3122,
      "political": 3123,
      "##ality": 3124,
      "##ush": 3125,
      "##ator": 3126,
      "complet": 3127,
      "human": 3128,
      "25": 3129,
      "Me": 3130,
      "##augh": 3131,
      "mean": 3132,
      "intern": 3133,
      "##ries": 3134,
      "##alf": 3135,
      "17": 3136,
      "##ike": 3137,
      "##The": 3138,
      "deal": 3139,
      "actually": 3140,
      "Russ": 3141,
      "word": 3142,
      "##ley": 3143,
      "resear": 3144,
      "Sy": 3145,
      "bit": 3146,
      "##ived": 3147,
      "Dem": 3148,
      "##ued": 3149,
      "become": 3150,
      "##ember": 3151,
      "##ising": 3152,
      "##ional": 3153,
      "took": 3154,
      "##oad": 3155,
      "Mc": 3156,
      "##ots": 3157,
      "With": 3158,
      "##be": 3159,
      "former": 3160,
      "##ering": 3161,
      "##aps": 3162,
      "often": 3163,
      "##ox": 3164,
      "##ept": 3165,
      "dev": 3166,
      "##aring": 3167,
      "times": 3168,
      "won": 3169,
      "##side": 3170,
      "##iol": 3171,
      "##bs": 3172,
      "hour": 3173,
      "return": 3174,
      "##ane": 3175,
      "deb": 3176,
      "##ream": 3177,
      "give": 3178,
      "##ison": 3179,
      "##ified": 3180,
      "President": 3181,
      "##ocrat": 3182,
      "according": 3183,
      "night": 3184,
      "social": 3185,
      "fac": 3186,
      "games": 3187,
      "vot": 3188,
      "media": 3189,
      "la": 3190,
      "bas": 3191,
      "market": 3192,
      "##ither": 3193,
      "sw": 3194,
      "Am": 3195,
      "charac": 3196,
      "perform": 3197,
      "sing": 3198,
      "##gin": 3199,
      "known": 3200,
      "##ization": 3201,
      "five": 3202,
      "##lf": 3203,
      "doing": 3204,
      "##ann": 3205,
      "press": 3206,
      "occ": 3207,
      "Col": 3208,
      "stop": 3209,
      "Obama": 3210,
      "##aken": 3211,
      "having": 3212,
      "ant": 3213,
      "Co": 3214,
      "lear": 3215,
      "##ony": 3216,
      "bro": 3217,
      "Europe": 3218,
      "side": 3219,
      "equ": 3220,
      "water": 3221,
      "event": 3222,
      "seen": 3223,
      "##uture": 3224,
      "desc": 3225,
      "##idence": 3226,
      "today": 3227,
      "several": 3228,
      "##tt": 3229,
      "##idd": 3230,
      "crit": 3231,
      "##icle": 3232,
      "##loy": 3233,
      "After": 3234,
      "control": 3235,
      "##enn": 3236,
      "early": 3237,
      "##ware": 3238,
      "sex": 3239,
      "##ories": 3240,
      "author": 3241,
      "York": 3242,
      "##mber": 3243,
      "likely": 3244,
      "question": 3245,
      "##ured": 3246,
      "meet": 3247,
      "members": 3248,
      "##iously": 3249,
      "##oot": 3250,
      "whether": 3251,
      "vers": 3252,
      "##vert": 3253,
      "sure": 3254,
      "eng": 3255,
      "Ex": 3256,
      "went": 3257,
      "arg": 3258,
      "##raft": 3259,
      "young": 3260,
      "milit": 3261,
      "players": 3262,
      "##ows": 3263,
      "certain": 3264,
      "##une": 3265,
      "land": 3266,
      "example": 3267,
      "##artment": 3268,
      "Car": 3269,
      "##ium": 3270,
      "along": 3271,
      "invol": 3272,
      "States": 3273,
      "##ential": 3274,
      "product": 3275,
      "##ched": 3276,
      "100": 3277,
      "children": 3278,
      "once": 3279,
      "##que": 3280,
      "pot": 3281,
      "local": 3282,
      "success": 3283,
      "done": 3284,
      "##ubl": 3285,
      "non": 3286,
      "fight": 3287,
      "short": 3288,
      "within": 3289,
      "priv": 3290,
      "##most": 3291,
      "##work": 3292,
      "University": 3293,
      "pur": 3294,
      "months": 3295,
      "possible": 3296,
      "course": 3297,
      "activ": 3298,
      "##ended": 3299,
      "##ulation": 3300,
      "cover": 3301,
      "##ger": 3302,
      "means": 3303,
      "##ER": 3304,
      "However": 3305,
      "understand": 3306,
      "2016": 3307,
      "investig": 3308,
      "among": 3309,
      "##inc": 3310,
      "##gress": 3311,
      "viol": 3312,
      "##oint": 3313,
      "##pect": 3314,
      "fail": 3315,
      "thought": 3316,
      "##ats": 3317,
      "hold": 3318,
      "strong": 3319,
      "light": 3320,
      "problem": 3321,
      "##ivid": 3322,
      "orig": 3323,
      "##itter": 3324,
      "net": 3325,
      "avail": 3326,
      "##te": 3327,
      "reason": 3328,
      "exc": 3329,
      "Don": 3330,
      "future": 3331,
      "##by": 3332,
      "cho": 3333,
      "asked": 3334,
      "##ourn": 3335,
      "##ortun": 3336,
      "Pol": 3337,
      "State": 3338,
      "##ague": 3339,
      "##rew": 3340,
      "community": 3341,
      "##ederal": 3342,
      "yet": 3343,
      "Christ": 3344,
      "##por": 3345,
      "##empt": 3346,
      "##iver": 3347,
      "##lex": 3348,
      "##iety": 3349,
      "##oci": 3350,
      "##ggest": 3351,
      "video": 3352,
      "lim": 3353,
      "across": 3354,
      "##imate": 3355,
      "given": 3356,
      "sour": 3357,
      "##uff": 3358,
      "##ones": 3359,
      "prob": 3360,
      "cut": 3361,
      "My": 3362,
      "mus": 3363,
      "suggest": 3364,
      "##ler": 3365,
      "50": 3366,
      "##iving": 3367,
      "##itive": 3368,
      "arr": 3369,
      "national": 3370,
      "ident": 3371,
      "ca": 3372,
      "makes": 3373,
      "##ball": 3374,
      "party": 3375,
      "House": 3376,
      "others": 3377,
      "Ne": 3378,
      "Fl": 3379,
      "reported": 3380,
      "##aster": 3381,
      "##ances": 3382,
      "announ": 3383,
      "##fic": 3384,
      "believe": 3385,
      "getting": 3386,
      "##par": 3387,
      "death": 3388,
      "2015": 3389,
      "While": 3390,
      "Min": 3391,
      "##ensive": 3392,
      "indust": 3393,
      "##aged": 3394,
      "sent": 3395,
      "##ald": 3396,
      "employ": 3397,
      "creat": 3398,
      "Sen": 3399,
      "Cent": 3400,
      "Democrat": 3401,
      "ra": 3402,
      "##ober": 3403,
      "##urther": 3404,
      "clear": 3405,
      "issue": 3406,
      "##ands": 3407,
      "series": 3408,
      "started": 3409,
      "##book": 3410,
      "half": 3411,
      "available": 3412,
      "hig": 3413,
      "looking": 3414,
      "##ament": 3415,
      "America": 3416,
      "love": 3417,
      "close": 3418,
      "account": 3419,
      "Man": 3420,
      "mom": 3421,
      "almost": 3422,
      "Wor": 3423,
      "##ored": 3424,
      "court": 3425,
      "foc": 3426,
      "Canad": 3427,
      "##selves": 3428,
      "21": 3429,
      "Ger": 3430,
      "##ashing": 3431,
      "2014": 3432,
      "trad": 3433,
      "trying": 3434,
      "access": 3435,
      "history": 3436,
      "##duc": 3437,
      "##com": 3438,
      "Not": 3439,
      "##ely": 3440,
      "##hers": 3441,
      "24": 3442,
      "foot": 3443,
      "following": 3444,
      "comes": 3445,
      "pract": 3446,
      "ago": 3447,
      "Sec": 3448,
      "recent": 3449,
      "low": 3450,
      "toget": 3451,
      "##ination": 3452,
      "film": 3453,
      "saf": 3454,
      "rul": 3455,
      "together": 3456,
      "face": 3457,
      "##uly": 3458,
      "##itional": 3459,
      "Do": 3460,
      "##utes": 3461,
      "##ape": 3462,
      "experience": 3463,
      "fre": 3464,
      "Su": 3465,
      "##ument": 3466,
      "mind": 3467,
      "Just": 3468,
      "##reet": 3469,
      "added": 3470,
      "##ief": 3471,
      "##ividual": 3472,
      "idea": 3473,
      "##ustom": 3474,
      "##ails": 3475,
      "repres": 3476,
      "bad": 3477,
      "isn": 3478,
      "food": 3479,
      "##ability": 3480,
      "impro": 3481,
      "near": 3482,
      "Now": 3483,
      "##pped": 3484,
      "bene": 3485,
      "##ilar": 3486,
      "Cal": 3487,
      "These": 3488,
      "##rael": 3489,
      "##unch": 3490,
      "##iter": 3491,
      "tot": 3492,
      "miss": 3493,
      "area": 3494,
      "ris": 3495,
      "anything": 3496,
      "proper": 3497,
      "anal": 3498,
      "six": 3499,
      "live": 3500,
      "##ged": 3501,
      "##rict": 3502,
      "black": 3503,
      "Har": 3504,
      "protect": 3505,
      "present": 3506,
      "taken": 3507,
      "Israel": 3508,
      "Eng": 3509,
      "Im": 3510,
      "##ference": 3511,
      "War": 3512,
      "##though": 3513,
      "Brit": 3514,
      "App": 3515,
      "##AT": 3516,
      "22": 3517,
      "phot": 3518,
      "Gr": 3519,
      "saying": 3520,
      "North": 3521,
      "His": 3522,
      "##osp": 3523,
      "198": 3524,
      "enc": 3525,
      "publ": 3526,
      "##raw": 3527,
      "mor": 3528,
      "compet": 3529,
      "behind": 3530,
      "Fe": 3531,
      "conn": 3532,
      "security": 3533,
      "threat": 3534,
      "bill": 3535,
      "##ids": 3536,
      "individual": 3537,
      "mult": 3538,
      "entire": 3539,
      "mess": 3540,
      "##minist": 3541,
      "##ograp": 3542,
      "vict": 3543,
      "Some": 3544,
      "##wards": 3545,
      "##inton": 3546,
      "key": 3547,
      "##ai": 3548,
      "rather": 3549,
      "##ring": 3550,
      "military": 3551,
      "##ted": 3552,
      "Bar": 3553,
      "##ming": 3554,
      "Ab": 3555,
      "current": 3556,
      "##ators": 3557,
      "##nes": 3558,
      "concern": 3559,
      "fav": 3560,
      "third": 3561,
      "policy": 3562,
      "Dep": 3563,
      "##vir": 3564,
      "##uge": 3565,
      "try": 3566,
      "##use": 3567,
      "fall": 3568,
      "##irc": 3569,
      "quick": 3570,
      "##for": 3571,
      "cult": 3572,
      "special": 3573,
      "single": 3574,
      "wanted": 3575,
      "coun": 3576,
      "sum": 3577,
      "Gu": 3578,
      "stat": 3579,
      "ener": 3580,
      "##aid": 3581,
      "someone": 3582,
      "##isc": 3583,
      "discuss": 3584,
      "player": 3585,
      "##af": 3586,
      "exist": 3587,
      "National": 3588,
      "Af": 3589,
      "study": 3590,
      "Dav": 3591,
      "comb": 3592,
      "City": 3593,
      "Res": 3594,
      "##rug": 3595,
      "##sw": 3596,
      "bring": 3597,
      "2013": 3598,
      "mass": 3599,
      "Part": 3600,
      "colle": 3601,
      "Inst": 3602,
      "##ales": 3603,
      "##lement": 3604,
      "##arch": 3605,
      "cou": 3606,
      "Med": 3607,
      "jo": 3608,
      "pret": 3609,
      "##aper": 3610,
      "nothing": 3611,
      "body": 3612,
      "ey": 3613,
      "Ge": 3614,
      "##hy": 3615,
      "Aust": 3616,
      "Clinton": 3617,
      "compan": 3618,
      "taking": 3619,
      "##viron": 3620,
      "probably": 3621,
      "coming": 3622,
      "self": 3623,
      "attempt": 3624,
      "World": 3625,
      "Ass": 3626,
      "##back": 3627,
      "house": 3628,
      "##eter": 3629,
      "ap": 3630,
      "##ef": 3631,
      "##ply": 3632,
      "front": 3633,
      "enter": 3634,
      "else": 3635,
      "Jan": 3636,
      "rights": 3637,
      "##olution": 3638,
      "describ": 3639,
      "##ender": 3640,
      "By": 3641,
      "imm": 3642,
      "watch": 3643,
      "##eal": 3644,
      "##lier": 3645,
      "##ster": 3646,
      "step": 3647,
      "fig": 3648,
      "doc": 3649,
      "sus": 3650,
      "wa": 3651,
      "create": 3652,
      "##ashington": 3653,
      "##0s": 3654,
      "either": 3655,
      "however": 3656,
      "esp": 3657,
      "stri": 3658,
      "##ify": 3659,
      "2017": 3660,
      "##yn": 3661,
      "##ully": 3662,
      "room": 3663,
      "##iam": 3664,
      "similar": 3665,
      "targ": 3666,
      "decision": 3667,
      "##my": 3668,
      "##ttp": 3669,
      "Washington": 3670,
      "Pe": 3671,
      "tra": 3672,
      "##ault": 3673,
      "South": 3674,
      "super": 3675,
      "federal": 3676,
      "##ran": 3677,
      "##asing": 3678,
      "energy": 3679,
      "##aces": 3680,
      "##elt": 3681,
      "conv": 3682,
      "service": 3683,
      "signific": 3684,
      "##irl": 3685,
      "sound": 3686,
      "research": 3687,
      "issues": 3688,
      "everything": 3689,
      "wrote": 3690,
      "cann": 3691,
      "further": 3692,
      "points": 3693,
      "##amed": 3694,
      "German": 3695,
      "begin": 3696,
      "opt": 3697,
      "whole": 3698,
      "2012": 3699,
      "field": 3700,
      "China": 3701,
      "lab": 3702,
      "23": 3703,
      "##ites": 3704,
      "dam": 3705,
      "##ON": 3706,
      "fire": 3707,
      "exec": 3708,
      "due": 3709,
      "##IN": 3710,
      "##ively": 3711,
      "infl": 3712,
      "break": 3713,
      "final": 3714,
      "##tain": 3715,
      "white": 3716,
      "matter": 3717,
      "space": 3718,
      "officials": 3719,
      "pick": 3720,
      "action": 3721,
      "Par": 3722,
      "##ivil": 3723,
      "##oll": 3724,
      "seems": 3725,
      "ban": 3726,
      "released": 3727,
      "chall": 3728,
      "40": 3729,
      "gun": 3730,
      "amount": 3731,
      "##iday": 3732,
      "companies": 3733,
      "##very": 3734,
      "##sy": 3735,
      "custom": 3736,
      "##atic": 3737,
      "##ana": 3738,
      "specific": 3739,
      "dou": 3740,
      "states": 3741,
      "##arth": 3742,
      "development": 3743,
      "##itted": 3744,
      "hit": 3745,
      "##ecially": 3746,
      "Acc": 3747,
      "neg": 3748,
      "##uation": 3749,
      "expect": 3750,
      "larg": 3751,
      "hope": 3752,
      "##ried": 3753,
      "dom": 3754,
      "meas": 3755,
      "cand": 3756,
      "statement": 3757,
      "##vironment": 3758,
      "En": 3759,
      "leaders": 3760,
      "role": 3761,
      "began": 3762,
      "treat": 3763,
      "ground": 3764,
      "general": 3765,
      "##attle": 3766,
      "rad": 3767,
      "students": 3768,
      "##ches": 3769,
      "position": 3770,
      "##ung": 3771,
      "character": 3772,
      "##ilt": 3773,
      "bar": 3774,
      "hours": 3775,
      "##ades": 3776,
      "himself": 3777,
      "##pite": 3778,
      "##obal": 3779,
      "continue": 3780,
      "itself": 3781,
      "init": 3782,
      "Intern": 3783,
      "relations": 3784,
      "value": 3785,
      "became": 3786,
      "##oon": 3787,
      "##arm": 3788,
      "wasn": 3789,
      "building": 3790,
      "dest": 3791,
      "true": 3792,
      "common": 3793,
      "##ibility": 3794,
      "term": 3795,
      "address": 3796,
      "evidence": 3797,
      "##itch": 3798,
      "Will": 3799,
      "tem": 3800,
      "provide": 3801,
      "office": 3802,
      "outside": 3803,
      "agree": 3804,
      "##lus": 3805,
      "above": 3806,
      "##yc": 3807,
      "represent": 3808,
      "##oud": 3809,
      "themselves": 3810,
      "countries": 3811,
      "simply": 3812,
      "##iod": 3813,
      "version": 3814,
      "needed": 3815,
      "benef": 3816,
      "Dr": 3817,
      "profess": 3818,
      "interview": 3819,
      "##ficult": 3820,
      "cop": 3821,
      "##port": 3822,
      "running": 3823,
      "election": 3824,
      "aver": 3825,
      "##IS": 3826,
      "##aul": 3827,
      "groups": 3828,
      "##lim": 3829,
      "deep": 3830,
      "##ural": 3831,
      "##ili": 3832,
      "significant": 3833,
      "difficult": 3834,
      "block": 3835,
      "include": 3836,
      "mag": 3837,
      "##ends": 3838,
      "West": 3839,
      "especially": 3840,
      "##ached": 3841,
      "##amer": 3842,
      "##cer": 3843,
      "Ste": 3844,
      "deli": 3845,
      "##BC": 3846,
      "##AR": 3847,
      "##lish": 3848,
      "Mus": 3849,
      "Sm": 3850,
      "##yle": 3851,
      "charg": 3852,
      "answ": 3853,
      "financ": 3854,
      "led": 3855,
      "##ogn": 3856,
      "Per": 3857,
      "release": 3858,
      "Ke": 3859,
      "anim": 3860,
      "saw": 3861,
      "197": 3862,
      "woman": 3863,
      "pretty": 3864,
      "everyone": 3865,
      "needs": 3866,
      "administ": 3867,
      "late": 3868,
      "##aced": 3869,
      "##arter": 3870,
      "below": 3871,
      "drug": 3872,
      "http": 3873,
      "music": 3874,
      "redu": 3875,
      "##iddle": 3876,
      "ball": 3877,
      "suff": 3878,
      "phys": 3879,
      "inj": 3880,
      "Face": 3881,
      "##rodu": 3882,
      "respons": 3883,
      "abs": 3884,
      "legal": 3885,
      "billion": 3886,
      "##atures": 3887,
      "pain": 3888,
      "played": 3889,
      "News": 3890,
      "track": 3891,
      "jud": 3892,
      "Oct": 3893,
      "##ournal": 3894,
      "instead": 3895,
      "ple": 3896,
      "playing": 3897,
      "relig": 3898,
      "industry": 3899,
      "site": 3900,
      "sense": 3901,
      "lost": 3902,
      "##fully": 3903,
      "shows": 3904,
      "tit": 3905,
      "check": 3906,
      "friends": 3907,
      "Mich": 3908,
      "##ests": 3909,
      "##oid": 3910,
      "hom": 3911,
      "quite": 3912,
      "##ask": 3913,
      "Ed": 3914,
      "host": 3915,
      "White": 3916,
      "God": 3917,
      "##AN": 3918,
      "deter": 3919,
      "##lling": 3920,
      "##umb": 3921,
      "Cong": 3922,
      "economic": 3923,
      "consum": 3924,
      "Gen": 3925,
      "ep": 3926,
      "type": 3927,
      "##ribut": 3928,
      "lo": 3929,
      "changes": 3930,
      "##ogle": 3931,
      "forward": 3932,
      "##OR": 3933,
      "circ": 3934,
      "Twitter": 3935,
      "object": 3936,
      "##lam": 3937,
      "function": 3938,
      "recently": 3939,
      "pie": 3940,
      "candid": 3941,
      "div": 3942,
      "##now": 3943,
      "alleg": 3944,
      "moment": 3945,
      "educ": 3946,
      "##ival": 3947,
      "##angu": 3948,
      "mot": 3949,
      "Aug": 3950,
      "##mb": 3951,
      "held": 3952,
      "Sept": 3953,
      "vote": 3954,
      "##osing": 3955,
      "accept": 3956,
      "period": 3957,
      "goal": 3958,
      "##head": 3959,
      "##hood": 3960,
      "cred": 3961,
      "##ift": 3962,
      "weeks": 3963,
      "ce": 3964,
      "##oring": 3965,
      "decl": 3966,
      "##istic": 3967,
      "March": 3968,
      "total": 3969,
      "opportun": 3970,
      "age": 3971,
      "Facebook": 3972,
      "##irst": 3973,
      "soon": 3974,
      "27": 3975,
      "works": 3976,
      "rev": 3977,
      "words": 3978,
      "Republican": 3979,
      "Cr": 3980,
      "Here": 3981,
      "June": 3982,
      "online": 3983,
      "share": 3984,
      "##oe": 3985,
      "anti": 3986,
      "walk": 3987,
      "26": 3988,
      "##medi": 3989,
      "wrong": 3990,
      "2011": 3991,
      "Syri": 3992,
      "code": 3993,
      "webs": 3994,
      "higher": 3995,
      "##ES": 3996,
      "##ights": 3997,
      "##oke": 3998,
      "##ager": 3999,
      "##ench": 4000,
      "##epend": 4001,
      "##ients": 4002,
      "longer": 4003,
      "Red": 4004,
      "laws": 4005,
      "##itting": 4006,
      "risk": 4007,
      "review": 4008,
      "connect": 4009,
      "##onse": 4010,
      "express": 4011,
      "Act": 4012,
      "According": 4013,
      "shoot": 4014,
      "stay": 4015,
      "pred": 4016,
      "pack": 4017,
      "den": 4018,
      "##den": 4019,
      "article": 4020,
      "##lt": 4021,
      "##gn": 4022,
      "focus": 4023,
      "##irt": 4024,
      "potential": 4025,
      "Apr": 4026,
      "Department": 4027,
      "##uary": 4028,
      "##ners": 4029,
      "##ularly": 4030,
      "##ees": 4031,
      "environment": 4032,
      "28": 4033,
      "rate": 4034,
      "terror": 4035,
      "comput": 4036,
      "##play": 4037,
      "fore": 4038,
      "##AS": 4039,
      "Sw": 4040,
      "##aut": 4041,
      "vol": 4042,
      "results": 4043,
      "stru": 4044,
      "##iding": 4045,
      "##asons": 4046,
      "2010": 4047,
      "contract": 4048,
      "personal": 4049,
      "July": 4050,
      "##alt": 4051,
      "technology": 4052,
      "Her": 4053,
      "##hod": 4054,
      "##ique": 4055,
      "Off": 4056,
      "dead": 4057,
      "repl": 4058,
      "Google": 4059,
      "wind": 4060,
      "anyone": 4061,
      "refer": 4062,
      "upd": 4063,
      "sold": 4064,
      "services": 4065,
      "Cont": 4066,
      "target": 4067,
      "applic": 4068,
      "shot": 4069,
      "Hill": 4070,
      "comment": 4071,
      "Congress": 4072,
      "Cour": 4073,
      "##ule": 4074,
      "##ested": 4075,
      "popular": 4076,
      "et": 4077,
      "Americans": 4078,
      "aud": 4079,
      "00": 4080,
      "private": 4081,
      "##ript": 4082,
      "Phot": 4083,
      "##sec": 4084,
      "problems": 4085,
      "created": 4086,
      "More": 4087,
      "minutes": 4088,
      "received": 4089,
      "##itution": 4090,
      "##ett": 4091,
      "Even": 4092,
      "prim": 4093,
      "capt": 4094,
      "cell": 4095,
      "extrem": 4096,
      "surpr": 4097,
      "##where": 4098,
      "##ateg": 4099,
      "##ole": 4100,
      "heart": 4101,
      "##omm": 4102,
      "##aging": 4103,
      "##aterial": 4104,
      "##hem": 4105,
      "Ag": 4106,
      "ways": 4107,
      "cit": 4108,
      "##haps": 4109,
      "necess": 4110,
      "earlier": 4111,
      "##yr": 4112,
      "coll": 4113,
      "expected": 4114,
      "scient": 4115,
      "base": 4116,
      "port": 4117,
      "Austral": 4118,
      "announced": 4119,
      "reve": 4120,
      "##isl": 4121,
      "##reg": 4122,
      "round": 4123,
      "##urch": 4124,
      "##anger": 4125,
      "April": 4126,
      "##ength": 4127,
      "Friday": 4128,
      "Des": 4129,
      "increase": 4130,
      "force": 4131,
      "questions": 4132,
      "page": 4133,
      "##cil": 4134,
      "Qu": 4135,
      "impact": 4136,
      "##bo": 4137,
      "##eed": 4138,
      "civil": 4139,
      "international": 4140,
      "cannot": 4141,
      "##apan": 4142,
      "exact": 4143,
      "original": 4144,
      "ur": 4145,
      "Calif": 4146,
      "Russia": 4147,
      "##hern": 4148,
      "##ude": 4149,
      "average": 4150,
      "easy": 4151,
      "##ham": 4152,
      "Pal": 4153,
      "soft": 4154,
      "execut": 4155,
      "price": 4156,
      "##ilities": 4157,
      "##off": 4158,
      "##ij": 4159,
      "##uel": 4160,
      "##fect": 4161,
      "estab": 4162,
      "Mond": 4163,
      "cases": 4164,
      "involved": 4165,
      "staff": 4166,
      "cal": 4167,
      "Cor": 4168,
      "content": 4169,
      "nearly": 4170,
      "source": 4171,
      "Gl": 4172,
      "speak": 4173,
      "langu": 4174,
      "29": 4175,
      "global": 4176,
      "hop": 4177,
      "favor": 4178,
      "sen": 4179,
      "heav": 4180,
      "mat": 4181,
      "log": 4182,
      "leave": 4183,
      "##atives": 4184,
      "David": 4185,
      "living": 4186,
      "##lear": 4187,
      "Japan": 4188,
      "##go": 4189,
      "El": 4190,
      "users": 4191,
      "##ex": 4192,
      "##iple": 4193,
      "aw": 4194,
      "##put": 4195,
      "##itten": 4196,
      "worth": 4197,
      "##ises": 4198,
      "196": 4199,
      "Geor": 4200,
      "##uth": 4201,
      "killed": 4202,
      "model": 4203,
      "response": 4204,
      "subject": 4205,
      "weap": 4206,
      "fem": 4207,
      "##aur": 4208,
      "collect": 4209,
      "inside": 4210,
      "##ittee": 4211,
      "road": 4212,
      "##key": 4213,
      "##atural": 4214,
      "ed": 4215,
      "capital": 4216,
      "reports": 4217,
      "Count": 4218,
      "director": 4219,
      "##sh": 4220,
      "nation": 4221,
      "broad": 4222,
      "##aving": 4223,
      "obs": 4224,
      "wide": 4225,
      "workers": 4226,
      "January": 4227,
      "##okes": 4228,
      "##itions": 4229,
      "TV": 4230,
      "becom": 4231,
      "European": 4232,
      "##duct": 4233,
      "fans": 4234,
      "published": 4235,
      "immedi": 4236,
      "Wed": 4237,
      "adm": 4238,
      "##load": 4239,
      "defin": 4240,
      "worked": 4241,
      "Tues": 4242,
      "girl": 4243,
      "respond": 4244,
      "##hel": 4245,
      "club": 4246,
      "cond": 4247,
      "##ological": 4248,
      "text": 4249,
      "35": 4250,
      "size": 4251,
      "mid": 4252,
      "associ": 4253,
      "member": 4254,
      "Monday": 4255,
      "gave": 4256,
      "##joy": 4257,
      "##of": 4258,
      "terms": 4259,
      "relationship": 4260,
      "fear": 4261,
      "financial": 4262,
      "decided": 4263,
      "##bor": 4264,
      "##ael": 4265,
      "via": 4266,
      "Tuesday": 4267,
      "lat": 4268,
      "##ellig": 4269,
      "##idents": 4270,
      "buy": 4271,
      "happened": 4272,
      "phone": 4273,
      "turned": 4274,
      "##ze": 4275,
      "emer": 4276,
      "pict": 4277,
      "takes": 4278,
      "##izing": 4279,
      "chance": 4280,
      "email": 4281,
      "foreign": 4282,
      "er": 4283,
      "##unt": 4284,
      "##omb": 4285,
      "##ging": 4286,
      "influ": 4287,
      "Islam": 4288,
      "lack": 4289,
      "confir": 4290,
      "September": 4291,
      "whose": 4292,
      "##icro": 4293,
      "norm": 4294,
      "##ino": 4295,
      "material": 4296,
      "##ctor": 4297,
      "respect": 4298,
      "ability": 4299,
      "##rought": 4300,
      "##ky": 4301,
      "recogn": 4302,
      "Nove": 4303,
      "mother": 4304,
      "Feb": 4305,
      "require": 4306,
      "##onst": 4307,
      "Sund": 4308,
      "bank": 4309,
      "lower": 4310,
      "secret": 4311,
      "Court": 4312,
      "British": 4313,
      "##ought": 4314,
      "San": 4315,
      "##lin": 4316,
      "Of": 4317,
      "Sch": 4318,
      "currently": 4319,
      "regard": 4320,
      "##ips": 4321,
      "Paul": 4322,
      "Bec": 4323,
      "##ese": 4324,
      "First": 4325,
      "##20": 4326,
      "areas": 4327,
      "##iff": 4328,
      "November": 4329,
      "ill": 4330,
      "dig": 4331,
      "##osition": 4332,
      "##action": 4333,
      "plans": 4334,
      "match": 4335,
      "situation": 4336,
      "IS": 4337,
      "couple": 4338,
      "##uit": 4339,
      "##apt": 4340,
      "oil": 4341,
      "arri": 4342,
      "simple": 4343,
      "Californ": 4344,
      "##ruction": 4345,
      "Then": 4346,
      "indic": 4347,
      "##xic": 4348,
      "Thurs": 4349,
      "administration": 4350,
      "lives": 4351,
      "star": 4352,
      "bur": 4353,
      "Wednes": 4354,
      "meeting": 4355,
      "##reed": 4356,
      "built": 4357,
      "felt": 4358,
      "huge": 4359,
      "##ctions": 4360,
      "bi": 4361,
      "##ops": 4362,
      "goes": 4363,
      "Post": 4364,
      "mis": 4365,
      "##EN": 4366,
      "approach": 4367,
      "tal": 4368,
      "pull": 4369,
      "Wednesday": 4370,
      "tou": 4371,
      "Black": 4372,
      "August": 4373,
      "boy": 4374,
      "vo": 4375,
      "Star": 4376,
      "Thursday": 4377,
      "##aud": 4378,
      "thous": 4379,
      "ste": 4380,
      "discover": 4381,
      "town": 4382,
      "network": 4383,
      "##oved": 4384,
      "31": 4385,
      "method": 4386,
      "poll": 4387,
      "hon": 4388,
      "link": 4389,
      "fair": 4390,
      "events": 4391,
      "##ructure": 4392,
      "father": 4393,
      "quickly": 4394,
      "performance": 4395,
      "trade": 4396,
      "offer": 4397,
      "particip": 4398,
      "teams": 4399,
      "##vertise": 4400,
      "Canada": 4401,
      "UK": 4402,
      "heard": 4403,
      "##hic": 4404,
      "##ental": 4405,
      "neigh": 4406,
      "California": 4407,
      "hot": 4408,
      "pers": 4409,
      "Get": 4410,
      "##rain": 4411,
      "engine": 4412,
      "##ills": 4413,
      "hands": 4414,
      "race": 4415,
      "October": 4416,
      "##ety": 4417,
      "loss": 4418,
      "Ang": 4419,
      "Afric": 4420,
      "60": 4421,
      "production": 4422,
      "tool": 4423,
      "Well": 4424,
      "Mark": 4425,
      "travel": 4426,
      "economy": 4427,
      "##ires": 4428,
      "tele": 4429,
      "##val": 4430,
      "unc": 4431,
      "knew": 4432,
      "squ": 4433,
      "##ams": 4434,
      "website": 4435,
      "cause": 4436,
      "legisl": 4437,
      "improve": 4438,
      "##iction": 4439,
      "board": 4440,
      "##aily": 4441,
      "separ": 4442,
      "##cember": 4443,
      "spent": 4444,
      "speed": 4445,
      "enjoy": 4446,
      "##ani": 4447,
      "Our": 4448,
      "di": 4449,
      "doll": 4450,
      "victim": 4451,
      "rac": 4452,
      "##atory": 4453,
      "growth": 4454,
      "Every": 4455,
      "reveal": 4456,
      "population": 4457,
      "##ession": 4458,
      "Sunday": 4459,
      "2009": 4460,
      "demand": 4461,
      "December": 4462,
      "tried": 4463,
      "Russian": 4464,
      "numbers": 4465,
      "##chie": 4466,
      "reach": 4467,
      "career": 4468,
      "visit": 4469,
      "##body": 4470,
      "eight": 4471,
      "##estern": 4472,
      "included": 4473,
      "corre": 4474,
      "progress": 4475,
      "liber": 4476,
      "##force": 4477,
      "##king": 4478,
      "song": 4479,
      "independ": 4480,
      "allowed": 4481,
      "##iber": 4482,
      "##wh": 4483,
      "behav": 4484,
      "##ores": 4485,
      "wants": 4486,
      "Let": 4487,
      "##ceed": 4488,
      "gets": 4489,
      "##ume": 4490,
      "##orters": 4491,
      "aren": 4492,
      "Pat": 4493,
      "sett": 4494,
      "sn": 4495,
      "Why": 4496,
      "perfect": 4497,
      "##ED": 4498,
      "contact": 4499,
      "Fin": 4500,
      "##erc": 4501,
      "Times": 4502,
      "Iran": 4503,
      "##uses": 4504,
      "movement": 4505,
      "##light": 4506,
      "search": 4507,
      "poor": 4508,
      "Ser": 4509,
      "ess": 4510,
      "Kore": 4511,
      "bud": 4512,
      "ens": 4513,
      "Park": 4514,
      "##na": 4515,
      "##In": 4516,
      "##oor": 4517,
      "##ishing": 4518,
      "From": 4519,
      "##gest": 4520,
      "looks": 4521,
      "King": 4522,
      "image": 4523,
      "related": 4524,
      "##ened": 4525,
      "forces": 4526,
      "sens": 4527,
      "morning": 4528,
      "previous": 4529,
      "citiz": 4530,
      "particular": 4531,
      "mention": 4532,
      "leader": 4533,
      "brought": 4534,
      "box": 4535,
      "2008": 4536,
      "attention": 4537,
      "Cons": 4538,
      "rules": 4539,
      "##aker": 4540,
      "##yond": 4541,
      "tre": 4542,
      "##ibly": 4543,
      "Sand": 4544,
      "##omp": 4545,
      "screen": 4546,
      "##undred": 4547,
      "range": 4548,
      "##arily": 4549,
      "##bit": 4550,
      "various": 4551,
      "Mor": 4552,
      "medical": 4553,
      "Ira": 4554,
      "##ipp": 4555,
      "##chers": 4556,
      "Party": 4557,
      "quality": 4558,
      "latest": 4559,
      "hor": 4560,
      "reb": 4561,
      "Je": 4562,
      "##agement": 4563,
      "##ps": 4564,
      "slow": 4565,
      "##anks": 4566,
      "##sequ": 4567,
      "fast": 4568,
      "Center": 4569,
      "considered": 4570,
      "##oph": 4571,
      "500": 4572,
      "except": 4573,
      "##inks": 4574,
      "talking": 4575,
      "##face": 4576,
      "coach": 4577,
      "introdu": 4578,
      "##raz": 4579,
      "features": 4580,
      "##ww": 4581,
      "Soc": 4582,
      "Iraq": 4583,
      "written": 4584,
      "Street": 4585,
      "sort": 4586,
      "hear": 4587,
      "mach": 4588,
      "learn": 4589,
      "language": 4590,
      "Donald": 4591,
      "Satur": 4592,
      "serious": 4593,
      "upon": 4594,
      "critic": 4595,
      "##come": 4596,
      "Char": 4597,
      "son": 4598,
      "wond": 4599,
      "training": 4600,
      "##ented": 4601,
      "bott": 4602,
      "##uments": 4603,
      "##het": 4604,
      "card": 4605,
      "##order": 4606,
      "##asc": 4607,
      "strugg": 4608,
      "cur": 4609,
      "user": 4610,
      "susp": 4611,
      "##rit": 4612,
      "prep": 4613,
      "Up": 4614,
      "Muslim": 4615,
      "##ening": 4616,
      "Senate": 4617,
      "conduct": 4618,
      "##ondon": 4619,
      "##oo": 4620,
      "##enced": 4621,
      "India": 4622,
      "systems": 4623,
      "##ha": 4624,
      "##ledge": 4625,
      "##hold": 4626,
      "seven": 4627,
      "investigation": 4628,
      "crim": 4629,
      "increasing": 4630,
      "document": 4631,
      "##lled": 4632,
      "Police": 4633,
      "conserv": 4634,
      "##St": 4635,
      "natural": 4636,
      "##ma": 4637,
      "Bro": 4638,
      "immig": 4639,
      "Tex": 4640,
      "paper": 4641,
      "##hest": 4642,
      "achie": 4643,
      "addition": 4644,
      "##vil": 4645,
      "particularly": 4646,
      "parents": 4647,
      "completely": 4648,
      "Saturday": 4649,
      "##imately": 4650,
      "##elligence": 4651,
      "##cast": 4652,
      "defense": 4653,
      "draw": 4654,
      "regul": 4655,
      "Most": 4656,
      "surve": 4657,
      "lay": 4658,
      "income": 4659,
      "Sim": 4660,
      "McC": 4661,
      "majority": 4662,
      "Net": 4663,
      "inn": 4664,
      "##ges": 4665,
      "Comp": 4666,
      "Jer": 4667,
      "levels": 4668,
      "society": 4669,
      "##ification": 4670,
      "remember": 4671,
      "effort": 4672,
      "##vent": 4673,
      "extra": 4674,
      "install": 4675,
      "London": 4676,
      "32": 4677,
      "Jew": 4678,
      "##aries": 4679,
      "message": 4680,
      "looked": 4681,
      "resour": 4682,
      "##like": 4683,
      "required": 4684,
      "although": 4685,
      "County": 4686,
      "Other": 4687,
      "Oh": 4688,
      "style": 4689,
      "##ruary": 4690,
      "doub": 4691,
      "quarter": 4692,
      "plat": 4693,
      "officers": 4694,
      "science": 4695,
      "##sych": 4696,
      "45": 4697,
      "Coun": 4698,
      "##imum": 4699,
      "Rom": 4700,
      "obv": 4701,
      "claims": 4702,
      "##OS": 4703,
      "Lab": 4704,
      "communic": 4705,
      "growing": 4706,
      "prison": 4707,
      "paid": 4708,
      "Michael": 4709,
      "##encies": 4710,
      "leading": 4711,
      "exactly": 4712,
      "##oles": 4713,
      "##ining": 4714,
      "movie": 4715,
      "carry": 4716,
      "jobs": 4717,
      "blood": 4718,
      "hundred": 4719,
      "despite": 4720,
      "middle": 4721,
      "experi": 4722,
      "##ysis": 4723,
      "February": 4724,
      "prior": 4725,
      "described": 4726,
      "East": 4727,
      "spokes": 4728,
      "##istan": 4729,
      "##IC": 4730,
      "##rupt": 4731,
      "Republicans": 4732,
      "interesting": 4733,
      "fill": 4734,
      "attacks": 4735,
      "journal": 4736,
      "sometimes": 4737,
      "modern": 4738,
      "Int": 4739,
      "##ground": 4740,
      "named": 4741,
      "##field": 4742,
      "##bed": 4743,
      "century": 4744,
      "##uf": 4745,
      "People": 4746,
      "Bill": 4747,
      "##lied": 4748,
      "biggest": 4749,
      "sexual": 4750,
      "opportunity": 4751,
      "table": 4752,
      "##AL": 4753,
      "##hib": 4754,
      "##oses": 4755,
      "Over": 4756,
      "Tur": 4757,
      "##emy": 4758,
      "pan": 4759,
      "imag": 4760,
      "##coin": 4761,
      "##eech": 4762,
      "products": 4763,
      "mur": 4764,
      "answer": 4765,
      "dro": 4766,
      "complete": 4767,
      "##unk": 4768,
      "path": 4769,
      "convers": 4770,
      "gas": 4771,
      "##ux": 4772,
      "##esh": 4773,
      "details": 4774,
      "fix": 4775,
      "surv": 4776,
      "stories": 4777,
      "##aught": 4778,
      "stuff": 4779,
      "purp": 4780,
      "compl": 4781,
      "finally": 4782,
      "##AC": 4783,
      "chief": 4784,
      "rob": 4785,
      "climate": 4786,
      "il": 4787,
      "##ban": 4788,
      "www": 4789,
      "cross": 4790,
      "##rast": 4791,
      "##cial": 4792,
      "counter": 4793,
      "practice": 4794,
      "ones": 4795,
      "expert": 4796,
      "##lying": 4797,
      "##ari": 4798,
      "violence": 4799,
      "Read": 4800,
      "League": 4801,
      "thinking": 4802,
      "Since": 4803,
      "##cing": 4804,
      "und": 4805,
      "danger": 4806,
      "##inese": 4807,
      "giving": 4808,
      "writing": 4809,
      "ready": 4810,
      "##entially": 4811,
      "##ny": 4812,
      "Many": 4813,
      "dog": 4814,
      "ult": 4815,
      "deg": 4816,
      "##isions": 4817,
      "##ospital": 4818,
      "##uk": 4819,
      "item": 4820,
      "##idge": 4821,
      "remain": 4822,
      "deliver": 4823,
      "disp": 4824,
      "##vertisement": 4825,
      "usually": 4826,
      "TH": 4827,
      "##IT": 4828,
      "Democratic": 4829,
      "kids": 4830,
      "##uing": 4831,
      "summer": 4832,
      "certainly": 4833,
      "##erve": 4834,
      "camer": 4835,
      "##ped": 4836,
      "changed": 4837,
      "James": 4838,
      "standard": 4839,
      "rout": 4840,
      "implement": 4841,
      "assist": 4842,
      "costs": 4843,
      "Play": 4844,
      "histor": 4845,
      "hous": 4846,
      "##eth": 4847,
      "perhaps": 4848,
      "store": 4849,
      "increased": 4850,
      "unf": 4851,
      "##iers": 4852,
      "guy": 4853,
      "Chinese": 4854,
      "continued": 4855,
      "education": 4856,
      "purch": 4857,
      "##aves": 4858,
      "mill": 4859,
      "starting": 4860,
      "file": 4861,
      "Che": 4862,
      "##ida": 4863,
      "William": 4864,
      "Rich": 4865,
      "showed": 4866,
      "damage": 4867,
      "##owd": 4868,
      "corpor": 4869,
      "##ously": 4870,
      "provided": 4871,
      "Bo": 4872,
      "select": 4873,
      "choice": 4874,
      "Rec": 4875,
      "##utions": 4876,
      "designed": 4877,
      "##uclear": 4878,
      "region": 4879,
      "99": 4880,
      "remains": 4881,
      "pen": 4882,
      "reality": 4883,
      "reading": 4884,
      "##room": 4885,
      "date": 4886,
      "calls": 4887,
      "died": 4888,
      "directly": 4889,
      "##fort": 4890,
      "##to": 4891,
      "figure": 4892,
      "Super": 4893,
      "comments": 4894,
      "Mon": 4895,
      "mob": 4896,
      "blog": 4897,
      "sle": 4898,
      "ten": 4899,
      "beyond": 4900,
      "challeng": 4901,
      "wouldn": 4902,
      "##arr": 4903,
      "demonst": 4904,
      "Tor": 4905,
      "culture": 4906,
      "wife": 4907,
      "##ension": 4908,
      "##akers": 4909,
      "write": 4910,
      "concept": 4911,
      "Mart": 4912,
      "Apple": 4913,
      "##oul": 4914,
      "cele": 4915,
      "##iant": 4916,
      "Because": 4917,
      "multiple": 4918,
      "##icks": 4919,
      "##urt": 4920,
      "perm": 4921,
      "parts": 4922,
      "center": 4923,
      "36": 4924,
      "speech": 4925,
      "repe": 4926,
      "EU": 4927,
      "##iation": 4928,
      "##anced": 4929,
      "avoid": 4930,
      "Texas": 4931,
      "safe": 4932,
      "##enge": 4933,
      "##FL": 4934,
      "couldn": 4935,
      "complex": 4936,
      "Last": 4937,
      "Indian": 4938,
      "##ara": 4939,
      "Jack": 4940,
      "##inated": 4941,
      "Rober": 4942,
      "##egr": 4943,
      "safety": 4944,
      "disapp": 4945,
      "epis": 4946,
      "##zz": 4947,
      "platform": 4948,
      "additional": 4949,
      "meaning": 4950,
      "clean": 4951,
      "Minister": 4952,
      "property": 4953,
      "piece": 4954,
      "football": 4955,
      "efforts": 4956,
      "scene": 4957,
      "##astic": 4958,
      "Bel": 4959,
      "##atever": 4960,
      "stage": 4961,
      "option": 4962,
      "alone": 4963,
      "##OP": 4964,
      "towards": 4965,
      "##ables": 4966,
      "Green": 4967,
      "software": 4968,
      "ver": 4969,
      "subst": 4970,
      "cast": 4971,
      "consist": 4972,
      "Associ": 4973,
      "sell": 4974,
      "title": 4975,
      "voters": 4976,
      "##vision": 4977,
      "includes": 4978,
      "pressure": 4979,
      "nom": 4980,
      "II": 4981,
      "recomm": 4982,
      "throughout": 4983,
      "guys": 4984,
      "##aughter": 4985,
      "launch": 4986,
      "Photo": 4987,
      "command": 4988,
      "gone": 4989,
      "immediately": 4990,
      "AP": 4991,
      "relative": 4992,
      "appar": 4993,
      "letter": 4994,
      "computer": 4995,
      "clos": 4996,
      "##ollow": 4997,
      "student": 4998,
      "sil": 4999,
      "thousands": 5000,
      "cris": 5001,
      "largest": 5002,
      "dark": 5003,
      "display": 5004,
      "moving": 5005,
      "Day": 5006,
      "33": 5007,
      "yes": 5008,
      "tour": 5009,
      "##amb": 5010,
      "effects": 5011,
      "prec": 5012,
      "bal": 5013,
      "##ocked": 5014,
      "religious": 5015,
      "sat": 5016,
      "drive": 5017,
      "School": 5018,
      "##ford": 5019,
      "officer": 5020,
      "ang": 5021,
      "ut": 5022,
      "##yl": 5023,
      "passed": 5024,
      "##ilies": 5025,
      "ahead": 5026,
      "prevent": 5027,
      "Em": 5028,
      "moved": 5029,
      "receive": 5030,
      "##itute": 5031,
      "Cap": 5032,
      "Although": 5033,
      "opin": 5034,
      "Like": 5035,
      "##anch": 5036,
      "Yes": 5037,
      "insur": 5038,
      "##arian": 5039,
      "reached": 5040,
      "happy": 5041,
      "cool": 5042,
      "##ditions": 5043,
      "hy": 5044,
      "eyes": 5045,
      "##irth": 5046,
      "##ago": 5047,
      "##BI": 5048,
      "Smith": 5049,
      "Democrats": 5050,
      "ign": 5051,
      "agency": 5052,
      "##aches": 5053,
      "##down": 5054,
      "##ocks": 5055,
      "stra": 5056,
      "nature": 5057,
      "English": 5058,
      "Tom": 5059,
      "characters": 5060,
      "toward": 5061,
      "##rim": 5062,
      "##using": 5063,
      "budget": 5064,
      "device": 5065,
      "debate": 5066,
      "reasons": 5067,
      "band": 5068,
      "Mexic": 5069,
      "esc": 5070,
      "maybe": 5071,
      "##aly": 5072,
      "difference": 5073,
      "failed": 5074,
      "positive": 5075,
      "beginning": 5076,
      "note": 5077,
      "Tod": 5078,
      "ord": 5079,
      "alleged": 5080,
      "park": 5081,
      "Reg": 5082,
      "Germany": 5083,
      "##eness": 5084,
      "Govern": 5085,
      "##olute": 5086,
      "conditions": 5087,
      "Air": 5088,
      "brain": 5089,
      "##oes": 5090,
      "##airs": 5091,
      "tur": 5092,
      "wall": 5093,
      "Add": 5094,
      "conference": 5095,
      "##rief": 5096,
      "##itness": 5097,
      "80": 5098,
      "Ant": 5099,
      "rock": 5100,
      "limited": 5101,
      "spending": 5102,
      "##lection": 5103,
      "organization": 5104,
      "Rob": 5105,
      "Serv": 5106,
      "presidential": 5107,
      "crowd": 5108,
      "Syria": 5109,
      "citizens": 5110,
      "encour": 5111,
      "helped": 5112,
      "league": 5113,
      "##roy": 5114,
      "##ploy": 5115,
      "##ston": 5116,
      "Earth": 5117,
      "autom": 5118,
      "Met": 5119,
      "shown": 5120,
      "trust": 5121,
      "nuclear": 5122,
      "appears": 5123,
      "mix": 5124,
      "Ber": 5125,
      "##10": 5126,
      "insp": 5127,
      "##ampions": 5128,
      "grad": 5129,
      "necessary": 5130,
      "##ression": 5131,
      "Us": 5132,
      "battle": 5133,
      "feed": 5134,
      "powerful": 5135,
      "French": 5136,
      "aim": 5137,
      "Ben": 5138,
      "George": 5139,
      "##ivity": 5140,
      "myself": 5141,
      "contribut": 5142,
      "##venue": 5143,
      "web": 5144,
      "##yan": 5145,
      "touch": 5146,
      "sal": 5147,
      "##me": 5148,
      "Val": 5149,
      "executive": 5150,
      "analysis": 5151,
      "green": 5152,
      "meant": 5153,
      "twe": 5154,
      "illeg": 5155,
      "eventually": 5156,
      "arch": 5157,
      "##50": 5158,
      "estim": 5159,
      "##kes": 5160,
      "yourself": 5161,
      "detail": 5162,
      "##ek": 5163,
      "charge": 5164,
      "##inary": 5165,
      "feature": 5166,
      "##lay": 5167,
      "##aint": 5168,
      "##wise": 5169,
      "books": 5170,
      "politics": 5171,
      "frequ": 5172,
      "##ken": 5173,
      "crime": 5174,
      "Wind": 5175,
      "princ": 5176,
      "##chan": 5177,
      "##orney": 5178,
      "forced": 5179,
      "unique": 5180,
      "2007": 5181,
      "spir": 5182,
      "##cher": 5183,
      "college": 5184,
      "door": 5185,
      "cat": 5186,
      "physical": 5187,
      "compared": 5188,
      "##agon": 5189,
      "print": 5190,
      "weapons": 5191,
      "Image": 5192,
      "General": 5193,
      "candidate": 5194,
      "Bu": 5195,
      "families": 5196,
      "##iles": 5197,
      "Flor": 5198,
      "schools": 5199,
      "signed": 5200,
      "har": 5201,
      "##ufact": 5202,
      "##set": 5203,
      "##berg": 5204,
      "High": 5205,
      "International": 5206,
      "##rated": 5207,
      "Trans": 5208,
      "throw": 5209,
      "criminal": 5210,
      "followed": 5211,
      "Def": 5212,
      "truth": 5213,
      "##itz": 5214,
      "crisis": 5215,
      "cyc": 5216,
      "##ris": 5217,
      "##enty": 5218,
      "allows": 5219,
      "voice": 5220,
      "rank": 5221,
      "Union": 5222,
      "##wood": 5223,
      "color": 5224,
      "promot": 5225,
      "rap": 5226,
      "Mac": 5227,
      "developed": 5228,
      "Op": 5229,
      "During": 5230,
      "##omen": 5231,
      "pus": 5232,
      "senior": 5233,
      "##OT": 5234,
      "Council": 5235,
      "nice": 5236,
      "firm": 5237,
      "##ero": 5238,
      "central": 5239,
      "freed": 5240,
      "Brown": 5241,
      "gives": 5242,
      "##owers": 5243,
      "smart": 5244,
      "##EC": 5245,
      "lif": 5246,
      "actions": 5247,
      "easily": 5248,
      "treatment": 5249,
      "Australia": 5250,
      "Your": 5251,
      "experim": 5252,
      "eye": 5253,
      "credit": 5254,
      "murder": 5255,
      "##eration": 5256,
      "uses": 5257,
      "overall": 5258,
      "##ET": 5259,
      "previously": 5260,
      "brother": 5261,
      "reform": 5262,
      "rates": 5263,
      "##iny": 5264,
      "decades": 5265,
      "drop": 5266,
      "psych": 5267,
      "altern": 5268,
      "Two": 5269,
      "correct": 5270,
      "##AM": 5271,
      "Christian": 5272,
      "benefits": 5273,
      "Aut": 5274,
      "Inter": 5275,
      "expand": 5276,
      "individuals": 5277,
      "ideas": 5278,
      "status": 5279,
      "spot": 5280,
      "emb": 5281,
      "Ham": 5282,
      "intelligence": 5283,
      "##rom": 5284,
      "appeared": 5285,
      "straight": 5286,
      "Dis": 5287,
      "##Th": 5288,
      "Alex": 5289,
      "shar": 5290,
      "spread": 5291,
      "projects": 5292,
      "Angel": 5293,
      "continues": 5294,
      "customers": 5295,
      "swe": 5296,
      "ren": 5297,
      "##ection": 5298,
      "Matt": 5299,
      "beaut": 5300,
      "Law": 5301,
      "liter": 5302,
      "traff": 5303,
      "clearly": 5304,
      "##roll": 5305,
      "lic": 5306,
      "prem": 5307,
      "##bur": 5308,
      "##dd": 5309,
      "34": 5310,
      "plant": 5311,
      "Scott": 5312,
      "Gold": 5313,
      "##ressed": 5314,
      "Franc": 5315,
      "analy": 5316,
      "70": 5317,
      "mist": 5318,
      "##secut": 5319,
      "##men": 5320,
      "highly": 5321,
      "fighting": 5322,
      "90": 5323,
      "winning": 5324,
      "fully": 5325,
      "max": 5326,
      "born": 5327,
      "rule": 5328,
      "lines": 5329,
      "draft": 5330,
      "##itely": 5331,
      "goals": 5332,
      "minor": 5333,
      "##che": 5334,
      "predict": 5335,
      "noted": 5336,
      "conflic": 5337,
      "policies": 5338,
      "grand": 5339,
      "Stud": 5340,
      "seemed": 5341,
      "Mo": 5342,
      "##aming": 5343,
      "places": 5344,
      "peace": 5345,
      "##onents": 5346,
      "##bon": 5347,
      "greater": 5348,
      "normal": 5349,
      "##ortion": 5350,
      "Ter": 5351,
      "##ube": 5352,
      "##uty": 5353,
      "194": 5354,
      "larger": 5355,
      "Bit": 5356,
      "integr": 5357,
      "female": 5358,
      "studies": 5359,
      "##ki": 5360,
      "##rec": 5361,
      "##orter": 5362,
      "Any": 5363,
      "Mod": 5364,
      "##vin": 5365,
      "save": 5366,
      "attract": 5367,
      "kept": 5368,
      "dise": 5369,
      "celebr": 5370,
      "owners": 5371,
      "##lease": 5372,
      "knowledge": 5373,
      "caused": 5374,
      "commer": 5375,
      "incident": 5376,
      "cities": 5377,
      "fine": 5378,
      "activity": 5379,
      "fan": 5380,
      "successful": 5381,
      "Bre": 5382,
      "##bum": 5383,
      "##iverse": 5384,
      "enforce": 5385,
      "##erved": 5386,
      "##EL": 5387,
      "##ropri": 5388,
      "##IA": 5389,
      "ended": 5390,
      "Arab": 5391,
      "calling": 5392,
      "challenge": 5393,
      "##sey": 5394,
      "organiz": 5395,
      "##riage": 5396,
      "feet": 5397,
      "Also": 5398,
      "origin": 5399,
      "traditional": 5400,
      "send": 5401,
      "exch": 5402,
      "measure": 5403,
      "##SA": 5404,
      "##iring": 5405,
      "37": 5406,
      "Mag": 5407,
      "absolute": 5408,
      "##aph": 5409,
      "advant": 5410,
      "Mad": 5411,
      "195": 5412,
      "manufact": 5413,
      "scen": 5414,
      "gold": 5415,
      "patients": 5416,
      "knows": 5417,
      "rise": 5418,
      "sales": 5419,
      "spend": 5420,
      "laun": 5421,
      "Phil": 5422,
      "sources": 5423,
      "resources": 5424,
      "shooting": 5425,
      "##band": 5426,
      "establ": 5427,
      "options": 5428,
      "Hillary": 5429,
      "Are": 5430,
      "thr": 5431,
      "##antly": 5432,
      "regular": 5433,
      "primary": 5434,
      "##ville": 5435,
      "Bay": 5436,
      "manager": 5437,
      "##mon": 5438,
      "emot": 5439,
      "##osh": 5440,
      "employees": 5441,
      "##ext": 5442,
      "temper": 5443,
      "##ici": 5444,
      "mostly": 5445,
      "##urd": 5446,
      "##ategy": 5447,
      "minister": 5448,
      "charges": 5449,
      "push": 5450,
      "##OM": 5451,
      "programs": 5452,
      "France": 5453,
      "Art": 5454,
      "##rant": 5455,
      "pun": 5456,
      "Lou": 5457,
      "beat": 5458,
      "##11": 5459,
      "funding": 5460,
      "basic": 5461,
      "leaving": 5462,
      "hospital": 5463,
      "researchers": 5464,
      "actual": 5465,
      "whatever": 5466,
      "request": 5467,
      "##ping": 5468,
      "determin": 5469,
      "##board": 5470,
      "England": 5471,
      "##roid": 5472,
      "##ae": 5473,
      "Once": 5474,
      "scale": 5475,
      "Health": 5476,
      "Internet": 5477,
      "agreement": 5478,
      "freedom": 5479,
      "slight": 5480,
      "Chic": 5481,
      "creating": 5482,
      "trou": 5483,
      "Florida": 5484,
      "Sun": 5485,
      "##iced": 5486,
      "Bush": 5487,
      "shut": 5488,
      "See": 5489,
      "cry": 5490,
      "pet": 5491,
      "adding": 5492,
      "fat": 5493,
      "fa": 5494,
      "##iled": 5495,
      "adop": 5496,
      "judge": 5497,
      "##alse": 5498,
      "Mal": 5499,
      "birth": 5500,
      "Another": 5501,
      "etc": 5502,
      "vac": 5503,
      "rare": 5504,
      "##iders": 5505,
      "reflect": 5506,
      "##etic": 5507,
      "##ounds": 5508,
      "concerns": 5509,
      "##oti": 5510,
      "supposed": 5511,
      "authorities": 5512,
      "AM": 5513,
      "claimed": 5514,
      "##earch": 5515,
      "##gen": 5516,
      "haven": 5517,
      "Sam": 5518,
      "##cul": 5519,
      "chair": 5520,
      "Advertisement": 5521,
      "ensure": 5522,
      "values": 5523,
      "Step": 5524,
      "recover": 5525,
      "arm": 5526,
      "images": 5527,
      "org": 5528,
      "raised": 5529,
      "Sanders": 5530,
      "##wor": 5531,
      "wait": 5532,
      "jump": 5533,
      "Follow": 5534,
      "willing": 5535,
      "seeing": 5536,
      "Wall": 5537,
      "wat": 5538,
      "drink": 5539,
      "##amples": 5540,
      "happens": 5541,
      "behavior": 5542,
      "massive": 5543,
      "acqu": 5544,
      "limit": 5545,
      "Instead": 5546,
      "independent": 5547,
      "street": 5548,
      "mechan": 5549,
      "Liber": 5550,
      "names": 5551,
      "feeling": 5552,
      "Mike": 5553,
      "produced": 5554,
      "Att": 5555,
      "beg": 5556,
      "Port": 5557,
      "##mar": 5558,
      "application": 5559,
      "tick": 5560,
      "38": 5561,
      "Mil": 5562,
      "stream": 5563,
      "favorite": 5564,
      "##ribution": 5565,
      "##olic": 5566,
      "##inn": 5567,
      "prices": 5568,
      "memory": 5569,
      "eth": 5570,
      "Del": 5571,
      "##EO": 5572,
      "commit": 5573,
      "affect": 5574,
      "##icient": 5575,
      "choose": 5576,
      "##olf": 5577,
      "station": 5578,
      "Western": 5579,
      "##reme": 5580,
      "##ID": 5581,
      "Secret": 5582,
      "uns": 5583,
      "section": 5584,
      "Press": 5585,
      "##oyal": 5586,
      "##ado": 5587,
      "weekend": 5588,
      "wild": 5589,
      "##ray": 5590,
      "Palest": 5591,
      "wonder": 5592,
      "offered": 5593,
      "resist": 5594,
      "mount": 5595,
      "Chicago": 5596,
      "lawy": 5597,
      "produce": 5598,
      "residents": 5599,
      "##spect": 5600,
      "confirmed": 5601,
      "Frank": 5602,
      "##ota": 5603,
      "propos": 5604,
      "Those": 5605,
      "##ST": 5606,
      "album": 5607,
      "mission": 5608,
      "Commission": 5609,
      "arrested": 5610,
      "##orial": 5611,
      "teac": 5612,
      "picture": 5613,
      "effective": 5614,
      "core": 5615,
      "qual": 5616,
      "district": 5617,
      "Inc": 5618,
      "Under": 5619,
      "male": 5620,
      "whom": 5621,
      "Ro": 5622,
      "chem": 5623,
      "brand": 5624,
      "brief": 5625,
      "gather": 5626,
      "believed": 5627,
      "revealed": 5628,
      "Big": 5629,
      "parties": 5630,
      "virt": 5631,
      "##ya": 5632,
      "adult": 5633,
      "##onent": 5634,
      "benefit": 5635,
      "UN": 5636,
      "devices": 5637,
      "shop": 5638,
      "posted": 5639,
      "ice": 5640,
      "assault": 5641,
      "adj": 5642,
      "heavy": 5643,
      "weight": 5644,
      "2006": 5645,
      "dollars": 5646,
      "strategy": 5647,
      "lose": 5648,
      "kick": 5649,
      "Today": 5650,
      "sleep": 5651,
      "border": 5652,
      "tend": 5653,
      "Justice": 5654,
      "##ING": 5655,
      "Who": 5656,
      "learning": 5657,
      "Chris": 5658,
      "bed": 5659,
      "trial": 5660,
      "investment": 5661,
      "agreed": 5662,
      "##itude": 5663,
      "load": 5664,
      "##ona": 5665,
      "species": 5666,
      "records": 5667,
      "##istry": 5668,
      "learned": 5669,
      "advoc": 5670,
      "##ava": 5671,
      "CN": 5672,
      "iP": 5673,
      "Great": 5674,
      "critical": 5675,
      "influence": 5676,
      "##add": 5677,
      "debt": 5678,
      "Security": 5679,
      "der": 5680,
      "asking": 5681,
      "Commun": 5682,
      "cru": 5683,
      "##box": 5684,
      "politic": 5685,
      "opposition": 5686,
      "Pri": 5687,
      "Vir": 5688,
      "replace": 5689,
      "Canadian": 5690,
      "digital": 5691,
      "exam": 5692,
      "##otten": 5693,
      "Wil": 5694,
      "##inger": 5695,
      "dire": 5696,
      "defend": 5697,
      "showing": 5698,
      "occurr": 5699,
      "##aked": 5700,
      "##estic": 5701,
      "##ags": 5702,
      "##craft": 5703,
      "minute": 5704,
      "##rial": 5705,
      "vari": 5706,
      "pattern": 5707,
      "##dom": 5708,
      "49": 5709,
      "##ancy": 5710,
      "NFL": 5711,
      "##ords": 5712,
      "Sub": 5713,
      "300": 5714,
      "highest": 5715,
      "solution": 5716,
      "ine": 5717,
      "ship": 5718,
      "opening": 5719,
      "##azing": 5720,
      "rat": 5721,
      "interested": 5722,
      "##rol": 5723,
      "La": 5724,
      "44": 5725,
      "Game": 5726,
      "##ties": 5727,
      "cars": 5728,
      "generally": 5729,
      "operations": 5730,
      "##pper": 5731,
      "Rel": 5732,
      "types": 5733,
      "camera": 5734,
      "Sl": 5735,
      "##more": 5736,
      "runs": 5737,
      "daily": 5738,
      "##OU": 5739,
      "worse": 5740,
      "##while": 5741,
      "provides": 5742,
      "Bank": 5743,
      "##aby": 5744,
      "bottom": 5745,
      "##hicle": 5746,
      "map": 5747,
      "Micro": 5748,
      "ir": 5749,
      "Uk": 5750,
      "48": 5751,
      "Both": 5752,
      "nine": 5753,
      "stre": 5754,
      "dream": 5755,
      "##liament": 5756,
      "Det": 5757,
      "Hall": 5758,
      "condition": 5759,
      "driving": 5760,
      "vill": 5761,
      "responsible": 5762,
      "##ription": 5763,
      "##ugg": 5764,
      "compar": 5765,
      "##ocr": 5766,
      "surround": 5767,
      "thus": 5768,
      "Committee": 5769,
      "defe": 5770,
      "Good": 5771,
      "restrict": 5772,
      "existing": 5773,
      "Francis": 5774,
      "extremely": 5775,
      "##pping": 5776,
      "train": 5777,
      "Jud": 5778,
      "theory": 5779,
      "Cle": 5780,
      "Found": 5781,
      "coal": 5782,
      "##rav": 5783,
      "destroy": 5784,
      "42": 5785,
      "Fox": 5786,
      "neighbor": 5787,
      "Robert": 5788,
      "Hum": 5789,
      "Pre": 5790,
      "prefer": 5791,
      "Dist": 5792,
      "false": 5793,
      "generation": 5794,
      "2005": 5795,
      "##ipe": 5796,
      "##ias": 5797,
      "Sil": 5798,
      "##gency": 5799,
      "illegal": 5800,
      "millions": 5801,
      "assum": 5802,
      "explained": 5803,
      "Korea": 5804,
      "occas": 5805,
      "ST": 5806,
      "active": 5807,
      "##ype": 5808,
      "opinion": 5809,
      "##rate": 5810,
      "tro": 5811,
      "##ront": 5812,
      "##uana": 5813,
      "##acing": 5814,
      "labor": 5815,
      "##ograph": 5816,
      "understanding": 5817,
      "purpose": 5818,
      "photo": 5819,
      "offers": 5820,
      "teach": 5821,
      "partners": 5822,
      "##vant": 5823,
      "suspect": 5824,
      "39": 5825,
      "notice": 5826,
      "##rian": 5827,
      "transfer": 5828,
      "vs": 5829,
      "Prof": 5830,
      "Britain": 5831,
      "##outhern": 5832,
      "Leg": 5833,
      "negative": 5834,
      "hundreds": 5835,
      "##itor": 5836,
      "##umn": 5837,
      "##bert": 5838,
      "##lands": 5839,
      "length": 5840,
      "proposed": 5841,
      "##rants": 5842,
      "categ": 5843,
      "double": 5844,
      "##ste": 5845,
      "episode": 5846,
      "##cl": 5847,
      "unlike": 5848,
      "none": 5849,
      "2000": 5850,
      "shared": 5851,
      "becoming": 5852,
      "Cup": 5853,
      "##orrow": 5854,
      "reject": 5855,
      "Ac": 5856,
      "##mit": 5857,
      "associated": 5858,
      "##orthern": 5859,
      "serve": 5860,
      "Thom": 5861,
      "machine": 5862,
      "Islamic": 5863,
      "hack": 5864,
      "join": 5865,
      "frame": 5866,
      "separate": 5867,
      "tim": 5868,
      "##oster": 5869,
      "negoti": 5870,
      "43": 5871,
      "##mine": 5872,
      "onto": 5873,
      "professional": 5874,
      "opened": 5875,
      "Sur": 5876,
      "putting": 5877,
      "Direct": 5878,
      "floor": 5879,
      "becomes": 5880,
      "basis": 5881,
      "Office": 5882,
      "television": 5883,
      "served": 5884,
      "reduce": 5885,
      "##abor": 5886,
      "PC": 5887,
      "Their": 5888,
      "san": 5889,
      "belief": 5890,
      "management": 5891,
      "structure": 5892,
      "##ked": 5893,
      "##iqu": 5894,
      "hearing": 5895,
      "sun": 5896,
      "##ih": 5897,
      "Kh": 5898,
      "Jeff": 5899,
      "coverage": 5900,
      "blue": 5901,
      "legislation": 5902,
      "##igned": 5903,
      "incred": 5904,
      "Israeli": 5905,
      "supported": 5906,
      "##inter": 5907,
      "marriage": 5908,
      "advantage": 5909,
      "Dec": 5910,
      "bomb": 5911,
      "spl": 5912,
      "Johnson": 5913,
      "mer": 5914,
      "initial": 5915,
      "controvers": 5916,
      "fit": 5917,
      "##rey": 5918,
      "amb": 5919,
      "scientists": 5920,
      "##ios": 5921,
      "Pet": 5922,
      "appeal": 5923,
      "location": 5924,
      "FBI": 5925,
      "Gree": 5926,
      "##lant": 5927,
      "Medic": 5928,
      "##usion": 5929,
      "solid": 5930,
      "announce": 5931,
      "insurance": 5932,
      "animals": 5933,
      "Out": 5934,
      "ran": 5935,
      "##AD": 5936,
      "miles": 5937,
      "Wr": 5938,
      "Church": 5939,
      "stated": 5940,
      "achieve": 5941,
      "Sal": 5942,
      "##ears": 5943,
      "Windows": 5944,
      "vehicle": 5945,
      "##uries": 5946,
      "aspect": 5947,
      "accused": 5948,
      "##IL": 5949,
      "dangerous": 5950,
      "fresh": 5951,
      "internet": 5952,
      "Ver": 5953,
      "documents": 5954,
      "cancer": 5955,
      "Miss": 5956,
      "Sup": 5957,
      "traffic": 5958,
      "Please": 5959,
      "purs": 5960,
      "enforcement": 5961,
      "ded": 5962,
      "##atically": 5963,
      "##ulf": 5964,
      "dism": 5965,
      "issued": 5966,
      "electric": 5967,
      "MP": 5968,
      "returned": 5969,
      "sites": 5970,
      "watching": 5971,
      "easier": 5972,
      "unit": 5973,
      "Que": 5974,
      "##ica": 5975,
      "Los": 5976,
      "conservative": 5977,
      "faith": 5978,
      "driver": 5979,
      "occup": 5980,
      "Ukrain": 5981,
      "##iliar": 5982,
      "argument": 5983,
      "audience": 5984,
      "gay": 5985,
      "##NA": 5986,
      "##ram": 5987,
      "fuel": 5988,
      "##ijuana": 5989,
      "instance": 5990,
      "##icip": 5991,
      "wealth": 5992,
      "doubt": 5993,
      "cells": 5994,
      "react": 5995,
      "leadership": 5996,
      "closed": 5997,
      "victims": 5998,
      "department": 5999,
      "church": 6000,
      "##iful": 6001,
      "charged": 6002,
      "harm": 6003,
      "##itation": 6004,
      "##udd": 6005,
      "eat": 6006,
      "##time": 6007,
      "daughter": 6008,
      "##ingly": 6009,
      "##andon": 6010,
      "rich": 6011,
      "##lick": 6012,
      "##lies": 6013,
      "##ortunately": 6014,
      "Yet": 6015,
      "victory": 6016,
      "commercial": 6017,
      "aware": 6018,
      "##ander": 6019,
      "##zen": 6020,
      "193": 6021,
      "Despite": 6022,
      "##coming": 6023,
      "##wide": 6024,
      "hus": 6025,
      "entirely": 6026,
      "Tim": 6027,
      "spoke": 6028,
      "##BA": 6029,
      "radio": 6030,
      "repeated": 6031,
      "launched": 6032,
      "background": 6033,
      "47": 6034,
      "##za": 6035,
      "supporters": 6036,
      "nor": 6037,
      "established": 6038,
      "41": 6039,
      "##eline": 6040,
      "comfort": 6041,
      "views": 6042,
      "items": 6043,
      "Mill": 6044,
      "Bur": 6045,
      "communities": 6046,
      "##acity": 6047,
      "Jim": 6048,
      "worst": 6049,
      "##oly": 6050,
      "cards": 6051,
      "owner": 6052,
      "Back": 6053,
      "notes": 6054,
      "##lusion": 6055,
      "##ga": 6056,
      "surface": 6057,
      "please": 6058,
      "north": 6059,
      "Mer": 6060,
      "justice": 6061,
      "##istics": 6062,
      "Richard": 6063,
      "##GB": 6064,
      "##ronic": 6065,
      "Afgh": 6066,
      "explain": 6067,
      "##inct": 6068,
      "##aks": 6069,
      "novel": 6070,
      "Institute": 6071,
      "grant": 6072,
      "##uct": 6073,
      "Jones": 6074,
      "75": 6075,
      "discovered": 6076,
      "holding": 6077,
      "definitely": 6078,
      "##ography": 6079,
      "phil": 6080,
      "focused": 6081,
      "mobile": 6082,
      "download": 6083,
      "Ev": 6084,
      "finding": 6085,
      "##odes": 6086,
      "amp": 6087,
      "Carol": 6088,
      "##oms": 6089,
      "degree": 6090,
      "##ius": 6091,
      "##iling": 6092,
      "Louis": 6093,
      "##cell": 6094,
      "concerned": 6095,
      "joined": 6096,
      "decade": 6097,
      "spirit": 6098,
      "placed": 6099,
      "die": 6100,
      "committee": 6101,
      "requires": 6102,
      "telling": 6103,
      "strength": 6104,
      "restaur": 6105,
      "contain": 6106,
      "allowing": 6107,
      "guess": 6108,
      "##works": 6109,
      "wel": 6110,
      "photos": 6111,
      "##RE": 6112,
      "earth": 6113,
      "witness": 6114,
      "##rie": 6115,
      "click": 6116,
      "55": 6117,
      "##vest": 6118,
      "competition": 6119,
      "Group": 6120,
      "##inate": 6121,
      "rough": 6122,
      "catch": 6123,
      "##ribe": 6124,
      "hair": 6125,
      "##soft": 6126,
      "believes": 6127,
      "##arant": 6128,
      "Nor": 6129,
      "Lib": 6130,
      "planning": 6131,
      "smaller": 6132,
      "Str": 6133,
      "2004": 6134,
      "construction": 6135,
      "Japanese": 6136,
      "##mark": 6137,
      "stock": 6138,
      "Virgin": 6139,
      "Const": 6140,
      "Ir": 6141,
      "partner": 6142,
      "PM": 6143,
      "cook": 6144,
      "2018": 6145,
      "suggested": 6146,
      "tools": 6147,
      "##gers": 6148,
      "annual": 6149,
      "direction": 6150,
      "cash": 6151,
      "##ena": 6152,
      "Palestin": 6153,
      "##house": 6154,
      "context": 6155,
      "##isation": 6156,
      "banks": 6157,
      "Bitcoin": 6158,
      "Ken": 6159,
      "standing": 6160,
      "plays": 6161,
      "kid": 6162,
      "truly": 6163,
      "aggress": 6164,
      "afford": 6165,
      "Mont": 6166,
      "##bing": 6167,
      "##ribute": 6168,
      "##azon": 6169,
      "largely": 6170,
      "drugs": 6171,
      "Mary": 6172,
      "Tre": 6173,
      "Time": 6174,
      "01": 6175,
      "older": 6176,
      "farm": 6177,
      "establish": 6178,
      "attend": 6179,
      "housing": 6180,
      "sud": 6181,
      "Mexico": 6182,
      "caught": 6183,
      "Jo": 6184,
      "##owl": 6185,
      "waiting": 6186,
      "##izes": 6187,
      "##TC": 6188,
      "plus": 6189,
      "exerc": 6190,
      "##ifying": 6191,
      "task": 6192,
      "consequ": 6193,
      "identified": 6194,
      "##ampionship": 6195,
      "businesses": 6196,
      "##OL": 6197,
      "dat": 6198,
      "missing": 6199,
      "raise": 6200,
      "Supreme": 6201,
      "Sk": 6202,
      "bul": 6203,
      "Team": 6204,
      "##itable": 6205,
      "##eless": 6206,
      "Ryan": 6207,
      "testing": 6208,
      "Government": 6209,
      "African": 6210,
      "Gar": 6211,
      "##apped": 6212,
      "Pak": 6213,
      "##oted": 6214,
      "transport": 6215,
      "Association": 6216,
      "##ipped": 6217,
      "##agn": 6218,
      "protest": 6219,
      "useful": 6220,
      "presence": 6221,
      "strateg": 6222,
      "stick": 6223,
      "providing": 6224,
      "depend": 6225,
      "##nel": 6226,
      "girls": 6227,
      "recommend": 6228,
      "Afghan": 6229,
      "setting": 6230,
      "homes": 6231,
      "pair": 6232,
      "operation": 6233,
      "speaking": 6234,
      "##oper": 6235,
      "##yright": 6236,
      "Thomas": 6237,
      "sust": 6238,
      "##tained": 6239,
      "RE": 6240,
      "Jewish": 6241,
      "##igan": 6242,
      "update": 6243,
      "appoint": 6244,
      "##ien": 6245,
      "Imp": 6246,
      "chann": 6247,
      "activities": 6248,
      "disease": 6249,
      "ge": 6250,
      "46": 6251,
      "accur": 6252,
      "AC": 6253,
      "mentioned": 6254,
      "Rem": 6255,
      "##ulated": 6256,
      "##lor": 6257,
      "register": 6258,
      "64": 6259,
      "sequ": 6260,
      "candidates": 6261,
      "54": 6262,
      "##lege": 6263,
      "##ait": 6264,
      "##semb": 6265,
      "##0000": 6266,
      "fell": 6267,
      "##bl": 6268,
      "##bour": 6269,
      "fant": 6270,
      "fourth": 6271,
      "south": 6272,
      "managed": 6273,
      "##andom": 6274,
      "relatively": 6275,
      "##ania": 6276,
      "##FC": 6277,
      "offensive": 6278,
      "Army": 6279,
      "arrived": 6280,
      "CEO": 6281,
      "Er": 6282,
      "Rock": 6283,
      "THE": 6284,
      "conversation": 6285,
      "flight": 6286,
      "##osure": 6287,
      "##SP": 6288,
      "IN": 6289,
      "keeping": 6290,
      "Martin": 6291,
      "##going": 6292,
      "stopped": 6293,
      "seek": 6294,
      "libr": 6295,
      "introduced": 6296,
      "##ossible": 6297,
      "tells": 6298,
      "conflict": 6299,
      "Microsoft": 6300,
      "circum": 6301,
      "Africa": 6302,
      "##cknow": 6303,
      "Spec": 6304,
      "princip": 6305,
      "Prime": 6306,
      "decisions": 6307,
      "##12": 6308,
      "##azine": 6309,
      "connection": 6310,
      "spokesman": 6311,
      "taxes": 6312,
      "##ady": 6313,
      "Ok": 6314,
      "crew": 6315,
      "refuge": 6316,
      "https": 6317,
      "tough": 6318,
      "Bern": 6319,
      "measures": 6320,
      "appropri": 6321,
      "##ctors": 6322,
      "assess": 6323,
      "Rub": 6324,
      "##vention": 6325,
      "planet": 6326,
      "initi": 6327,
      "funds": 6328,
      "slightly": 6329,
      "strike": 6330,
      "##ception": 6331,
      "changing": 6332,
      "Holl": 6333,
      "Research": 6334,
      "##ocracy": 6335,
      "##ada": 6336,
      "anc": 6337,
      "Camp": 6338,
      "amazing": 6339,
      "marijuana": 6340,
      "fellow": 6341,
      "committed": 6342,
      "##RA": 6343,
      "##lig": 6344,
      "revolution": 6345,
      "Angeles": 6346,
      "interests": 6347,
      "skills": 6348,
      "identity": 6349,
      "roll": 6350,
      "conclud": 6351,
      "##onto": 6352,
      "husband": 6353,
      "Joe": 6354,
      "commission": 6355,
      "removed": 6356,
      "feels": 6357,
      "struct": 6358,
      "Kn": 6359,
      "award": 6360,
      "therefore": 6361,
      "##ka": 6362,
      "corner": 6363,
      "##issions": 6364,
      "steps": 6365,
      "Open": 6366,
      "protection": 6367,
      "obvious": 6368,
      "fle": 6369,
      "Public": 6370,
      "transform": 6371,
      "##adium": 6372,
      "injury": 6373,
      "immigration": 6374,
      "micro": 6375,
      "##isf": 6376,
      "hasn": 6377,
      "failure": 6378,
      "GOP": 6379,
      "Jose": 6380,
      "Put": 6381,
      "skill": 6382,
      "consc": 6383,
      "abuse": 6384,
      "skin": 6385,
      "guard": 6386,
      "##gypt": 6387,
      "trip": 6388,
      "##asy": 6389,
      "##ario": 6390,
      "score": 6391,
      "USA": 6392,
      "otherwise": 6393,
      "beer": 6394,
      "newsp": 6395,
      "killing": 6396,
      "Bet": 6397,
      "figh": 6398,
      "standards": 6399,
      "sports": 6400,
      "AN": 6401,
      "Jon": 6402,
      "spect": 6403,
      "##ipl": 6404,
      "##oman": 6405,
      "Mars": 6406,
      "era": 6407,
      "planned": 6408,
      "Secretary": 6409,
      "lived": 6410,
      "environmental": 6411,
      "Sol": 6412,
      "##rees": 6413,
      "##kins": 6414,
      "script": 6415,
      "transl": 6416,
      "territ": 6417,
      "heat": 6418,
      "interp": 6419,
      "##icles": 6420,
      "nar": 6421,
      "##rel": 6422,
      "##ula": 6423,
      "##hi": 6424,
      "interact": 6425,
      "models": 6426,
      "animal": 6427,
      "mig": 6428,
      "survey": 6429,
      "thanks": 6430,
      "##ulate": 6431,
      "seconds": 6432,
      "##illa": 6433,
      "files": 6434,
      "subsc": 6435,
      "scientific": 6436,
      "weak": 6437,
      "52": 6438,
      "familiar": 6439,
      "Amazon": 6440,
      "Den": 6441,
      "##verse": 6442,
      "Emp": 6443,
      "acknow": 6444,
      "Egypt": 6445,
      "fired": 6446,
      "paying": 6447,
      "hero": 6448,
      "##hedul": 6449,
      "##BS": 6450,
      "unless": 6451,
      "##ucky": 6452,
      "batter": 6453,
      "philos": 6454,
      "sudden": 6455,
      "mere": 6456,
      "##enses": 6457,
      "Mass": 6458,
      "##itutional": 6459,
      "##mas": 6460,
      "##onym": 6461,
      "finished": 6462,
      "##DA": 6463,
      "exchange": 6464,
      "talks": 6465,
      "suggests": 6466,
      "Web": 6467,
      "collection": 6468,
      "discussion": 6469,
      "Fed": 6470,
      "figures": 6471,
      "Kar": 6472,
      "Syrian": 6473,
      "neighborhood": 6474,
      "defensive": 6475,
      "##uke": 6476,
      "symp": 6477,
      "que": 6478,
      "##gar": 6479,
      "Android": 6480,
      "domestic": 6481,
      "Social": 6482,
      "##eah": 6483,
      "covered": 6484,
      "absolutely": 6485,
      "Free": 6486,
      "##ansion": 6487,
      "##ulture": 6488,
      "##rif": 6489,
      "##adem": 6490,
      "Prot": 6491,
      "supply": 6492,
      "organizations": 6493,
      "unp": 6494,
      "master": 6495,
      "Service": 6496,
      "hate": 6497,
      "veter": 6498,
      "##ocal": 6499,
      "mental": 6500,
      "##odies": 6501,
      "seeking": 6502,
      "accounts": 6503,
      "elements": 6504,
      "Chief": 6505,
      "remind": 6506,
      "wish": 6507,
      "##iance": 6508,
      "mail": 6509,
      "univers": 6510,
      "Peter": 6511,
      "turns": 6512,
      "dropped": 6513,
      "Toronto": 6514,
      "cold": 6515,
      "religion": 6516,
      "##rary": 6517,
      "Whe": 6518,
      "tweet": 6519,
      "AT": 6520,
      "decide": 6521,
      "happening": 6522,
      "corporate": 6523,
      "Bob": 6524,
      "professor": 6525,
      "##PA": 6526,
      "##iser": 6527,
      "balance": 6528,
      "##well": 6529,
      "gain": 6530,
      "union": 6531,
      "possibly": 6532,
      "filed": 6533,
      "variety": 6534,
      "Lat": 6535,
      "College": 6536,
      "##aded": 6537,
      "string": 6538,
      "Central": 6539,
      "##PS": 6540,
      "starts": 6541,
      "Ari": 6542,
      "##cript": 6543,
      "tests": 6544,
      "##itect": 6545,
      "impossible": 6546,
      "alternative": 6547,
      "##elling": 6548,
      "depth": 6549,
      "selling": 6550,
      "fundament": 6551,
      "optim": 6552,
      "twice": 6553,
      "medic": 6554,
      "carried": 6555,
      "Jes": 6556,
      "humans": 6557,
      "Fire": 6558,
      "Lee": 6559,
      "Plan": 6560,
      "Dan": 6561,
      "helping": 6562,
      "##ynam": 6563,
      "sides": 6564,
      "bigger": 6565,
      "fif": 6566,
      "##lets": 6567,
      "units": 6568,
      "schedul": 6569,
      "mut": 6570,
      "capacity": 6571,
      "##has": 6572,
      "cuts": 6573,
      "##ros": 6574,
      "scr": 6575,
      "##icted": 6576,
      "Media": 6577,
      "Williams": 6578,
      "solar": 6579,
      "wing": 6580,
      "carbon": 6581,
      "##anging": 6582,
      "vast": 6583,
      "elected": 6584,
      "increasingly": 6585,
      "##la": 6586,
      "##otic": 6587,
      "famous": 6588,
      "Only": 6589,
      "agencies": 6590,
      "Before": 6591,
      "worry": 6592,
      "400": 6593,
      "window": 6594,
      "tast": 6595,
      "Sing": 6596,
      "Look": 6597,
      "##gu": 6598,
      "##uters": 6599,
      "##anda": 6600,
      "sounds": 6601,
      "innov": 6602,
      "losing": 6603,
      "Federal": 6604,
      "honest": 6605,
      "Conserv": 6606,
      "##erous": 6607,
      "##hens": 6608,
      "Watch": 6609,
      "CNN": 6610,
      "adjust": 6611,
      "##resp": 6612,
      "##oston": 6613,
      "53": 6614,
      "##uate": 6615,
      "ton": 6616,
      "Atlant": 6617,
      "Book": 6618,
      "Cath": 6619,
      "##EM": 6620,
      "earn": 6621,
      "apply": 6622,
      "Journal": 6623,
      "lob": 6624,
      "authority": 6625,
      "##amm": 6626,
      "dim": 6627,
      "##ils": 6628,
      "din": 6629,
      "sector": 6630,
      "Images": 6631,
      "error": 6632,
      "stars": 6633,
      "flow": 6634,
      "shall": 6635,
      "apparently": 6636,
      "##outs": 6637,
      "Top": 6638,
      "##agues": 6639,
      "##stein": 6640,
      "sitting": 6641,
      "vision": 6642,
      "##ading": 6643,
      "prospect": 6644,
      "##ipment": 6645,
      "odd": 6646,
      "65": 6647,
      "Where": 6648,
      "##ano": 6649,
      "56": 6650,
      "server": 6651,
      "Maybe": 6652,
      "Mel": 6653,
      "##icide": 6654,
      "ultimately": 6655,
      "##rick": 6656,
      "51": 6657,
      "##HL": 6658,
      "imagine": 6659,
      "healthy": 6660,
      "pit": 6661,
      "##lete": 6662,
      "guarant": 6663,
      "gender": 6664,
      "army": 6665,
      "votes": 6666,
      "expensive": 6667,
      "apart": 6668,
      "Sher": 6669,
      "beautiful": 6670,
      "developing": 6671,
      "##anche": 6672,
      "recall": 6673,
      "markets": 6674,
      "tack": 6675,
      "owned": 6676,
      "exclus": 6677,
      "##rastructure": 6678,
      "writer": 6679,
      "District": 6680,
      "##de": 6681,
      "##isher": 6682,
      "Virginia": 6683,
      "elim": 6684,
      "rid": 6685,
      "intended": 6686,
      "arms": 6687,
      "bound": 6688,
      "##ini": 6689,
      "mort": 6690,
      "regarding": 6691,
      "pil": 6692,
      "##ker": 6693,
      "##fe": 6694,
      "developers": 6695,
      "broken": 6696,
      "closer": 6697,
      "attorney": 6698,
      "Guard": 6699,
      "Steve": 6700,
      "##fl": 6701,
      "##hicles": 6702,
      "95": 6703,
      "Sum": 6704,
      "##ruption": 6705,
      "##ette": 6706,
      "experts": 6707,
      "##ocol": 6708,
      "presented": 6709,
      "possibility": 6710,
      "operating": 6711,
      "Boston": 6712,
      "soldiers": 6713,
      "internal": 6714,
      "trail": 6715,
      "Foundation": 6716,
      "consult": 6717,
      "prime": 6718,
      "Gal": 6719,
      "##makers": 6720,
      "prosecut": 6721,
      "##CC": 6722,
      "##AA": 6723,
      "streets": 6724,
      "breat": 6725,
      "##apers": 6726,
      "Though": 6727,
      "factors": 6728,
      "Mean": 6729,
      "Offic": 6730,
      "NAS": 6731,
      "Somet": 6732,
      "default": 6733,
      "pieces": 6734,
      "gar": 6735,
      "cas": 6736,
      "2003": 6737,
      "hun": 6738,
      "Carolina": 6739,
      "##eren": 6740,
      "sea": 6741,
      "occurred": 6742,
      "Middle": 6743,
      "##rible": 6744,
      "surprise": 6745,
      "Fig": 6746,
      "applications": 6747,
      "2001": 6748,
      "Supp": 6749,
      "minimum": 6750,
      "council": 6751,
      "specifically": 6752,
      "rapid": 6753,
      "equal": 6754,
      "BBC": 6755,
      "Mos": 6756,
      "##phone": 6757,
      "deploy": 6758,
      "Francisco": 6759,
      "##mm": 6760,
      "hyp": 6761,
      "##porary": 6762,
      "Mem": 6763,
      "##kn": 6764,
      "Paris": 6765,
      "seat": 6766,
      "Right": 6767,
      "vir": 6768,
      "Each": 6769,
      "elections": 6770,
      "chemical": 6771,
      "vul": 6772,
      "symb": 6773,
      "Australian": 6774,
      "Hist": 6775,
      "Ve": 6776,
      "sale": 6777,
      "ruling": 6778,
      "##iate": 6779,
      "##coh": 6780,
      "Rad": 6781,
      "Pac": 6782,
      "##igg": 6783,
      "sch": 6784,
      "##ashed": 6785,
      "listen": 6786,
      "perspect": 6787,
      "agent": 6788,
      "prepared": 6789,
      "forms": 6790,
      "ec": 6791,
      "##acks": 6792,
      "governments": 6793,
      "ath": 6794,
      "sport": 6795,
      "cultural": 6796,
      "ast": 6797,
      "##rad": 6798,
      "bringing": 6799,
      "##illing": 6800,
      "convention": 6801,
      "##ologies": 6802,
      "Second": 6803,
      "weapon": 6804,
      "estimated": 6805,
      "##obody": 6806,
      "59": 6807,
      "##aine": 6808,
      "schem": 6809,
      "regime": 6810,
      "Sign": 6811,
      "##hone": 6812,
      "tight": 6813,
      "##stream": 6814,
      "helps": 6815,
      "Getty": 6816,
      "Labour": 6817,
      "secure": 6818,
      "instit": 6819,
      "##idden": 6820,
      "combat": 6821,
      "stret": 6822,
      "##how": 6823,
      "##oma": 6824,
      "##uster": 6825,
      "herself": 6826,
      "troops": 6827,
      "tourn": 6828,
      "Haw": 6829,
      "Work": 6830,
      "fol": 6831,
      "recru": 6832,
      "facing": 6833,
      "magn": 6834,
      "Still": 6835,
      "voted": 6836,
      "revenue": 6837,
      "seasons": 6838,
      "Hol": 6839,
      "##ogue": 6840,
      "responsibility": 6841,
      "random": 6842,
      "##icated": 6843,
      "mode": 6844,
      "Fer": 6845,
      "determine": 6846,
      "dram": 6847,
      "wearing": 6848,
      "##osen": 6849,
      "originally": 6850,
      "bought": 6851,
      "teen": 6852,
      "factor": 6853,
      "arrest": 6854,
      "complic": 6855,
      "##uration": 6856,
      "distance": 6857,
      "##ressive": 6858,
      "##reens": 6859,
      "privacy": 6860,
      "cart": 6861,
      "hurt": 6862,
      "Human": 6863,
      "refused": 6864,
      "##och": 6865,
      "##onald": 6866,
      "stress": 6867,
      "greatest": 6868,
      "vehicles": 6869,
      "infrastructure": 6870,
      "obviously": 6871,
      "##terday": 6872,
      "equipment": 6873,
      "conducted": 6874,
      "Daily": 6875,
      "filled": 6876,
      "River": 6877,
      "handle": 6878,
      "##tered": 6879,
      "shape": 6880,
      "tech": 6881,
      "57": 6882,
      "clin": 6883,
      "Power": 6884,
      "proposal": 6885,
      "broke": 6886,
      "construct": 6887,
      "mal": 6888,
      "Thank": 6889,
      "offering": 6890,
      "##80": 6891,
      "approved": 6892,
      "Show": 6893,
      "potentially": 6894,
      "##apter": 6895,
      "remained": 6896,
      "powers": 6897,
      "accident": 6898,
      "prove": 6899,
      "##pm": 6900,
      "Stan": 6901,
      "Penn": 6902,
      "Note": 6903,
      "Andrew": 6904,
      "located": 6905,
      "affected": 6906,
      "reduced": 6907,
      "tact": 6908,
      "remove": 6909,
      "nut": 6910,
      "faster": 6911,
      "About": 6912,
      "widely": 6913,
      "##rig": 6914,
      "appearance": 6915,
      "Far": 6916,
      "##ola": 6917,
      "clim": 6918,
      "column": 6919,
      "##isted": 6920,
      "##rier": 6921,
      "PR": 6922,
      "jail": 6923,
      "Nav": 6924,
      "##30": 6925,
      "liberal": 6926,
      "shift": 6927,
      "retail": 6928,
      "expressed": 6929,
      "glass": 6930,
      "Life": 6931,
      "sac": 6932,
      "weren": 6933,
      "plants": 6934,
      "typically": 6935,
      "##This": 6936,
      "##inating": 6937,
      "criticism": 6938,
      "pointed": 6939,
      "maintain": 6940,
      "##OW": 6941,
      "aircraft": 6942,
      "baby": 6943,
      "aftern": 6944,
      "plenty": 6945,
      "pulled": 6946,
      "recorded": 6947,
      "Kim": 6948,
      "##IG": 6949,
      "experienced": 6950,
      "maximum": 6951,
      "Cru": 6952,
      "##auc": 6953,
      "percentage": 6954,
      "pages": 6955,
      "Science": 6956,
      "Its": 6957,
      "##DP": 6958,
      "challenges": 6959,
      "##sen": 6960,
      "Sant": 6961,
      "approx": 6962,
      "discl": 6963,
      "voting": 6964,
      "excited": 6965,
      "Force": 6966,
      "positions": 6967,
      "##ource": 6968,
      "Four": 6969,
      "quant": 6970,
      "emergency": 6971,
      "involve": 6972,
      "##useum": 6973,
      "depart": 6974,
      "finish": 6975,
      "switch": 6976,
      "##IV": 6977,
      "##Al": 6978,
      "methods": 6979,
      "clot": 6980,
      "university": 6981,
      "connected": 6982,
      "Bus": 6983,
      "##cel": 6984,
      "politicians": 6985,
      "forg": 6986,
      "spons": 6987,
      "talked": 6988,
      "discrim": 6989,
      "Saud": 6990,
      "##mosp": 6991,
      "##CH": 6992,
      "##vey": 6993,
      "leads": 6994,
      "##ENT": 6995,
      "subs": 6996,
      "##kin": 6997,
      "Mot": 6998,
      "##oving": 6999,
      "considering": 7000,
      "upgr": 7001,
      "##lder": 7002,
      "Grand": 7003,
      "Ma": 7004,
      "##cean": 7005,
      "Reuters": 7006,
      "motiv": 7007,
      "supporting": 7008,
      "determined": 7009,
      "indeed": 7010,
      "##orage": 7011,
      "##ION": 7012,
      "##ocking": 7013,
      "marg": 7014,
      "Men": 7015,
      "reference": 7016,
      "aid": 7017,
      "profit": 7018,
      "disappoint": 7019,
      "satisf": 7020,
      "remaining": 7021,
      "purchase": 7022,
      "##ader": 7023,
      "proceed": 7024,
      "apprec": 7025,
      "Hel": 7026,
      "profile": 7027,
      "renew": 7028,
      "##ita": 7029,
      "Charl": 7030,
      "treated": 7031,
      "array": 7032,
      "Thanks": 7033,
      "significantly": 7034,
      "zone": 7035,
      "concent": 7036,
      "package": 7037,
      "identify": 7038,
      "square": 7039,
      "afternoon": 7040,
      "Dani": 7041,
      "Braz": 7042,
      "combined": 7043,
      "hol": 7044,
      "surprising": 7045,
      "##pir": 7046,
      "Dou": 7047,
      "Nov": 7048,
      "nav": 7049,
      "##reland": 7050,
      "yards": 7051,
      "diss": 7052,
      "suc": 7053,
      "argued": 7054,
      "frust": 7055,
      "youth": 7056,
      "signs": 7057,
      "wood": 7058,
      "academ": 7059,
      "Wal": 7060,
      "##essions": 7061,
      "ends": 7062,
      "boost": 7063,
      "completed": 7064,
      "Wood": 7065,
      "creation": 7066,
      "ordered": 7067,
      "Conn": 7068,
      "Sov": 7069,
      "DC": 7070,
      "##olved": 7071,
      "##apping": 7072,
      "hopes": 7073,
      "burn": 7074,
      "grew": 7075,
      "van": 7076,
      "panel": 7077,
      "Ms": 7078,
      "craft": 7079,
      "armed": 7080,
      "##oom": 7081,
      "##ashion": 7082,
      "visual": 7083,
      "Road": 7084,
      "opposed": 7085,
      "##ownt": 7086,
      "encoun": 7087,
      "dial": 7088,
      "78": 7089,
      "basically": 7090,
      "spring": 7091,
      "god": 7092,
      "04": 7093,
      "Tra": 7094,
      "fish": 7095,
      "proced": 7096,
      "Director": 7097,
      "lots": 7098,
      "matters": 7099,
      "##15": 7100,
      "Spe": 7101,
      "sad": 7102,
      "subm": 7103,
      "valid": 7104,
      "belong": 7105,
      "denied": 7106,
      "##gment": 7107,
      "sem": 7108,
      "Project": 7109,
      "SP": 7110,
      "trouble": 7111,
      "opportunities": 7112,
      "Cop": 7113,
      "evening": 7114,
      "injured": 7115,
      "Ireland": 7116,
      "technical": 7117,
      "films": 7118,
      "##atured": 7119,
      "turning": 7120,
      "vulner": 7121,
      "##idel": 7122,
      "##AP": 7123,
      "fly": 7124,
      "Tal": 7125,
      "violent": 7126,
      "reporting": 7127,
      "Long": 7128,
      "movies": 7129,
      "sharing": 7130,
      "grab": 7131,
      "confident": 7132,
      "##IR": 7133,
      "expansion": 7134,
      "##bre": 7135,
      "capable": 7136,
      "buildings": 7137,
      "experiment": 7138,
      "input": 7139,
      "emphas": 7140,
      "##hab": 7141,
      "Meanwhile": 7142,
      "System": 7143,
      "tree": 7144,
      "Jul": 7145,
      "bodies": 7146,
      "dismiss": 7147,
      "Develop": 7148,
      "controlled": 7149,
      "struggle": 7150,
      "coord": 7151,
      "Again": 7152,
      "weather": 7153,
      "Ann": 7154,
      "Ap": 7155,
      "Island": 7156,
      "delay": 7157,
      "Lin": 7158,
      "Oly": 7159,
      "Av": 7160,
      "##ensions": 7161,
      "thoughts": 7162,
      "Christmas": 7163,
      "##lyn": 7164,
      "unable": 7165,
      "##xual": 7166,
      "datab": 7167,
      "##cohol": 7168,
      "Ill": 7169,
      "##ato": 7170,
      "##edd": 7171,
      "Vict": 7172,
      "##ez": 7173,
      "industrial": 7174,
      "edge": 7175,
      "laugh": 7176,
      "##rog": 7177,
      "##ulations": 7178,
      "tun": 7179,
      "videos": 7180,
      "##arks": 7181,
      "brows": 7182,
      "Ukraine": 7183,
      "detect": 7184,
      "Walk": 7185,
      "confidence": 7186,
      "Pakistan": 7187,
      "collabor": 7188,
      "##16": 7189,
      "reporters": 7190,
      "quiet": 7191,
      "Jackson": 7192,
      "contrast": 7193,
      "editor": 7194,
      "picked": 7195,
      "alt": 7196,
      "broadcast": 7197,
      "##the": 7198,
      "explos": 7199,
      "numerous": 7200,
      "hall": 7201,
      "consumers": 7202,
      "##ours": 7203,
      "Columb": 7204,
      "##tainment": 7205,
      "Ohio": 7206,
      "prompt": 7207,
      "linked": 7208,
      "##ipping": 7209,
      "seriously": 7210,
      "loved": 7211,
      "Space": 7212,
      "##ffee": 7213,
      "##rawn": 7214,
      "architect": 7215,
      "instruct": 7216,
      "resolution": 7217,
      "apps": 7218,
      "responded": 7219,
      "Rev": 7220,
      "Color": 7221,
      "passing": 7222,
      "updates": 7223,
      "calcul": 7224,
      "##gl": 7225,
      "declared": 7226,
      "ment": 7227,
      "flood": 7228,
      "Turkey": 7229,
      "Michigan": 7230,
      "substant": 7231,
      "##17": 7232,
      "##ache": 7233,
      "##endment": 7234,
      "radical": 7235,
      "forget": 7236,
      "faced": 7237,
      "label": 7238,
      "58": 7239,
      "Hen": 7240,
      "client": 7241,
      "attempts": 7242,
      "ourselves": 7243,
      "##anged": 7244,
      "CH": 7245,
      "proud": 7246,
      "centre": 7247,
      "transition": 7248,
      "150": 7249,
      "element": 7250,
      "copy": 7251,
      "Edit": 7252,
      "##nell": 7253,
      "advance": 7254,
      "circumst": 7255,
      "hell": 7256,
      "crack": 7257,
      "Olymp": 7258,
      "Techn": 7259,
      "##mond": 7260,
      "02": 7261,
      "Bat": 7262,
      "mand": 7263,
      "##onna": 7264,
      "3D": 7265,
      "differences": 7266,
      "##awn": 7267,
      "eval": 7268,
      "suit": 7269,
      "sets": 7270,
      "ongoing": 7271,
      "tradition": 7272,
      "driven": 7273,
      "suffered": 7274,
      "##enda": 7275,
      "##osite": 7276,
      "writes": 7277,
      "founder": 7278,
      "Mount": 7279,
      "##PU": 7280,
      "##obe": 7281,
      "signal": 7282,
      "extreme": 7283,
      "artist": 7284,
      "##ym": 7285,
      "##Wh": 7286,
      "enemy": 7287,
      "crimes": 7288,
      "Squ": 7289,
      "Rod": 7290,
      "craz": 7291,
      "##aza": 7292,
      "explo": 7293,
      "##14": 7294,
      "reaction": 7295,
      "##ansas": 7296,
      "##oking": 7297,
      "Enter": 7298,
      "##otes": 7299,
      "reli": 7300,
      "breaking": 7301,
      "caption": 7302,
      "experiences": 7303,
      "##known": 7304,
      "guns": 7305,
      "##icul": 7306,
      "Brazil": 7307,
      "Down": 7308,
      "pitch": 7309,
      "##lines": 7310,
      "##oves": 7311,
      "Swed": 7312,
      "cloud": 7313,
      "Scot": 7314,
      "batt": 7315,
      "atmosp": 7316,
      "fraud": 7317,
      "output": 7318,
      "Exp": 7319,
      "GM": 7320,
      "session": 7321,
      "effectively": 7322,
      "##uous": 7323,
      "##ributed": 7324,
      "192": 7325,
      "Kell": 7326,
      "##illance": 7327,
      "##oken": 7328,
      "##nergy": 7329,
      "admitted": 7330,
      "##licit": 7331,
      "legit": 7332,
      "##isters": 7333,
      "##ups": 7334,
      "##aped": 7335,
      "twitter": 7336,
      "##ixt": 7337,
      "##ishes": 7338,
      "abandon": 7339,
      "##ampion": 7340,
      "coast": 7341,
      "##hew": 7342,
      "messages": 7343,
      "brew": 7344,
      "walking": 7345,
      "##place": 7346,
      "statements": 7347,
      "Blue": 7348,
      "Lake": 7349,
      "contains": 7350,
      "confirm": 7351,
      "##erate": 7352,
      "pictures": 7353,
      "perspective": 7354,
      "institutions": 7355,
      "##iot": 7356,
      "##LE": 7357,
      "withd": 7358,
      "appropriate": 7359,
      "explains": 7360,
      "##18": 7361,
      "advice": 7362,
      "practices": 7363,
      "lit": 7364,
      "neither": 7365,
      "pool": 7366,
      "##dule": 7367,
      "##unte": 7368,
      "Year": 7369,
      "agents": 7370,
      "##abilities": 7371,
      "secretary": 7372,
      "##19": 7373,
      "Card": 7374,
      "##respond": 7375,
      "Wik": 7376,
      "##ompl": 7377,
      "Next": 7378,
      "wear": 7379,
      "married": 7380,
      "publicly": 7381,
      "Afghanistan": 7382,
      "temperature": 7383,
      "governor": 7384,
      "faces": 7385,
      "totally": 7386,
      "consumer": 7387,
      "Best": 7388,
      "emails": 7389,
      "62": 7390,
      "perman": 7391,
      "##ancing": 7392,
      "ID": 7393,
      "stands": 7394,
      "##IP": 7395,
      "shouldn": 7396,
      "Fil": 7397,
      "##ller": 7398,
      "##uations": 7399,
      "tow": 7400,
      "2002": 7401,
      "terrorist": 7402,
      "Games": 7403,
      "Muslims": 7404,
      "##ilty": 7405,
      "resident": 7406,
      "Ear": 7407,
      "##point": 7408,
      "delivered": 7409,
      "friendly": 7410,
      "newspaper": 7411,
      "excell": 7412,
      "Aff": 7413,
      "examples": 7414,
      "Win": 7415,
      "cycle": 7416,
      "defined": 7417,
      "doctor": 7418,
      "bull": 7419,
      "route": 7420,
      "##ador": 7421,
      "writ": 7422,
      "##ternal": 7423,
      "lawyer": 7424,
      "Prem": 7425,
      "ML": 7426,
      "Polit": 7427,
      "sav": 7428,
      "giant": 7429,
      "##gent": 7430,
      "accompl": 7431,
      "entry": 7432,
      "democracy": 7433,
      "ske": 7434,
      "##oral": 7435,
      "ISIS": 7436,
      "Wars": 7437,
      "##wr": 7438,
      "##esters": 7439,
      "leaves": 7440,
      "enh": 7441,
      "Elect": 7442,
      "config": 7443,
      "##eds": 7444,
      "##roc": 7445,
      "dynam": 7446,
      "terrorism": 7447,
      "incor": 7448,
      "Boy": 7449,
      "magazine": 7450,
      "Ariz": 7451,
      "desire": 7452,
      "##arts": 7453,
      "##ucks": 7454,
      "objects": 7455,
      "##gia": 7456,
      "##encing": 7457,
      "mir": 7458,
      "##aints": 7459,
      "inspired": 7460,
      "##abin": 7461,
      "reportedly": 7462,
      "Barack": 7463,
      "Fore": 7464,
      "##iplom": 7465,
      "Vol": 7466,
      "phen": 7467,
      "Soviet": 7468,
      "##what": 7469,
      "Three": 7470,
      "##ellow": 7471,
      "gra": 7472,
      "pray": 7473,
      "serving": 7474,
      "auth": 7475,
      "copyright": 7476,
      "Korean": 7477,
      "articles": 7478,
      "debut": 7479,
      "##13": 7480,
      "##hedule": 7481,
      "lie": 7482,
      "flag": 7483,
      "passeng": 7484,
      "causes": 7485,
      "essentially": 7486,
      "expression": 7487,
      "AL": 7488,
      "fashion": 7489,
      "##MA": 7490,
      "underst": 7491,
      "facts": 7492,
      "activists": 7493,
      "Ep": 7494,
      "##UT": 7495,
      "##ads": 7496,
      "subsequ": 7497,
      "philosop": 7498,
      "Dam": 7499,
      "applied": 7500,
      "Vide": 7501,
      "readers": 7502,
      "scheduled": 7503,
      "Div": 7504,
      "Take": 7505,
      "rail": 7506,
      "realize": 7507,
      "05": 7508,
      "declined": 7509,
      "66": 7510,
      "85": 7511,
      "##essor": 7512,
      "plane": 7513,
      "Home": 7514,
      "##imal": 7515,
      "##adow": 7516,
      "argue": 7517,
      "existence": 7518,
      "resc": 7519,
      "surprised": 7520,
      "listed": 7521,
      "intention": 7522,
      "SC": 7523,
      "pu": 7524,
      "nearby": 7525,
      "##It": 7526,
      "del": 7527,
      "interpret": 7528,
      "fort": 7529,
      "##arters": 7530,
      "Seattle": 7531,
      "##astern": 7532,
      "0x": 7533,
      "advert": 7534,
      "initially": 7535,
      "island": 7536,
      "Perhaps": 7537,
      "essential": 7538,
      "explan": 7539,
      "quarterback": 7540,
      "Dar": 7541,
      "Naz": 7542,
      "Real": 7543,
      "increases": 7544,
      "creative": 7545,
      "thinks": 7546,
      "##vis": 7547,
      "##abled": 7548,
      "missed": 7549,
      "library": 7550,
      "sought": 7551,
      "graph": 7552,
      "##SS": 7553,
      "##uls": 7554,
      "Young": 7555,
      "bond": 7556,
      "joint": 7557,
      "##abb": 7558,
      "Wild": 7559,
      "dollar": 7560,
      "##roit": 7561,
      "Hy": 7562,
      "songs": 7563,
      "chain": 7564,
      "roughly": 7565,
      "franch": 7566,
      "##lo": 7567,
      "Econom": 7568,
      "pure": 7569,
      "exercise": 7570,
      "discussed": 7571,
      "guilty": 7572,
      "rein": 7573,
      "grown": 7574,
      "warm": 7575,
      "Fam": 7576,
      "Saudi": 7577,
      "suffering": 7578,
      "Club": 7579,
      "campus": 7580,
      "performed": 7581,
      "Stephen": 7582,
      "patient": 7583,
      "##ico": 7584,
      "##ionally": 7585,
      "##orted": 7586,
      "lawsuit": 7587,
      "storm": 7588,
      "warned": 7589,
      "moral": 7590,
      "favour": 7591,
      "IT": 7592,
      "division": 7593,
      "prohib": 7594,
      "##illed": 7595,
      "Tit": 7596,
      "scored": 7597,
      "##standing": 7598,
      "decre": 7599,
      "bug": 7600,
      "fairly": 7601,
      "Sar": 7602,
      "accepted": 7603,
      "af": 7604,
      "button": 7605,
      "talent": 7606,
      "outr": 7607,
      "boss": 7608,
      "Week": 7609,
      "YouT": 7610,
      "##orry": 7611,
      "##onom": 7612,
      "neur": 7613,
      "currency": 7614,
      "findings": 7615,
      "##whel": 7616,
      "warning": 7617,
      "deaths": 7618,
      "metal": 7619,
      "represents": 7620,
      "##inent": 7621,
      "##edy": 7622,
      "everybody": 7623,
      "fasc": 7624,
      "mine": 7625,
      "drivers": 7626,
      "Upd": 7627,
      "native": 7628,
      "Ell": 7629,
      "zero": 7630,
      "shif": 7631,
      "Further": 7632,
      "##enture": 7633,
      "##illy": 7634,
      "Author": 7635,
      "cert": 7636,
      "blow": 7637,
      "yesterday": 7638,
      "split": 7639,
      "announcement": 7640,
      "iPhone": 7641,
      "##rd": 7642,
      "adds": 7643,
      "##erves": 7644,
      "##anish": 7645,
      "overse": 7646,
      "shots": 7647,
      "younger": 7648,
      "##ERS": 7649,
      "cy": 7650,
      "neut": 7651,
      "Ital": 7652,
      "AF": 7653,
      "Lord": 7654,
      "##iest": 7655,
      "##estival": 7656,
      "##angers": 7657,
      "follows": 7658,
      "consequences": 7659,
      "evolution": 7660,
      "stood": 7661,
      "advanced": 7662,
      "AD": 7663,
      "Eric": 7664,
      "rain": 7665,
      "investors": 7666,
      "##usal": 7667,
      "thank": 7668,
      "Rights": 7669,
      "buying": 7670,
      "cheap": 7671,
      "entered": 7672,
      "tom": 7673,
      "##asts": 7674,
      "nations": 7675,
      "##OD": 7676,
      "tiny": 7677,
      "authors": 7678,
      "bare": 7679,
      "trick": 7680,
      "##ship": 7681,
      "abortion": 7682,
      "Ah": 7683,
      "##agers": 7684,
      "anywhere": 7685,
      "syn": 7686,
      "Energy": 7687,
      "remark": 7688,
      "Rog": 7689,
      "hat": 7690,
      "classes": 7691,
      "rape": 7692,
      "injuries": 7693,
      "##acle": 7694,
      "##ala": 7695,
      "wage": 7696,
      "liqu": 7697,
      "NY": 7698,
      "Wilson": 7699,
      "sick": 7700,
      "universe": 7701,
      "functions": 7702,
      "##ourney": 7703,
      "causing": 7704,
      "rising": 7705,
      "somewhat": 7706,
      "heads": 7707,
      "restaurant": 7708,
      "materials": 7709,
      "alcohol": 7710,
      "##greg": 7711,
      "rot": 7712,
      "##iat": 7713,
      "egg": 7714,
      "##athan": 7715,
      "Ret": 7716,
      "ride": 7717,
      "parent": 7718,
      "##under": 7719,
      "##oked": 7720,
      "networks": 7721,
      "Davis": 7722,
      "bon": 7723,
      "##war": 7724,
      "combination": 7725,
      "Palestinian": 7726,
      "CIA": 7727,
      "##atell": 7728,
      "relevant": 7729,
      "communication": 7730,
      "conscious": 7731,
      "succeed": 7732,
      "IP": 7733,
      "##taining": 7734,
      "Romney": 7735,
      "PS": 7736,
      "Way": 7737,
      "correspond": 7738,
      "storage": 7739,
      "therap": 7740,
      "bright": 7741,
      "improved": 7742,
      "Bas": 7743,
      "coup": 7744,
      "##avor": 7745,
      "monit": 7746,
      "allegations": 7747,
      "Die": 7748,
      "begins": 7749,
      "##ket": 7750,
      "backed": 7751,
      "Luc": 7752,
      "##ua": 7753,
      "moves": 7754,
      "distribution": 7755,
      "Love": 7756,
      "Catholic": 7757,
      "##ii": 7758,
      "colleagues": 7759,
      "Board": 7760,
      "boys": 7761,
      "returns": 7762,
      "Land": 7763,
      "wid": 7764,
      "##TA": 7765,
      "##rip": 7766,
      "NBA": 7767,
      "##iences": 7768,
      "stores": 7769,
      "disappear": 7770,
      "Call": 7771,
      "Society": 7772,
      "immediate": 7773,
      "hardware": 7774,
      "thread": 7775,
      "Detroit": 7776,
      "featured": 7777,
      "AR": 7778,
      "brings": 7779,
      "threats": 7780,
      "meat": 7781,
      "surveillance": 7782,
      "##iment": 7783,
      "##hetic": 7784,
      "CD": 7785,
      "##inals": 7786,
      "hoping": 7787,
      "musc": 7788,
      "##IM": 7789,
      "necessarily": 7790,
      "##acter": 7791,
      "urban": 7792,
      "allegedly": 7793,
      "63": 7794,
      "wound": 7795,
      "##icious": 7796,
      "Did": 7797,
      "##rid": 7798,
      "Charles": 7799,
      "##40": 7800,
      "##employ": 7801,
      "Kevin": 7802,
      "Unf": 7803,
      "bike": 7804,
      "Daniel": 7805,
      "diplom": 7806,
      "sees": 7807,
      "##adel": 7808,
      "YouTube": 7809,
      "##iger": 7810,
      "##elled": 7811,
      "unlikely": 7812,
      "Story": 7813,
      "marketing": 7814,
      "heavily": 7815,
      "tournament": 7816,
      "Stand": 7817,
      "Adam": 7818,
      "##esome": 7819,
      "Ford": 7820,
      "highlight": 7821,
      "consistent": 7822,
      "##irty": 7823,
      "usual": 7824,
      "replaced": 7825,
      "behavi": 7826,
      "isol": 7827,
      "##urning": 7828,
      "holds": 7829,
      "Jesus": 7830,
      "bird": 7831,
      "confront": 7832,
      "Cast": 7833,
      "Max": 7834,
      "sample": 7835,
      "waste": 7836,
      "pushed": 7837,
      "##ooth": 7838,
      "forest": 7839,
      "orders": 7840,
      "crazy": 7841,
      "motor": 7842,
      "east": 7843,
      "##edia": 7844,
      "doctors": 7845,
      "targets": 7846,
      "Hou": 7847,
      "lock": 7848,
      "##erial": 7849,
      "rum": 7850,
      "classic": 7851,
      "Contin": 7852,
      "trend": 7853,
      "Asia": 7854,
      "##orders": 7855,
      "west": 7856,
      "##arden": 7857,
      "customer": 7858,
      "carrying": 7859,
      "manage": 7860,
      "manner": 7861,
      "fundamental": 7862,
      "playoff": 7863,
      "parliament": 7864,
      "assets": 7865,
      "Hor": 7866,
      "Sn": 7867,
      "##iven": 7868,
      "detailed": 7869,
      "View": 7870,
      "##emen": 7871,
      "volunte": 7872,
      "##sembly": 7873,
      "eating": 7874,
      "##formation": 7875,
      "strange": 7876,
      "observ": 7877,
      "sand": 7878,
      "promise": 7879,
      "links": 7880,
      "##PR": 7881,
      "literally": 7882,
      "pra": 7883,
      "flu": 7884,
      "fewer": 7885,
      "importance": 7886,
      "intent": 7887,
      "Sports": 7888,
      "Women": 7889,
      "Disc": 7890,
      "plot": 7891,
      "motion": 7892,
      "Ram": 7893,
      "##ati": 7894,
      "##asp": 7895,
      "ring": 7896,
      "extent": 7897,
      "offense": 7898,
      "##ockey": 7899,
      "pled": 7900,
      "Invest": 7901,
      "Bell": 7902,
      "##mates": 7903,
      "winter": 7904,
      "DNA": 7905,
      "Defense": 7906,
      "circumstances": 7907,
      "Putin": 7908,
      "##rum": 7909,
      "termin": 7910,
      "analyst": 7911,
      "symbol": 7912,
      "Brook": 7913,
      "##icy": 7914,
      "##rations": 7915,
      "##chen": 7916,
      "##ocket": 7917,
      "narr": 7918,
      "##icing": 7919,
      "acting": 7920,
      "regulations": 7921,
      "##ologist": 7922,
      "commitment": 7923,
      "##As": 7924,
      "earned": 7925,
      "selection": 7926,
      "Holly": 7927,
      "Van": 7928,
      "pushing": 7929,
      "03": 7930,
      "gang": 7931,
      "ending": 7932,
      "assert": 7933,
      "Share": 7934,
      "walked": 7935,
      "femin": 7936,
      "##lv": 7937,
      "Tay": 7938,
      "opposite": 7939,
      "historical": 7940,
      "fuck": 7941,
      "Mic": 7942,
      "attempted": 7943,
      "teachers": 7944,
      "Gra": 7945,
      "colon": 7946,
      "ancient": 7947,
      "wake": 7948,
      "dedicated": 7949,
      "sustain": 7950,
      "##ether": 7951,
      "Miller": 7952,
      "embr": 7953,
      "downt": 7954,
      "##IF": 7955,
      "mouth": 7956,
      "illust": 7957,
      "TO": 7958,
      "##xy": 7959,
      "formed": 7960,
      "desk": 7961,
      "protected": 7962,
      "athlet": 7963,
      "rally": 7964,
      "domin": 7965,
      "vice": 7966,
      "chairman": 7967,
      "adapt": 7968,
      "moments": 7969,
      "repeatedly": 7970,
      "Di": 7971,
      "index": 7972,
      "facility": 7973,
      "household": 7974,
      "Spanish": 7975,
      "##real": 7976,
      "Fort": 7977,
      "##oz": 7978,
      "watched": 7979,
      "kit": 7980,
      "referred": 7981,
      "Id": 7982,
      "sister": 7983,
      "Old": 7984,
      "bag": 7985,
      "Hot": 7986,
      "Jews": 7987,
      "Special": 7988,
      "##pet": 7989,
      "Never": 7990,
      "forth": 7991,
      "schedule": 7992,
      "Brad": 7993,
      "72": 7994,
      "overwhel": 7995,
      "protests": 7996,
      "Jr": 7997,
      "sentence": 7998,
      "Arizona": 7999,
      "acts": 8000,
      "wire": 8001,
      "versions": 8002,
      "controversial": 8003,
      "Pan": 8004,
      "slowly": 8005,
      "targeted": 8006,
      "mechanism": 8007,
      "excellent": 8008,
      "anx": 8009,
      "shel": 8010,
      "Gi": 8011,
      "diet": 8012,
      "height": 8013,
      "artists": 8014,
      "##aling": 8015,
      "Italy": 8016,
      "dealing": 8017,
      "800": 8018,
      "flo": 8019,
      "unus": 8020,
      "##olve": 8021,
      "proof": 8022,
      "##apse": 8023,
      "handed": 8024,
      "wave": 8025,
      "approximately": 8026,
      "##nam": 8027,
      "##pay": 8028,
      "closely": 8029,
      "##tr": 8030,
      "posts": 8031,
      "emotional": 8032,
      "reward": 8033,
      "##anges": 8034,
      "receiving": 8035,
      "competitive": 8036,
      "penal": 8037,
      "acknowled": 8038,
      "Cub": 8039,
      "frequently": 8040,
      "##kel": 8041,
      "alongside": 8042,
      "NASA": 8043,
      "congress": 8044,
      "##iner": 8045,
      "category": 8046,
      "##ded": 8047,
      "Wat": 8048,
      "67": 8049,
      "End": 8050,
      "guide": 8051,
      "Conf": 8052,
      "surrounding": 8053,
      "pip": 8054,
      "struck": 8055,
      "adults": 8056,
      "##ko": 8057,
      "##iques": 8058,
      "##night": 8059,
      "Water": 8060,
      "##utch": 8061,
      "##US": 8062,
      "channel": 8063,
      "Unfortunately": 8064,
      "Dark": 8065,
      "king": 8066,
      "blame": 8067,
      "phenomen": 8068,
      "##rint": 8069,
      "hotel": 8070,
      "deeply": 8071,
      "Carl": 8072,
      "##uated": 8073,
      "##ilit": 8074,
      "signing": 8075,
      "properties": 8076,
      "cutting": 8077,
      "instru": 8078,
      "empty": 8079,
      "600": 8080,
      "##unction": 8081,
      "subsid": 8082,
      "##aled": 8083,
      "##icit": 8084,
      "##omin": 8085,
      "database": 8086,
      "Brian": 8087,
      "resistance": 8088,
      "regional": 8089,
      "harder": 8090,
      "gear": 8091,
      "flat": 8092,
      "knowing": 8093,
      "gap": 8094,
      "##andal": 8095,
      "upcoming": 8096,
      "tested": 8097,
      "##60": 8098,
      "Come": 8099,
      "properly": 8100,
      "volume": 8101,
      "passion": 8102,
      "Java": 8103,
      "wins": 8104,
      "soul": 8105,
      "##emies": 8106,
      "crash": 8107,
      "##allas": 8108,
      "kinds": 8109,
      "aside": 8110,
      "##uable": 8111,
      "hits": 8112,
      "##host": 8113,
      "##izz": 8114,
      "pregn": 8115,
      "describe": 8116,
      "remote": 8117,
      "Josh": 8118,
      "##oration": 8119,
      "##aze": 8120,
      "Ut": 8121,
      "inher": 8122,
      "##umber": 8123,
      "Shar": 8124,
      "##iami": 8125,
      "coffee": 8126,
      "bear": 8127,
      "reput": 8128,
      "realized": 8129,
      "participants": 8130,
      "kil": 8131,
      "##iveness": 8132,
      "lies": 8133,
      "##agan": 8134,
      "precise": 8135,
      "Civil": 8136,
      "promised": 8137,
      "selected": 8138,
      "##burg": 8139,
      "constant": 8140,
      "Jord": 8141,
      "northern": 8142,
      "##alle": 8143,
      "magic": 8144,
      "Sky": 8145,
      "mainstream": 8146,
      "##pe": 8147,
      "Lew": 8148,
      "studio": 8149,
      "adopt": 8150,
      "Cat": 8151,
      "rub": 8152,
      "snow": 8153,
      "prote": 8154,
      "Bru": 8155,
      "suicide": 8156,
      "opponents": 8157,
      "pal": 8158,
      "##iscons": 8159,
      "phase": 8160,
      "typical": 8161,
      "##rison": 8162,
      "likes": 8163,
      "effici": 8164,
      "param": 8165,
      "suddenly": 8166,
      "##isconsin": 8167,
      "Houston": 8168,
      "enth": 8169,
      "unknown": 8170,
      "##ensus": 8171,
      "topic": 8172,
      "schol": 8173,
      "Camer": 8174,
      "Arch": 8175,
      "requests": 8176,
      "MS": 8177,
      "Irish": 8178,
      "##64": 8179,
      "newslet": 8180,
      "dry": 8181,
      "agenda": 8182,
      "Finally": 8183,
      "territory": 8184,
      "requirements": 8185,
      "Network": 8186,
      "##nic": 8187,
      "welcome": 8188,
      "directed": 8189,
      "updated": 8190,
      "comfortable": 8191,
      "##rehens": 8192,
      "multi": 8193,
      "68": 8194,
      "locations": 8195,
      "dress": 8196,
      "Organ": 8197,
      "ped": 8198,
      "noticed": 8199,
      "approval": 8200,
      "##va": 8201,
      "##ademy": 8202,
      "Business": 8203,
      "Such": 8204,
      "Child": 8205,
      "drag": 8206,
      "Class": 8207,
      "Mu": 8208,
      "fixed": 8209,
      "anonym": 8210,
      "Has": 8211,
      "Light": 8212,
      "Wisconsin": 8213,
      "##asure": 8214,
      "decline": 8215,
      "worried": 8216,
      "hyd": 8217,
      "teacher": 8218,
      "Night": 8219,
      "fake": 8220,
      "sending": 8221,
      "##ellect": 8222,
      "fifth": 8223,
      "tort": 8224,
      "##pass": 8225,
      "##enders": 8226,
      "unemploy": 8227,
      "theme": 8228,
      "69": 8229,
      "77": 8230,
      "plug": 8231,
      "unl": 8232,
      "Check": 8233,
      "pover": 8234,
      "risks": 8235,
      "##rect": 8236,
      "strongly": 8237,
      "Pacific": 8238,
      "##fire": 8239,
      "nomine": 8240,
      "##stone": 8241,
      "##unning": 8242,
      "comparison": 8243,
      "##ao": 8244,
      "extract": 8245,
      "exhib": 8246,
      "Valley": 8247,
      "##asks": 8248,
      "Yeah": 8249,
      "flying": 8250,
      "Agency": 8251,
      "07": 8252,
      "##Ch": 8253,
      "definition": 8254,
      "Miami": 8255,
      "Oper": 8256,
      "latter": 8257,
      "Colorado": 8258,
      "Administ": 8259,
      "attacked": 8260,
      "##hot": 8261,
      "anyway": 8262,
      "Which": 8263,
      "Among": 8264,
      "involving": 8265,
      "Sea": 8266,
      "reasonable": 8267,
      "diagn": 8268,
      "Thus": 8269,
      "1999": 8270,
      "poverty": 8271,
      "limits": 8272,
      "immigrants": 8273,
      "Attorney": 8274,
      "license": 8275,
      "merely": 8276,
      "retire": 8277,
      "extended": 8278,
      "Scient": 8279,
      "##OC": 8280,
      "arguments": 8281,
      "ruled": 8282,
      "##ographic": 8283,
      "##ingu": 8284,
      "sky": 8285,
      "ok": 8286,
      "destroyed": 8287,
      "feat": 8288,
      "surg": 8289,
      "understood": 8290,
      "250": 8291,
      "exciting": 8292,
      "pin": 8293,
      "sweet": 8294,
      "Cruz": 8295,
      "drawn": 8296,
      "battery": 8297,
      "alive": 8298,
      "190": 8299,
      "Marc": 8300,
      "matches": 8301,
      "southern": 8302,
      "##west": 8303,
      "McCain": 8304,
      "Jersey": 8305,
      "iron": 8306,
      "##ums": 8307,
      "winner": 8308,
      "impressive": 8309,
      "##PD": 8310,
      "dogs": 8311,
      "fighters": 8312,
      "journey": 8313,
      "##wan": 8314,
      "Key": 8315,
      "observed": 8316,
      "NBC": 8317,
      "##II": 8318,
      "##iform": 8319,
      "employee": 8320,
      "Dallas": 8321,
      "##anchester": 8322,
      "flex": 8323,
      "courts": 8324,
      "democrat": 8325,
      "recognize": 8326,
      "stretch": 8327,
      "mistake": 8328,
      "Balt": 8329,
      "Nations": 8330,
      "##anes": 8331,
      "basket": 8332,
      "08": 8333,
      "disag": 8334,
      "obtained": 8335,
      "equival": 8336,
      "##adelph": 8337,
      "bunch": 8338,
      "##aug": 8339,
      "Cam": 8340,
      "duty": 8341,
      "Indeed": 8342,
      "gotten": 8343,
      "assume": 8344,
      "enemies": 8345,
      "Turk": 8346,
      "Turn": 8347,
      "inch": 8348,
      "clar": 8349,
      "sole": 8350,
      "Scotland": 8351,
      "champion": 8352,
      "##regon": 8353,
      "trees": 8354,
      "atmosphere": 8355,
      "unw": 8356,
      "franchise": 8357,
      "##ey": 8358,
      "protesters": 8359,
      "relationships": 8360,
      "##ugh": 8361,
      "honor": 8362,
      "icon": 8363,
      "##esc": 8364,
      "##ighter": 8365,
      "constit": 8366,
      "FC": 8367,
      "somehow": 8368,
      "Hollywood": 8369,
      "##word": 8370,
      "NE": 8371,
      "##erry": 8372,
      "Mat": 8373,
      "escape": 8374,
      "##ceived": 8375,
      "##rors": 8376,
      "root": 8377,
      "Click": 8378,
      "##For": 8379,
      "emissions": 8380,
      "communications": 8381,
      "regions": 8382,
      "oblig": 8383,
      "ticket": 8384,
      "Nic": 8385,
      "allies": 8386,
      "Tony": 8387,
      "promote": 8388,
      "informed": 8389,
      "##ORE": 8390,
      "defeat": 8391,
      "exposed": 8392,
      "corruption": 8393,
      "Az": 8394,
      "paint": 8395,
      "Inf": 8396,
      "OK": 8397,
      "tall": 8398,
      "employment": 8399,
      "##TS": 8400,
      "amounts": 8401,
      "##inations": 8402,
      "journalists": 8403,
      "Joseph": 8404,
      "folks": 8405,
      "satell": 8406,
      "stim": 8407,
      "chose": 8408,
      "aspects": 8409,
      "Victor": 8410,
      "opponent": 8411,
      "ble": 8412,
      "squad": 8413,
      "village": 8414,
      "##celer": 8415,
      "06": 8416,
      "punish": 8417,
      "##ensity": 8418,
      "Georgia": 8419,
      "##cks": 8420,
      "##LA": 8421,
      "pic": 8422,
      "stronger": 8423,
      "falling": 8424,
      "sight": 8425,
      "##rating": 8426,
      "##adelphia": 8427,
      "HD": 8428,
      "Dun": 8429,
      "##onc": 8430,
      "##aser": 8431,
      "truck": 8432,
      "implic": 8433,
      "puts": 8434,
      "occur": 8435,
      "critics": 8436,
      "rig": 8437,
      "wal": 8438,
      "format": 8439,
      "finds": 8440,
      "primarily": 8441,
      "Fre": 8442,
      "Manchester": 8443,
      "##vard": 8444,
      "Labor": 8445,
      "##gor": 8446,
      "dozen": 8447,
      "refugees": 8448,
      "developer": 8449,
      "raising": 8450,
      "scheme": 8451,
      "Cross": 8452,
      "bitcoin": 8453,
      "Jordan": 8454,
      "tank": 8455,
      "goods": 8456,
      "##We": 8457,
      "captured": 8458,
      "answers": 8459,
      "rejected": 8460,
      "##ora": 8461,
      "ideal": 8462,
      "Live": 8463,
      "LGB": 8464,
      "cup": 8465,
      "row": 8466,
      "##itar": 8467,
      "NC": 8468,
      "##onn": 8469,
      "##uce": 8470,
      "bench": 8471,
      "choices": 8472,
      "Hard": 8473,
      "bid": 8474,
      "##awa": 8475,
      "supports": 8476,
      "Dead": 8477,
      "OF": 8478,
      "09": 8479,
      "inqu": 8480,
      "##axy": 8481,
      "OS": 8482,
      "purposes": 8483,
      "outcome": 8484,
      "fees": 8485,
      "letters": 8486,
      "engage": 8487,
      "vacc": 8488,
      "evil": 8489,
      "##han": 8490,
      "deals": 8491,
      "drinking": 8492,
      "##bel": 8493,
      "facilities": 8494,
      "convert": 8495,
      "scenes": 8496,
      "claiming": 8497,
      "LGBT": 8498,
      "Viet": 8499,
      "##vy": 8500,
      "##isan": 8501,
      "##igation": 8502,
      "somewhere": 8503,
      "loan": 8504,
      "##equ": 8505,
      "blocks": 8506,
      "Disney": 8507,
      "rival": 8508,
      "##otal": 8509,
      "sup": 8510,
      "registered": 8511,
      "Oregon": 8512,
      "racial": 8513,
      "mixed": 8514,
      "74": 8515,
      "nobody": 8516,
      "Philadelphia": 8517,
      "myth": 8518,
      "personally": 8519,
      "deleg": 8520,
      "Ali": 8521,
      "virtual": 8522,
      "Moore": 8523,
      "desper": 8524,
      "Sometimes": 8525,
      "Coll": 8526,
      "Hun": 8527,
      "Mur": 8528,
      "trib": 8529,
      "contem": 8530,
      "weird": 8531,
      "Curr": 8532,
      "plastic": 8533,
      "##anny": 8534,
      "aggressive": 8535,
      "Budd": 8536,
      "anymore": 8537,
      "Program": 8538,
      "threatened": 8539,
      "contributed": 8540,
      "##On": 8541,
      "##oming": 8542,
      "##icken": 8543,
      "Ult": 8544,
      "##ucing": 8545,
      "houses": 8546,
      "##care": 8547,
      "Does": 8548,
      "Italian": 8549,
      "ties": 8550,
      "exists": 8551,
      "##lers": 8552,
      "##itarian": 8553,
      "generate": 8554,
      "trading": 8555,
      "##uits": 8556,
      "angry": 8557,
      "Educ": 8558,
      "Care": 8559,
      "Southern": 8560,
      "constantly": 8561,
      "Mob": 8562,
      "Data": 8563,
      "Without": 8564,
      "##pool": 8565,
      "distinct": 8566,
      "terrible": 8567,
      "estate": 8568,
      "degrees": 8569,
      "installed": 8570,
      "comic": 8571,
      "intellect": 8572,
      "headed": 8573,
      "demands": 8574,
      "##olt": 8575,
      "ori": 8576,
      "##hal": 8577,
      "habit": 8578,
      "Foreign": 8579,
      "Ray": 8580,
      "western": 8581,
      "Senator": 8582,
      "##tle": 8583,
      "Bowl": 8584,
      "##raid": 8585,
      "officially": 8586,
      "conven": 8587,
      "enthus": 8588,
      "##road": 8589,
      "incredibly": 8590,
      "gall": 8591,
      "organized": 8592,
      "IC": 8593,
      "taught": 8594,
      "feedback": 8595,
      "Source": 8596,
      "fields": 8597,
      "upper": 8598,
      "##boy": 8599,
      "##onic": 8600,
      "Rose": 8601,
      "##azz": 8602,
      "comprom": 8603,
      "Jac": 8604,
      "blind": 8605,
      "Asian": 8606,
      "##exp": 8607,
      "Fair": 8608,
      "Make": 8609,
      "extensive": 8610,
      "##inson": 8611,
      "Greek": 8612,
      "##32": 8613,
      "newly": 8614,
      "deck": 8615,
      "situations": 8616,
      "funded": 8617,
      "ru": 8618,
      "List": 8619,
      "Full": 8620,
      "agric": 8621,
      "Taylor": 8622,
      "phr": 8623,
      "encourage": 8624,
      "Sir": 8625,
      "##iro": 8626,
      "returning": 8627,
      "polls": 8628,
      "apartment": 8629,
      "condem": 8630,
      "Dri": 8631,
      "Bry": 8632,
      "NHL": 8633,
      "bat": 8634,
      "##can": 8635,
      "payment": 8636,
      "Video": 8637,
      "##osis": 8638,
      "estimates": 8639,
      "Little": 8640,
      "1998": 8641,
      "founded": 8642,
      "represented": 8643,
      "accomp": 8644,
      "severe": 8645,
      "ven": 8646,
      "##do": 8647,
      "##water": 8648,
      "##esy": 8649,
      "decent": 8650,
      "recovery": 8651,
      "Py": 8652,
      "##inem": 8653,
      "Orig": 8654,
      "thin": 8655,
      "manip": 8656,
      "tail": 8657,
      "Through": 8658,
      "##rates": 8659,
      "##essed": 8660,
      "generated": 8661,
      "transpar": 8662,
      "engaged": 8663,
      "parking": 8664,
      "Constitution": 8665,
      "Ra": 8666,
      "Report": 8667,
      "Pay": 8668,
      "regularly": 8669,
      "titles": 8670,
      "capture": 8671,
      "consumption": 8672,
      "tied": 8673,
      "HT": 8674,
      "manufactur": 8675,
      "Test": 8676,
      "##woman": 8677,
      "##owa": 8678,
      "##ima": 8679,
      "components": 8680,
      "Fund": 8681,
      "##asters": 8682,
      "narrow": 8683,
      "Linux": 8684,
      "##met": 8685,
      "##een": 8686,
      "continuing": 8687,
      "IR": 8688,
      "somebody": 8689,
      "Sever": 8690,
      "hidden": 8691,
      "##ems": 8692,
      "Hell": 8693,
      "keeps": 8694,
      "##chain": 8695,
      "solutions": 8696,
      "reporter": 8697,
      "##UR": 8698,
      "chosen": 8699,
      "Cost": 8700,
      "##pan": 8701,
      "unn": 8702,
      "tor": 8703,
      "meetings": 8704,
      "Moh": 8705,
      "LA": 8706,
      "Greg": 8707,
      "Major": 8708,
      "##zens": 8709,
      "perfectly": 8710,
      "harass": 8711,
      "narrative": 8712,
      "AS": 8713,
      "##fall": 8714,
      "##iscal": 8715,
      "electricity": 8716,
      "pilot": 8717,
      "Start": 8718,
      "Judge": 8719,
      "sympt": 8720,
      "Fall": 8721,
      "concluded": 8722,
      "efficient": 8723,
      "Kurd": 8724,
      "forec": 8725,
      "incredible": 8726,
      "accurate": 8727,
      "browser": 8728,
      "Gall": 8729,
      "Kr": 8730,
      "stead": 8731,
      "mayor": 8732,
      "cer": 8733,
      "##gred": 8734,
      "Food": 8735,
      "##ml": 8736,
      "##ilarly": 8737,
      "##iable": 8738,
      "##ura": 8739,
      "##ogan": 8740,
      "resulting": 8741,
      "mainly": 8742,
      "crucial": 8743,
      "excess": 8744,
      "Kir": 8745,
      "##rich": 8746,
      "county": 8747,
      "Tele": 8748,
      "writers": 8749,
      "Ott": 8750,
      "##cers": 8751,
      "controls": 8752,
      "Kelly": 8753,
      "Mah": 8754,
      "Vis": 8755,
      "##bn": 8756,
      "Tem": 8757,
      "Nick": 8758,
      "teaching": 8759,
      "ESP": 8760,
      "enable": 8761,
      "History": 8762,
      "regardless": 8763,
      "routine": 8764,
      "Kent": 8765,
      "Championship": 8766,
      "Ruby": 8767,
      "taste": 8768,
      "##ifications": 8769,
      "operate": 8770,
      "granted": 8771,
      "withdraw": 8772,
      "worker": 8773,
      "Market": 8774,
      "thousand": 8775,
      "Series": 8776,
      "Oak": 8777,
      "rus": 8778,
      "province": 8779,
      "complaint": 8780,
      "97": 8781,
      "McD": 8782,
      "shares": 8783,
      "Hom": 8784,
      "##weight": 8785,
      "Keep": 8786,
      "##idelines": 8787,
      "79": 8788,
      "negotiations": 8789,
      "Jason": 8790,
      "##eda": 8791,
      "possession": 8792,
      "elsewhere": 8793,
      "collected": 8794,
      "ow": 8795,
      "Company": 8796,
      "Zeal": 8797,
      "automatically": 8798,
      "spin": 8799,
      "Anth": 8800,
      "Global": 8801,
      "inev": 8802,
      "sanctions": 8803,
      "compens": 8804,
      "##iated": 8805,
      "##amin": 8806,
      "Spain": 8807,
      "Nation": 8808,
      "payments": 8809,
      "complicated": 8810,
      "Ins": 8811,
      "##cy": 8812,
      "##oric": 8813,
      "stuck": 8814,
      "worldwide": 8815,
      "contest": 8816,
      "Minnes": 8817,
      "lawyers": 8818,
      "76": 8819,
      "##cho": 8820,
      "technologies": 8821,
      "Assad": 8822,
      "Snow": 8823,
      "##uine": 8824,
      "##bec": 8825,
      "chances": 8826,
      "anticip": 8827,
      "successfully": 8828,
      "Mult": 8829,
      "##bled": 8830,
      "defence": 8831,
      "##owed": 8832,
      "taxpay": 8833,
      "bills": 8834,
      "permanent": 8835,
      "gaming": 8836,
      "##aire": 8837,
      "Ever": 8838,
      "yield": 8839,
      "innoc": 8840,
      "Northern": 8841,
      "pod": 8842,
      "conclusion": 8843,
      "sensitive": 8844,
      "alert": 8845,
      "Given": 8846,
      "##25": 8847,
      "neutral": 8848,
      "Ty": 8849,
      "##redit": 8850,
      "veget": 8851,
      "solve": 8852,
      "sharp": 8853,
      "cited": 8854,
      "attended": 8855,
      "crypt": 8856,
      "audio": 8857,
      "explore": 8858,
      "awesome": 8859,
      "Have": 8860,
      "##gender": 8861,
      "dict": 8862,
      "coalition": 8863,
      "actor": 8864,
      "marked": 8865,
      "proved": 8866,
      "fought": 8867,
      "Parliament": 8868,
      "Eastern": 8869,
      "Mid": 8870,
      "elite": 8871,
      "visited": 8872,
      "Rick": 8873,
      "assistant": 8874,
      "tap": 8875,
      "##inder": 8876,
      "visible": 8877,
      "Mir": 8878,
      "##alo": 8879,
      "Ash": 8880,
      "Season": 8881,
      "88": 8882,
      "reaching": 8883,
      "PD": 8884,
      "##win": 8885,
      "recording": 8886,
      "machines": 8887,
      "Following": 8888,
      "disaster": 8889,
      "##era": 8890,
      "affili": 8891,
      "Build": 8892,
      "Iowa": 8893,
      "hadn": 8894,
      "Foot": 8895,
      "loud": 8896,
      "depending": 8897,
      "tracks": 8898,
      "Hon": 8899,
      "clubs": 8900,
      "equivalent": 8901,
      "Capt": 8902,
      "##intend": 8903,
      "assistance": 8904,
      "academic": 8905,
      "seats": 8906,
      "Premier": 8907,
      "medium": 8908,
      "##inity": 8909,
      "partnership": 8910,
      "##sters": 8911,
      "funny": 8912,
      "uncertain": 8913,
      "aimed": 8914,
      "ads": 8915,
      "##24": 8916,
      "explanation": 8917,
      "##aa": 8918,
      "implementation": 8919,
      "pace": 8920,
      "##agram": 8921,
      "Services": 8922,
      "adopted": 8923,
      "ju": 8924,
      "cyber": 8925,
      "##mont": 8926,
      "minority": 8927,
      "Ol": 8928,
      "discrimination": 8929,
      "##etary": 8930,
      "Kat": 8931,
      "##uts": 8932,
      "bes": 8933,
      "Music": 8934,
      "penalty": 8935,
      "Minnesota": 8936,
      "##gets": 8937,
      "clients": 8938,
      "gonna": 8939,
      "strict": 8940,
      "Henry": 8941,
      "compete": 8942,
      "Development": 8943,
      "##list": 8944,
      "baseball": 8945,
      "mel": 8946,
      "##mail": 8947,
      "##abis": 8948,
      "##idency": 8949,
      "##bles": 8950,
      "saved": 8951,
      "##VER": 8952,
      "##ultural": 8953,
      "processes": 8954,
      "Policy": 8955,
      "Jam": 8956,
      "genuine": 8957,
      "VR": 8958,
      "lawmakers": 8959,
      "prominent": 8960,
      "##ocation": 8961,
      "portion": 8962,
      "emerged": 8963,
      "rating": 8964,
      "formal": 8965,
      "##orne": 8966,
      "1997": 8967,
      "Avenue": 8968,
      "Lu": 8969,
      "##cow": 8970,
      "##TV": 8971,
      "entit": 8972,
      "historic": 8973,
      "##gas": 8974,
      "##urb": 8975,
      "apparent": 8976,
      "Kingdom": 8977,
      "##pro": 8978,
      "##mann": 8979,
      "simpl": 8980,
      "techniques": 8981,
      "##oop": 8982,
      "##look": 8983,
      "relief": 8984,
      "##iel": 8985,
      "toler": 8986,
      "shock": 8987,
      "Zealand": 8988,
      "##itors": 8989,
      "intense": 8990,
      "1996": 8991,
      "hole": 8992,
      "Blake": 8993,
      "##ibilities": 8994,
      "##pread": 8995,
      "shit": 8996,
      "producing": 8997,
      "valuable": 8998,
      "Columbia": 8999,
      "84": 9000,
      "Os": 9001,
      "stab": 9002,
      "counsel": 9003,
      "acceler": 9004,
      "inspect": 9005,
      "##uan": 9006,
      "##usse": 9007,
      "conspir": 9008,
      "warn": 9009,
      "roster": 9010,
      "propag": 9011,
      "Coast": 9012,
      "mo": 9013,
      "afraid": 9014,
      "finance": 9015,
      "patterns": 9016,
      "warming": 9017,
      "reputation": 9018,
      "thick": 9019,
      "recip": 9020,
      "corporations": 9021,
      "##otted": 9022,
      "destruction": 9023,
      "downtown": 9024,
      "##Le": 9025,
      "##rete": 9026,
      "Mayor": 9027,
      "Albert": 9028,
      "laid": 9029,
      "enjoyed": 9030,
      "eur": 9031,
      "##ogen": 9032,
      "stadium": 9033,
      "##sylv": 9034,
      "principles": 9035,
      "##imore": 9036,
      "behalf": 9037,
      "##olit": 9038,
      "##sole": 9039,
      "bom": 9040,
      "##bell": 9041,
      "describes": 9042,
      "producer": 9043,
      "busy": 9044,
      "##amber": 9045,
      "##lights": 9046,
      "enorm": 9047,
      "##itals": 9048,
      "stable": 9049,
      "NAT": 9050,
      "apolog": 9051,
      "survive": 9052,
      "73": 9053,
      "extension": 9054,
      "##sea": 9055,
      "##upid": 9056,
      "Use": 9057,
      "crop": 9058,
      "##aturally": 9059,
      "##idespread": 9060,
      "philosophy": 9061,
      "unusual": 9062,
      "rent": 9063,
      "reduction": 9064,
      "privile": 9065,
      "##aven": 9066,
      "personnel": 9067,
      "Tenn": 9068,
      "explicit": 9069,
      "Saf": 9070,
      "exception": 9071,
      "Howard": 9072,
      "rarely": 9073,
      "wheel": 9074,
      "McG": 9075,
      "cameras": 9076,
      "Pennsylv": 9077,
      "fault": 9078,
      "grade": 9079,
      "700": 9080,
      "##ews": 9081,
      "losses": 9082,
      "Moscow": 9083,
      "Jun": 9084,
      "resulted": 9085,
      "##gorith": 9086,
      "strikes": 9087,
      "Bull": 9088,
      "##orough": 9089,
      "##opp": 9090,
      "synt": 9091,
      "progressive": 9092,
      "Whether": 9093,
      "brut": 9094,
      "Roman": 9095,
      "permission": 9096,
      "87": 9097,
      "arrange": 9098,
      "##lla": 9099,
      "##iana": 9100,
      "##esse": 9101,
      "##igar": 9102,
      "##ilipp": 9103,
      "computers": 9104,
      "cable": 9105,
      "championship": 9106,
      "##ials": 9107,
      "Review": 9108,
      "Ros": 9109,
      "exclusive": 9110,
      "liked": 9111,
      "Harry": 9112,
      "Freed": 9113,
      "##etts": 9114,
      "uniform": 9115,
      "participate": 9116,
      "Ext": 9117,
      "Pack": 9118,
      "shortly": 9119,
      "Latin": 9120,
      "chart": 9121,
      "scoring": 9122,
      "##olis": 9123,
      "interface": 9124,
      "CO": 9125,
      "establishment": 9126,
      "Rand": 9127,
      "beliefs": 9128,
      "veteran": 9129,
      "trig": 9130,
      "phones": 9131,
      "vulnerable": 9132,
      "Walker": 9133,
      "component": 9134,
      "racist": 9135,
      "entr": 9136,
      "Cur": 9137,
      "tag": 9138,
      "Conservative": 9139,
      "recognition": 9140,
      "collapse": 9141,
      "UC": 9142,
      "Dev": 9143,
      "##oen": 9144,
      "##bal": 9145,
      "creates": 9146,
      "##allel": 9147,
      "DE": 9148,
      "##ifies": 9149,
      "electronic": 9150,
      "contained": 9151,
      "##ferences": 9152,
      "Independ": 9153,
      "hired": 9154,
      "##ules": 9155,
      "span": 9156,
      "expectations": 9157,
      "Navy": 9158,
      "bath": 9159,
      "tip": 9160,
      "advis": 9161,
      "Medical": 9162,
      "deliber": 9163,
      "Several": 9164,
      "Set": 9165,
      "##asion": 9166,
      "ships": 9167,
      "wonderful": 9168,
      "SS": 9169,
      "bail": 9170,
      "##iler": 9171,
      "fiction": 9172,
      "##ye": 9173,
      "engineering": 9174,
      "borrow": 9175,
      "transm": 9176,
      "principle": 9177,
      "Professor": 9178,
      "Diego": 9179,
      "ABC": 9180,
      "Adv": 9181,
      "entering": 9182,
      "Community": 9183,
      "fee": 9184,
      "processing": 9185,
      "ESPN": 9186,
      "Pennsylvania": 9187,
      "##ares": 9188,
      "spark": 9189,
      "##rypt": 9190,
      "dinner": 9191,
      "##If": 9192,
      "Battle": 9193,
      "everywhere": 9194,
      "cerem": 9195,
      "passes": 9196,
      "Gov": 9197,
      "neighb": 9198,
      "priority": 9199,
      "cos": 9200,
      "##aun": 9201,
      "Ur": 9202,
      "incent": 9203,
      "warrant": 9204,
      "feelings": 9205,
      "Prince": 9206,
      "##rative": 9207,
      "##icial": 9208,
      "Baltimore": 9209,
      "hang": 9210,
      "##athy": 9211,
      "lights": 9212,
      "ON": 9213,
      "containing": 9214,
      "contracts": 9215,
      "98": 9216,
      "drawing": 9217,
      "stations": 9218,
      "obst": 9219,
      "Dig": 9220,
      "roles": 9221,
      "widespread": 9222,
      "Matthew": 9223,
      "manufacturing": 9224,
      "Ball": 9225,
      "##ni": 9226,
      "spell": 9227,
      "##prise": 9228,
      "profession": 9229,
      "82": 9230,
      "##iration": 9231,
      "20th": 9232,
      "Royal": 9233,
      "nominee": 9234,
      "##ione": 9235,
      "uncom": 9236,
      "Administration": 9237,
      "Death": 9238,
      "##senal": 9239,
      "lean": 9240,
      "grass": 9241,
      "physic": 9242,
      "Having": 9243,
      "exposure": 9244,
      "##igen": 9245,
      "doors": 9246,
      "##enz": 9247,
      "Hit": 9248,
      "programming": 9249,
      "convicted": 9250,
      "scores": 9251,
      "Bernie": 9252,
      "##acking": 9253,
      "pump": 9254,
      "##ureau": 9255,
      "struggling": 9256,
      "Education": 9257,
      "surgery": 9258,
      "##fit": 9259,
      "dozens": 9260,
      "SH": 9261,
      "##top": 9262,
      "##lix": 9263,
      "layer": 9264,
      "##ester": 9265,
      "Ice": 9266,
      "##izon": 9267,
      "##olen": 9268,
      "milk": 9269,
      "ranked": 9270,
      "Ron": 9271,
      "##antic": 9272,
      "usage": 9273,
      "Everyone": 9274,
      "Centre": 9275,
      "recognized": 9276,
      "hitting": 9277,
      "elev": 9278,
      "Hay": 9279,
      "description": 9280,
      "##anna": 9281,
      "normally": 9282,
      "##ja": 9283,
      "indicate": 9284,
      "##etime": 9285,
      "Arm": 9286,
      "Spring": 9287,
      "terrorists": 9288,
      "##hent": 9289,
      "##bar": 9290,
      "Tile": 9291,
      "hur": 9292,
      "##ba": 9293,
      "Point": 9294,
      "SE": 9295,
      "liquid": 9296,
      "mic": 9297,
      "foundation": 9298,
      "##uild": 9299,
      "eastern": 9300,
      "Brother": 9301,
      "Bad": 9302,
      "achieved": 9303,
      "journalist": 9304,
      "Ross": 9305,
      "##ication": 9306,
      "plate": 9307,
      "Patrick": 9308,
      "86": 9309,
      "rely": 9310,
      "prepar": 9311,
      "120": 9312,
      "Turkish": 9313,
      "Circ": 9314,
      "##rical": 9315,
      "util": 9316,
      "Philipp": 9317,
      "scenario": 9318,
      "Radio": 9319,
      "carefully": 9320,
      "Form": 9321,
      "pounds": 9322,
      "CBS": 9323,
      "hide": 9324,
      "campaigns": 9325,
      "banned": 9326,
      "92": 9327,
      "define": 9328,
      "restrictions": 9329,
      "##lah": 9330,
      "##ashes": 9331,
      "begun": 9332,
      "89": 9333,
      "##ologists": 9334,
      "devast": 9335,
      "democratic": 9336,
      "2019": 9337,
      "Aud": 9338,
      "NSA": 9339,
      "algorith": 9340,
      "Alab": 9341,
      "casual": 9342,
      "##olves": 9343,
      "perpet": 9344,
      "movements": 9345,
      "API": 9346,
      "Lyn": 9347,
      "independence": 9348,
      "Lewis": 9349,
      "shirt": 9350,
      "Head": 9351,
      "finger": 9352,
      "legend": 9353,
      "listening": 9354,
      "##scape": 9355,
      "suffer": 9356,
      "exceed": 9357,
      "websites": 9358,
      "Person": 9359,
      "sty": 9360,
      "fiscal": 9361,
      "forever": 9362,
      "tickets": 9363,
      "##endum": 9364,
      "photograph": 9365,
      "##eland": 9366,
      "##resent": 9367,
      "edition": 9368,
      "au": 9369,
      "brown": 9370,
      "##areness": 9371,
      "multip": 9372,
      "genetic": 9373,
      "Using": 9374,
      "upset": 9375,
      "branch": 9376,
      "structures": 9377,
      "##lined": 9378,
      "##ilton": 9379,
      "soil": 9380,
      "rose": 9381,
      "Price": 9382,
      "ocean": 9383,
      "##MP": 9384,
      "alien": 9385,
      "sugar": 9386,
      "mining": 9387,
      "Plus": 9388,
      "Laur": 9389,
      "Greece": 9390,
      "##70": 9391,
      "firms": 9392,
      "##achus": 9393,
      "smooth": 9394,
      "settlement": 9395,
      "rif": 9396,
      "##fast": 9397,
      "##rett": 9398,
      "mathem": 9399,
      "Kansas": 9400,
      "gained": 9401,
      "practical": 9402,
      "##xit": 9403,
      "ethnic": 9404,
      "myst": 9405,
      "flash": 9406,
      "Sem": 9407,
      "Pen": 9408,
      "##mo": 9409,
      "Action": 9410,
      "tab": 9411,
      "##actions": 9412,
      "##life": 9413,
      "##abinet": 9414,
      "Cre": 9415,
      "##ounced": 9416,
      "scream": 9417,
      "Lind": 9418,
      "##viously": 9419,
      "##rest": 9420,
      "##veary": 9421,
      "awareness": 9422,
      "##Alveary": 9423,
      "TileAlveary": 9424,
      "1994": 9425,
      "tackle": 9426,
      "Roy": 9427,
      "flaw": 9428,
      "raw": 9429,
      "Liver": 9430,
      "humanity": 9431,
      "##enny": 9432,
      "resource": 9433,
      "##mes": 9434,
      "rapidly": 9435,
      "94": 9436,
      "external": 9437,
      "reducing": 9438,
      "Austin": 9439,
      "##lan": 9440,
      "versus": 9441,
      "minds": 9442,
      "association": 9443,
      "Master": 9444,
      "##ycle": 9445,
      "bin": 9446,
      "hook": 9447,
      "##LC": 9448,
      "##riers": 9449,
      "chat": 9450,
      "outs": 9451,
      "deeper": 9452,
      "vary": 9453,
      "1995": 9454,
      "##ATE": 9455,
      "bridge": 9456,
      "Hind": 9457,
      "##NC": 9458,
      "shell": 9459,
      "UFC": 9460,
      "Marvel": 9461,
      "technique": 9462,
      "grounds": 9463,
      "Atlanta": 9464,
      "Family": 9465,
      "##vere": 9466,
      "##heast": 9467,
      "trained": 9468,
      "Justin": 9469,
      "challenging": 9470,
      "fed": 9471,
      "83": 9472,
      "Stone": 9473,
      "clock": 9474,
      "Medicine": 9475,
      "##osexual": 9476,
      "PA": 9477,
      "neck": 9478,
      "1990s": 9479,
      "##achusetts": 9480,
      "welf": 9481,
      "constitutional": 9482,
      "episodes": 9483,
      "intellectual": 9484,
      "lists": 9485,
      "Academy": 9486,
      "Queen": 9487,
      "Core": 9488,
      "stupid": 9489,
      "lobby": 9490,
      "1990": 9491,
      "footage": 9492,
      "Pot": 9493,
      "papers": 9494,
      "invent": 9495,
      "advertising": 9496,
      "Field": 9497,
      "##inding": 9498,
      "Allen": 9499,
      "interviews": 9500,
      "ratio": 9501,
      "je": 9502,
      "proven": 9503,
      "##ogether": 9504,
      "farmers": 9505,
      "96": 9506,
      "##person": 9507,
      "asks": 9508,
      "Pop": 9509,
      "Former": 9510,
      "elig": 9511,
      "##aska": 9512,
      "anger": 9513,
      "prepare": 9514,
      "Tri": 9515,
      "##MS": 9516,
      "welfare": 9517,
      "anybody": 9518,
      "appointed": 9519,
      "basketball": 9520,
      "Cit": 9521,
      "Massachusetts": 9522,
      "##ulating": 9523,
      "retired": 9524,
      "suggesting": 9525,
      "Ly": 9526,
      "robot": 9527,
      "poly": 9528,
      "presum": 9529,
      "overwhelming": 9530,
      "##ria": 9531,
      "airport": 9532,
      "indicated": 9533,
      "prol": 9534,
      "deputy": 9535,
      "1992": 9536,
      "Information": 9537,
      "bra": 9538,
      "headqu": 9539,
      "equally": 9540,
      "Alabama": 9541,
      "##umer": 9542,
      "Ark": 9543,
      "transgender": 9544,
      "neighbour": 9545,
      "NOT": 9546,
      "##ami": 9547,
      "handful": 9548,
[...]
