[PAD]
[UNK]
[CLS]
[SEP]
[MASK]
!
"
#
$
%
&
'
(
)
*
+
,
-
.
/
0
1
2
3
4
5
6
7
8
9
:
;
<
=
>
?
@
A
B
C
D
E
F
G
H
I
J
K
L
M
N
O
P
Q
R
S
T
U
V
W
X
Y
Z
[
\
]
^
_
`
a
b
c
d
e
f
g
h
i
j
k
l
m
n
o
p
q
r
s
t
u
v
w
x
y
z
{
|
}
~
¡
¢
£
¤
¥
¦
§
¨
©
«
¬
®
¯
°
±
²
³
´
µ
¶
·
¹
º
»
¼
½
¾
¿
À
Á
Â
Ã
Ä
Å
Æ
Ç
È
É
Î
Ð
Ñ
Ó
Ô
Ö
×
Ø
Ü
Þ
ß
à
á
â
ã
ä
å
æ
ç
è
é
ê
ë
ì
í
î
ï
ð
ñ
ò
ó
ô
õ
ö
ø
ù
ú
û
ü
ý
þ
ā
ă
ą
ć
Č
č
Đ
đ
ē
ė
ę
ě
ğ
ī
İ
ı
Ł
ł
ń
Ō
ō
ŏ
ő
œ
ř
Ś
ś
Ş
ş
Š
š
Ţ
ţ
ū
ů
Ÿ
ż
Ž
ž
ƒ
ǎ
ș
ț
ɐ
ɔ
ə
ɛ
ɪ
ʁ
ʠ
ʻ
ʼ
ʾ
ʿ
ˈ
ː
˚
˜
́
̃
̇
̈
̶
Α
Δ
Ε
Θ
Ι
Κ
Λ
Μ
Ο
Π
Σ
Τ
Φ
Χ
Ω
ά
έ
ή
ί
α
β
γ
δ
ε
η
θ
ι
κ
λ
μ
ν
ξ
ο
π
ρ
ς
σ
τ
υ
φ
χ
ω
ό
ύ
ώ
ϵ
А
Б
В
Г
Д
Е
З
И
К
Л
М
Н
О
П
Р
С
Т
У
Ф
Х
Э
Я
а
б
в
г
д
е
ж
з
и
й
к
л
м
н
о
п
р
с
т
у
ф
х
ц
ч
ш
щ
ъ
ы
ь
э
ю
я
ё
ѕ
і
א
ב
ד
ה
ו
ח
י
ל
ם
מ
נ
ע
פ
ק
ר
ש
ת
،
ء
آ
أ
إ
ئ
ا
ب
ة
ت
ث
ج
ح
خ
د
ذ
ر
ز
س
ش
ص
ض
ط
ظ
ع
غ
ف
ق
ك
ل
م
ن
ه
و
ى
ي
ً
ٍ
َ
ُ
ِ
ّ
ْ
ٰ
ی
ं
क
त
न
म
य
र
ल
व
स
ा
ि
ी
े
ो
्
ก
ข
ค
ง
จ
ช
ด
ต
ท
น
บ
ป
พ
ม
ย
ร
ล
ว
ส
ห
อ
ะ
ั
า
ำ
ิ
ี
ื
ุ
ู
เ
แ
ใ
ไ
็
่
้
์
ა
ი
ḥ
ṃ
ṇ
ṛ
ṣ
ṭ
ả
ễ
ệ
ụ
ứ
ἀ
‐
‑
–
—
―
‘
’
‚
“
”
„
†
•
…
‰
′
″
‹
›
※
⁄
€
₹
™
ℵ
←
↑
→
↓
⇒
⇓
∂
−
∗
√
∞
∫
∷
∼
≈
≤
≥
⋅
─
│
┌
┐
└
┘
├
┬
┴
═
║
▀
▄
█
░
▒
■
□
▪
▬
▲
▶
►
▼
◊
●
★
☆
♠
♥
♦
♪
✓
✮
❤
➫
⠀
、
。
々
「
」
『
』
【
】
あ
い
う
え
お
か
が
き
く
け
げ
こ
さ
し
じ
す
ず
せ
そ
た
だ
ち
っ
つ
て
で
と
ど
な
に
ね
の
は
ば
へ
べ
ま
み
め
も
ゃ
や
ょ
よ
ら
り
る
れ
ろ
わ
を
ん
ァ
ア
ィ
イ
ウ
ェ
エ
ォ
オ
カ
ガ
キ
ク
グ
コ
サ
ザ
シ
ジ
ス
ズ
セ
タ
ダ
チ
ッ
ツ
テ
デ
ト
ド
ナ
ニ
ネ
ノ
ハ
バ
パ
ビ
ピ
フ
ブ
プ
ベ
ボ
ポ
マ
ミ
ム
メ
モ
ャ
ヤ
ュ
ョ
ラ
リ
ル
レ
ロ
ワ
ン
ヴ
・
ー
ㅋ
一
上
下
不
世
中
事
京
人
今
代
以
件
会
体
何
作
使
信
倭
入
全
公
内
出
分
前
力
動
化
北
十
南
原
取
受
合
同
和
問
回
国
國
在
地
場
変
夏
多
大
天
太
女
子
学
定
実
家
射
小
山
島
年
度
当
彼
後
思
性
情
意
感
我
所
手
放
数
文
新
方
日
明
時
景
書
最
月
有
本
来
東
果
業
機
気
水
海
無
物
王
現
理
生
用
画
界
発
的
目
真
私
科
第
結
者
能
自
行
表
要
見
言
記
語
説
調
起
通
道
部
開
間
関
集
電
音
高
가
각
간
같
거
건
걸
것
게
겠
격
결
경
고
공
과
광
구
국
그
근
금
기
길
김
까
나
난
남
내
는
니
다
단
달
당
대
데
도
동
되
된
드
든
들
등
때
라
람
러
런
레
려
력
로
률
르
를
리
마
만
많
면
명
모
못
무
문
미
방
번
병
보
부
분
비
빠
사
살
상
생
서
석
선
성
소
속
수
스
습
시
신
씨
아
안
않
야
어
언
없
었
에
엘
여
연
영
오
와
외
요
용
우
원
위
유
으
은
을
음
의
이
인
일
임
있
자
장
재
저
적
전
정
제
주
중
증
지
진
처
체
최
출
치
크
킴
타
터
트
프
피
하
한
할
해
했
행
호
화
확
회
ﬁ
ﬂ
️
！
（
）
，
０
１
２
３
４
５
６
：
？
＿
～
｡
･
ﾟ
￼
🐻
😀
😂
😉
🙂
##d
##v
##e
##r
##t
##i
##s
##m
##n
##1
##8
##M
##h
##F
##B
##w
##O
##o
##c
##l
##a
##N
##p
##2
##u
##b
##g
##D
##k
##E
##G
##Y
##P
##T
##I
##A
##J
##x
##f
##3
##y
##W
##0
##V
##C
##H
##z
##4
##S
##も
##Ã
##©
##R
##9
##L
##6
##도
##j
##q
##U
##ρ
##γ
##ό
##X
##®
##K
##5
##の
##よ
##う
##な
##人
##場
##が
##多
##数
##あ
##る
##だ
##ろ
##7
##ش
##ر
##ف
##š
##ć
##í
##а
##м
##и
##р
##э
##х
##â
##€
##¦
##ν
##ち
##に
##調
##べ
##で
##明
##é
##►
##ž
##ل
##أ
##ن
##ا
##ك
##ي
##ة
##у
##н
##я
##č
##ü
##ä
##آ
##خ
##京
##國
##大
##Z
##ó
##è
##ّ
##َ
##ُ
##م
##ْ
##ő
##は
##さ
##ら
##マ
##ラ
##ヤ
##ス
##と
##キ
##ャ
##ン
##プ
##間
##с
##т
##о
##ă
##山
##代
##ี
##Q
##ţ
##ā
##ī
##á
##î
##年
##ت
##г
##л
##д
##ы
##в
##▪
##↑
##ē
##к
##ñ
##˚
##ś
##ş
##ö
##е
##і
##い
##中
##科
##合
##π
##ο
##κ
##α
##λ
##ύ
##τ
##ε
##ι
##±
##¼
##ê
##μ
##ー
##ã
##다
##ʿ
##×
##Â
##⁄
##ț
##하
##는
##█
##分
##出
##不
##作
##라
##소
##자
##体
##力
##え
##こ
##り
##ま
##す
##데
##ь
##Н
##ṭ
##ū
##η
##Ä
##사
##로
##０
##１
##３
##月
##ç
##™
##ع
##ب
##à
##ج
##ز
##ء
##ล
##ะ
##ก
##า
##ร
##ป
##ิ
##ด
##ั
##้
##น
##ข
##อ
##ม
##ู
##เ
##ท
##่
##²
##æ
##수
##전
##광
##석
##이
##에
##ː
##ł
##ง
##ว
##ค
##ช
##บ
##แ
##ใ
##ุ
##พ
##ô
##ш
##ю
##щ
##만
##メ
##ガ
##コ
##ロ
##ニ
##を
##使
##っ
##て
##°
##β
##й
##د
##و
##ِ
##س
##스
##트
##ق
##ß
##오
##서
##¢
##ж
##정
##니
##까
##ح
##ה
##ב
##ל
##ד
##י
##ם
##υ
##ί
##ω
##タ
##イ
##ズ
##ア
##リ
##シ
##ョ
##開
##発
##者
##し
##か
##た
##自
##わ
##해
##ص
##ř
##ú
##부
##ø
##´
##方
##️
##ッ
##ド
##의
##ğ
##ı
##ه
##ō
##ต
##ำ
##з
##Š
##п
##중
##공
##격
##彼
##書
##비
##מ
##א
##נ
##ו
##ע
##グ
##ル
##θ
##ς
##É
##▄
##▒
##░
##한
##ん
##å
##İ
##Ф
##見
##く
##غ
##ě
##ï
##을
##δ
##χ
##έ
##ș
##ѕ
##ч
##õ
##ę
##아
##진
##Ω
##思
##ど
##集
##れ
##터
##가
##→
##□
##国
##北
##û
##क
##ð
##件
##生
##所
##き
##物
##語
##б
##現
##実
##行
##以
##来
##２
##리
##면
##Σ
##Τ
##Ε
##Д
##Æ
##̶
##機
##ʼ
##ṣ
##ḥ
##러
##ئ
##ベ
##モ
##ə
##σ
##จ
##ส
##ื
##ห
##世
##界
##ボ
##ト
##画
##ی
##め
##や
##一
##Δ
##Ι
##射
##能
##公
##ジ
##ェ
##ク
##ा
##स
##情
##通
##会
##시
##지
##미
##Þ
##ё
##ظ
##ф
##구
##⇓
##地
##子
##４
##上
##어
##들
##은
##회
##적
##으
##有
##全
##要
##ず
##何
##十
##的
##ώ
##원
##■
##√
##化
##当
##起
##ً
##ى
##ů
##前
##在
##つ
##−
##¨
##˜
##天
##ذ
##ム
##ë
##ý
##♠
##행
##³
##¹
##А
##Р
##К
##Т
##Е
##И
##С
##분
##本
##太
##カ
##★
##ą
##ṇ
##日
##ビ
##ネ
##目
##화
##ュ
##気
##े
##ά
##남
##ק
##手
##람
##ṛ
##へ
##♪
##ξ
##거
##를
##상
##ゃ
##お
##ダ
##달
##▼
##치
##ц
##ょ
##そ
##時
##ね
##타
##일
##ย
##ụ
##ė
##드
##프
##ǎ
##小
##Ö
##け
##đ
##原
##関
##็
##기
##£
##┬
##º
##家
##무
##定
##ả
##외
##信
##受
##高
##テ
##チ
##事
##력
##과
##ض
##島
##せ
##없
##文
##안
##デ
##ィ
##ث
##빠
##고
##ż
##œ
##♥
##ไ
##์
##속
##後
##פ
##ר
##学
##最
##ㅋ
##水
##̈
##５
##¾
##¬
##ʻ
##단
##ी
##エ
##ば
##ò
##Ñ
##～
##길
##같
##습
##생
##각
##르
##フ
##ブ
##ザ
##私
##動
##못
##되
##じ
##ヴ
##ァ
##ウ
##저
##대
##동
##와
##Ō
##セ
##게
##記
##Χ
##ת
##ח
##ɐ
##Å
##ि
##न
##र
##ल
##용
##⋅
##있
##問
##된
##ù
##건
##サ
##女
##入
##ˈ
##下
##ミ
##表
##장
##げ
##П
##部
##명
##ʾ
##문
##ピ
##었
##음
##Μ
##Α
##했
##µ
##々
##þ
##バ
##ứ
##ễ
##放
##性
##同
##레
##보
##真
##回
##感
##南
##ﬁ
##체
##피
##확
##률
##パ
##内
##ɛ
##東
##海
##ń
##살
##ή
##ʁ
##̃
##½
##Á
##¯
##́
##言
##み
##業
##音
##レ
##意
##≈
##景
##금
##्
##म
##説
##¤
##병
##إ
##用
##ש
##ポ
##ط
##간
##─
##┘
##∫
##ナ
##取
##씨
##ो
##인
##¥
##◊
##♦
##ệ
##호
##국
##果
##ъ
##ṃ
##オ
##ﾟ
##度
##걸
##ワ
##夏
##ɔ
##無
##킴
##나
##今
##겠
##Ô
##ٰ
##영
##ი
##≥
##요
##Г
##우
##신
##ì
##려
##크
##제
##ツ
##Ø
##선
##￼
##第
##電
##▶
##ォ
##야
##ノ
##य
##Ç
##６
##Э
##変
##☆
##φ
##연
##할
##런
##Î
##마
##結
##출
##ٍ
##ა
##임
##М
##理
##和
##Ÿ
##新
##Б
##주
##∞
##व
##त
##🙂
##유
##성
##ハ
##많
##З
##倭
##ɪ
##ﬂ
##▀
##Я
##├
##당
##Π
##̇
##재
##⇒
##我
##위
##═
##王
##ं
##내
##⠀
##Ο
##모
##У
##Ş
##道
##Ð
##여
##≤
##Л
##Ü
##증
##║
##Φ
##❤
##В
##О
##그
##최
##▬
##│
##결
##든
##Ţ
##└
##ŏ
##Č
##것
##∼
##Κ
##Θ
##방
##✓
##●
##번
##À
##È
##처
##ℵ
##←
##∷
##✮
##┴
##┐
##난
##ƒ
##근
##때
##등
##▲
##😂
##∂
##Ž
##경
##Ó
##Λ
##∗
##김
##ϵ
##↓
##😀
##Х
##┌
##he
##er
the
##in
##on
##at
##es
##or
##en
##ed
##nd
##ing
##ar
##an
##ou
to
##it
##al
of
in
##is
##re
and
##as
##ic
th
##om
##ion
##le
##ent
##ll
##ly
be
##st
##ot
re
##ve
##id
##ut
##ac
##ow
on
that
##et
##ay
is
for
##ur
##am
##ad
##ig
##ro
##se
##ct
##ld
st
##ver
it
##im
##ir
##ter
The
wh
##ation
##ith
##ce
##ol
with
as
##il
an
##ch
##ill
##ers
he
was
you
con
ha
de
##est
##ess
##her
##ate
at
se
com
##ag
##op
##ke
we
##ul
##ri
##ment
are
##pp
##us
##ist
##ain
pro
fr
##igh
ne
##od
##ort
ex
or
##ore
##um
not
##un
##ab
##em
have
##ity
##ould
by
##os
##ant
##and
##art
al
from
##oc
##if
su
##ive
##el
sh
##ear
this
##out
##ight
##ust
ch
##ies
sa
ab
pr
##ect
##ap
##ack
##th
pl
##all
##ie
##ally
has
go
tr
##ome
20
##ard
his
##iv
##ost
##gh
##our
##ere
sp
##ast
##ak
do
##ud
le
they
but
wor
##end
##nt
can
will
whe
said
##ge
##rou
all
##ich
##ok
Th
who
out
##ame
##ial
##ans
their
up
In
##ff
##ong
##ep
##ther
more
##ice
li
##ue
##ions
##ous
##age
ad
##ure
##one
##act
me
##ine
en
about
int
comp
one
us
##ber
so
St
##ated
res
##mp
##ime
year
cl
##og
had
It
which
were
##ip
##cc
##ia
##ide
##ra
would
##ub
cont
##ence
ag
##ake
un
off
te
exp
##iz
##ind
##pt
been
##ec
like
##ary
##au
inc
##so
##qu
ev
##ace
man
##ook
##own
##ew
##ign
##ose
pe
##ays
per
ar
##ry
201
##ite
##able
other
##mer
##00
some
##ass
##ord
##ile
##ire
##ople
dis
there
over
new
Ch
##ations
##ult
##ks
##ical
rep
bec
than
##lic
also
sc
app
them
##ough
part
##ance
her
what
##ib
when
##ount
your
##ail
time
##av
##are
##ree
##ru
people
He
##int
##fter
We
##ond
just
##orm
kn
qu
##ase
any
its
##ens
19
get
##ach
if
tw
rec
my
fir
##ob
##reat
work
into
##ound
##ian
##ction
##vel
imp
no
inter
##ings
##ory
co
##ress
our
##ick
##ition
##amp
##du
##fer
##ors
##ang
pre
play
pol
she
##ause
##per
##ink
##ents
##hing
##ade
##ates
##ark
##aw
##itt
cr
after
first
ever
could
how
po
##ious
acc
Wh
him
But
only
bl
This
att
##ild
##nder
fe
##hed
comm
##ict
two
##ons
ser
##ov
act
##enc
back
##ish
##ove
##ery
dec
##ft
bet
fo
##form
And
##ning
gr
most
##ne
##oy
des
did
##li
##ater
under
again
##rough
am
cons
##round
ind
##ock
##wn
##ual
want
now
because
Un
see
even
##ise
##ull
##sel
br
##lud
As
years
##ublic
##we
##anc
inv
need
sec
know
##iss
##vers
add
##ident
##day
##ments
##les
every
##man
Tr
wr
##urn
supp
make
##fore
##other
##uch
these
bu
where
call
right
look
##vern
##ational
##ject
##ell
way
don
being
##xt
##oss
includ
def
##ck
##res
##ating
may
##ower
then
rem
many
dif
reg
pres
##ily
ve
##lect
##ason
think
##ump
sy
##ased
fl
rel
say
##ood
##meric
##iew
very
200
through
##aking
##ert
##ath
Americ
should
##ited
##rib
10
ph
end
last
state
those
You
much
##uring
##ities
own
##ty
down
Re
New
show
##ics
mon
##oth
##ont
ro
well
ass
count
##ative
Fr
long
str
bel
does
##ved
##und
##als
##arg
govern
##arly
##hen
use
##gr
##ven
before
An
id
##ters
##let
##omet
If
##ward
##ange
start
report
##ific
##ince
made
##oun
fin
##ible
##ting
im
such
gen
##ues
sm
##olog
##ife
team
##ied
game
##ced
Br
world
going
##ble
##ee
ac
##ually
min
##ism
set
ter
good
##lp
##ss
sub
##erson
eff
They
stud
##ists
##llow
sur
##ful
point
gu
##old
##its
wee
##ility
against
Al
For
##urr
produ
##ars
##stem
lead
##ax
##ix
help
ke
still
##ys
##gan
while
col
##ently
##imes
##roup
##ving
##alk
##ank
##tern
ob
law
inst
##ote
##ork
##ween
though
sim
There
differ
##air
##illion
says
op
Ar
##ever
Sh
disc
resp
##ope
take
high
offic
##ms
##self
government
That
Sp
same
ins
num
between
##land
prov
##ah
##ution
##ures
##up
sign
##ather
##ner
##eral
Com
##cess
somet
run
De
ret
##pl
##uss
##io
found
real
trans
##atch
mem
##ets
Is
##gg
##read
med
##ool
around
##way
three
##ames
day
hand
car
spec
##led
##hes
##velop
system
##hip
cour
mod
##any
used
here
##ves
##az
##yp
##ives
##der
##cept
##ouse
really
##ng
group
Le
public
support
##ave
ext
000
##ale
Trump
cap
great
##cent
So
fam
##ern
fact
##ying
Cl
month
happ
read
aut
sl
det
both
##irect
em
##ense
##con
conf
find
##ience
cent
wom
cre
##alth
person
##ts
##dit
##ines
##ices
##ular
during
iss
##ins
old
war
develop
On
big
told
dep
##ivers
##ision
polit
week
bo
follow
leg
##oh
##ically
Mar
How
##akes
##ton
##ene
since
##ages
##ient
few
##aj
power
##ording
##iet
##ider
che
12
cor
requ
too
belie
Ad
lot
fil
##orth
contin
##ces
At
cle
##att
##min
##chool
##med
prot
soc
loc
life
put
something
##pr
##ash
art
opp
##bers
##ially
Rep
plan
far
head
##ott
##ention
##ata
##ized
invest
commun
another
met
par
inf
rele
things
##get
##ret
pass
char
US
poss
##ency
Bl
##ute
open
15
ask
dem
11
never
##red
ll
camp
expl
second
##thing
bus
might
##ize
##ody
mark
Sc
quest
different
##ross
##iness
##sp
best
each
next
come
##ants
adv
She
18
child
allow
home
including
contro
##ier
feel
called
direct
post
##ittle
What
##ital
percent
seem
##view
pri
ent
conc
##ield
dist
exper
##ric
##ness
When
##orn
incre
hum
##ug
##ling
##rop
result
##ected
Ph
let
##gy
build
##gram
import
##eng
curr
place
gl
hard
inform
without
av
number
stand
##osed
##conom
top
care
Ind
season
proble
##erv
million
el
##less
##ately
##chn
four
##ama
ide
country
pop
##rat
mov
emp
##aim
interest
##riend
dr
red
##oney
American
less
##son
tri
fun
turn
##ral
case
##ably
##ished
partic
##ration
level
better
got
Te
##ways
little
val
left
beh
Pro
ref
##ained
win
ann
##over
mil
##ract
dri
##iting
full
main
##ised
keep
##line
attack
rest
police
##ode
##ned
move
didn
##inal
##ains
prev
##ina
Ob
effect
serv
test
##ren
class
##ajor
##ature
school
##atur
pay
form
econom
Be
##ple
program
prof
data
pos
based
free
Chr
##ared
##hor
using
bre
typ
##ined
process
appear
30
##arge
small
##ology
All
##atter
##ik
##leg
giv
Go
list
Can
change
##rem
prom
##uck
##ready
sol
##ided
eas
spe
##reen
##rap
unt
##app
company
##ister
United
order
Pr
No
women
talk
hist
already
##iversity
rece
##ten
president
##ird
##ruct
##ph
official
techn
design
##ians
money
later
chang
organ
sk
##br
##here
story
why
##urs
business
##ired
always
project
major
##used
vis
appro
ele
book
est
health
thing
##aining
sever
claim
##sc
edit
##ases
13
information
##aign
oper
var
job
##ohn
199
able
One
##outh
grow
friend
cost
16
kill
must
To
past
const
away
making
consider
elect
mar
##ards
important
happen
Pres
Mr
Con
pat
##ior
city
##aff
##ption
##ron
tax
Pl
##uc
14
Or
Se
aff
kind
##ead
##ample
##stand
##ury
##orts
##ission
##ending
##ror
air
doesn
least
large
tell
John
men
##ertain
polic
days
gener
campaign
line
name
##row
Comm
Eur
May
view
family
##acy
record
##ides
came
Republic
##urity
enough
##ered
##co
##ney
until
Tw
sit
prop
news
##ccess
working
##ences
vide
##els
ear
fund
political
##ality
##ush
##ator
complet
human
25
Me
##augh
mean
intern
##ries
##alf
17
##ike
##The
deal
actually
Russ
word
##ley
resear
Sy
bit
##ived
Dem
##ued
become
##ember
##ising
##ional
took
##oad
Mc
##ots
With
##be
former
##ering
##aps
often
##ox
##ept
dev
##aring
times
won
##side
##iol
##bs
hour
return
##ane
deb
##ream
give
##ison
##ified
President
##ocrat
according
night
social
fac
games
vot
media
la
bas
market
##ither
sw
Am
charac
perform
sing
##gin
known
##ization
five
##lf
doing
##ann
press
occ
Col
stop
Obama
##aken
having
ant
Co
lear
##ony
bro
Europe
side
equ
water
event
seen
##uture
desc
##idence
today
several
##tt
##idd
crit
##icle
##loy
After
control
##enn
early
##ware
sex
##ories
author
York
##mber
likely
question
##ured
meet
members
##iously
##oot
whether
vers
##vert
sure
eng
Ex
went
arg
##raft
young
milit
players
##ows
certain
##une
land
example
##artment
Car
##ium
along
invol
States
##ential
product
##ched
100
children
once
##que
pot
local
success
done
##ubl
non
fight
short
within
priv
##most
##work
University
pur
months
possible
course
activ
##ended
##ulation
cover
##ger
means
##ER
However
understand
2016
investig
among
##inc
##gress
viol
##oint
##pect
fail
thought
##ats
hold
strong
light
problem
##ivid
orig
##itter
net
avail
##te
reason
exc
Don
future
##by
cho
asked
##ourn
##ortun
Pol
State
##ague
##rew
community
##ederal
yet
Christ
##por
##empt
##iver
##lex
##iety
##oci
##ggest
video
lim
across
##imate
given
sour
##uff
##ones
prob
cut
My
mus
suggest
##ler
50
##iving
##itive
arr
national
ident
ca
makes
##ball
party
House
others
Ne
Fl
reported
##aster
##ances
announ
##fic
believe
getting
##par
death
2015
While
Min
##ensive
indust
##aged
sent
##ald
employ
creat
Sen
Cent
Democrat
ra
##ober
##urther
clear
issue
##ands
series
started
##book
half
available
hig
looking
##ament
America
love
close
account
Man
mom
almost
Wor
##ored
court
foc
Canad
##selves
21
Ger
##ashing
2014
trad
trying
access
history
##duc
##com
Not
##ely
##hers
24
foot
following
comes
pract
ago
Sec
recent
low
toget
##ination
film
saf
rul
together
face
##uly
##itional
Do
##utes
##ape
experience
fre
Su
##ument
mind
Just
##reet
added
##ief
##ividual
idea
##ustom
##ails
repres
bad
isn
food
##ability
impro
near
Now
##pped
bene
##ilar
Cal
These
##rael
##unch
##iter
tot
miss
area
ris
anything
proper
anal
six
live
##ged
##rict
black
Har
protect
present
taken
Israel
Eng
Im
##ference
War
##though
Brit
App
##AT
22
phot
Gr
saying
North
His
##osp
198
enc
publ
##raw
mor
compet
behind
Fe
conn
security
threat
bill
##ids
individual
mult
entire
mess
##minist
##ograp
vict
Some
##wards
##inton
key
##ai
rather
##ring
military
##ted
Bar
##ming
Ab
current
##ators
##nes
concern
fav
third
policy
Dep
##vir
##uge
try
##use
fall
##irc
quick
##for
cult
special
single
wanted
coun
sum
Gu
stat
ener
##aid
someone
##isc
discuss
player
##af
exist
National
Af
study
Dav
comb
City
Res
##rug
##sw
bring
2013
mass
Part
colle
Inst
##ales
##lement
##arch
cou
Med
jo
pret
##aper
nothing
body
ey
Ge
##hy
Aust
Clinton
compan
taking
##viron
probably
coming
self
attempt
World
Ass
##back
house
##eter
ap
##ef
##ply
front
enter
else
Jan
rights
##olution
describ
##ender
By
imm
watch
##eal
##lier
##ster
step
fig
doc
sus
wa
create
##ashington
##0s
either
however
esp
stri
##ify
2017
##yn
##ully
room
##iam
similar
targ
decision
##my
##ttp
Washington
Pe
tra
##ault
South
super
federal
##ran
##asing
energy
##aces
##elt
conv
service
signific
##irl
sound
research
issues
everything
wrote
cann
further
points
##amed
German
begin
opt
whole
2012
field
China
lab
23
##ites
dam
##ON
fire
exec
due
##IN
##ively
infl
break
final
##tain
white
matter
space
officials
pick
action
Par
##ivil
##oll
seems
ban
released
chall
40
gun
amount
##iday
companies
##very
##sy
custom
##atic
##ana
specific
dou
states
##arth
development
##itted
hit
##ecially
Acc
neg
##uation
expect
larg
hope
##ried
dom
meas
cand
statement
##vironment
En
leaders
role
began
treat
ground
general
##attle
rad
students
##ches
position
##ung
character
##ilt
bar
hours
##ades
himself
##pite
##obal
continue
itself
init
Intern
relations
value
became
##oon
##arm
wasn
building
dest
true
common
##ibility
term
address
evidence
##itch
Will
tem
provide
office
outside
agree
##lus
above
##yc
represent
##oud
themselves
countries
simply
##iod
version
needed
benef
Dr
profess
interview
##ficult
cop
##port
running
election
aver
##IS
##aul
groups
##lim
deep
##ural
##ili
significant
difficult
block
include
mag
##ends
West
especially
##ached
##amer
##cer
Ste
deli
##BC
##AR
##lish
Mus
Sm
##yle
charg
answ
financ
led
##ogn
Per
release
Ke
anim
saw
197
woman
pretty
everyone
needs
administ
late
##aced
##arter
below
drug
http
music
redu
##iddle
ball
suff
phys
inj
Face
##rodu
respons
abs
legal
billion
##atures
pain
played
News
track
jud
Oct
##ournal
instead
ple
playing
relig
industry
site
sense
lost
##fully
shows
tit
check
friends
Mich
##ests
##oid
hom
quite
##ask
Ed
host
White
God
##AN
deter
##lling
##umb
Cong
economic
consum
Gen
ep
type
##ribut
lo
changes
##ogle
forward
##OR
circ
Twitter
object
##lam
function
recently
pie
candid
div
##now
alleg
moment
educ
##ival
##angu
mot
Aug
##mb
held
Sept
vote
##osing
accept
period
goal
##head
##hood
cred
##ift
weeks
ce
##oring
decl
##istic
March
total
opportun
age
Facebook
##irst
soon
27
works
rev
words
Republican
Cr
Here
June
online
share
##oe
anti
walk
26
##medi
wrong
2011
Syri
code
webs
higher
##ES
##ights
##oke
##ager
##ench
##epend
##ients
longer
Red
laws
##itting
risk
review
connect
##onse
express
Act
According
shoot
stay
pred
pack
den
##den
article
##lt
##gn
focus
##irt
potential
Apr
Department
##uary
##ners
##ularly
##ees
environment
28
rate
terror
comput
##play
fore
##AS
Sw
##aut
vol
results
stru
##iding
##asons
2010
contract
personal
July
##alt
technology
Her
##hod
##ique
Off
dead
repl
Google
wind
anyone
refer
upd
sold
services
Cont
target
applic
shot
Hill
comment
Congress
Cour
##ule
##ested
popular
et
Americans
aud
00
private
##ript
Phot
##sec
problems
created
More
minutes
received
##itution
##ett
Even
prim
capt
cell
extrem
surpr
##where
##ateg
##ole
heart
##omm
##aging
##aterial
##hem
Ag
ways
cit
##haps
necess
earlier
##yr
coll
expected
scient
base
port
Austral
announced
reve
##isl
##reg
round
##urch
##anger
April
##ength
Friday
Des
increase
force
questions
page
##cil
Qu
impact
##bo
##eed
civil
international
cannot
##apan
exact
original
ur
Calif
Russia
##hern
##ude
average
easy
##ham
Pal
soft
execut
price
##ilities
##off
##ij
##uel
##fect
estab
Mond
cases
involved
staff
cal
Cor
content
nearly
source
Gl
speak
langu
29
global
hop
favor
sen
heav
mat
log
leave
##atives
David
living
##lear
Japan
##go
El
users
##ex
##iple
aw
##put
##itten
worth
##ises
196
Geor
##uth
killed
model
response
subject
weap
fem
##aur
collect
inside
##ittee
road
##key
##atural
ed
capital
reports
Count
director
##sh
nation
broad
##aving
obs
wide
workers
January
##okes
##itions
TV
becom
European
##duct
fans
published
immedi
Wed
adm
##load
defin
worked
Tues
girl
respond
##hel
club
cond
##ological
text
35
size
mid
associ
member
Monday
gave
##joy
##of
terms
relationship
fear
financial
decided
##bor
##ael
via
Tuesday
lat
##ellig
##idents
buy
happened
phone
turned
##ze
emer
pict
takes
##izing
chance
email
foreign
er
##unt
##omb
##ging
influ
Islam
lack
confir
September
whose
##icro
norm
##ino
material
##ctor
respect
ability
##rought
##ky
recogn
Nove
mother
Feb
require
##onst
Sund
bank
lower
secret
Court
British
##ought
San
##lin
Of
Sch
currently
regard
##ips
Paul
Bec
##ese
First
##20
areas
##iff
November
ill
dig
##osition
##action
plans
match
situation
IS
couple
##uit
##apt
oil
arri
simple
Californ
##ruction
Then
indic
##xic
Thurs
administration
lives
star
bur
Wednes
meeting
##reed
built
felt
huge
##ctions
bi
##ops
goes
Post
mis
##EN
approach
tal
pull
Wednesday
tou
Black
August
boy
vo
Star
Thursday
##aud
thous
ste
discover
town
network
##oved
31
method
poll
hon
link
fair
events
##ructure
father
quickly
performance
trade
offer
particip
teams
##vertise
Canada
UK
heard
##hic
##ental
neigh
California
hot
pers
Get
##rain
engine
##ills
hands
race
October
##ety
loss
Ang
Afric
60
production
tool
Well
Mark
travel
economy
##ires
tele
##val
unc
knew
squ
##ams
website
cause
legisl
improve
##iction
board
##aily
separ
##cember
spent
speed
enjoy
##ani
Our
di
doll
victim
rac
##atory
growth
Every
reveal
population
##ession
Sunday
2009
demand
December
tried
Russian
numbers
##chie
reach
career
visit
##body
eight
##estern
included
corre
progress
liber
##force
##king
song
independ
allowed
##iber
##wh
behav
##ores
wants
Let
##ceed
gets
##ume
##orters
aren
Pat
sett
sn
Why
perfect
##ED
contact
Fin
##erc
Times
Iran
##uses
movement
##light
search
poor
Ser
ess
Kore
bud
ens
Park
##na
##In
##oor
##ishing
From
##gest
looks
King
image
related
##ened
forces
sens
morning
previous
citiz
particular
mention
leader
brought
box
2008
attention
Cons
rules
##aker
##yond
tre
##ibly
Sand
##omp
screen
##undred
range
##arily
##bit
various
Mor
medical
Ira
##ipp
##chers
Party
quality
latest
hor
reb
Je
##agement
##ps
slow
##anks
##sequ
fast
Center
considered
##oph
500
except
##inks
talking
##face
coach
introdu
##raz
features
##ww
Soc
Iraq
written
Street
sort
hear
mach
learn
language
Donald
Satur
serious
upon
critic
##come
Char
son
wond
training
##ented
bott
##uments
##het
card
##order
##asc
strugg
cur
user
susp
##rit
prep
Up
Muslim
##ening
Senate
conduct
##ondon
##oo
##enced
India
systems
##ha
##ledge
##hold
seven
investigation
crim
increasing
document
##lled
Police
conserv
##St
natural
##ma
Bro
immig
Tex
paper
##hest
achie
addition
##vil
particularly
parents
completely
Saturday
##imately
##elligence
##cast
defense
draw
regul
Most
surve
lay
income
Sim
McC
majority
Net
inn
##ges
Comp
Jer
levels
society
##ification
remember
effort
##vent
extra
install
London
32
Jew
##aries
message
looked
resour
##like
required
although
County
Other
Oh
style
##ruary
doub
quarter
plat
officers
science
##sych
45
Coun
##imum
Rom
obv
claims
##OS
Lab
communic
growing
prison
paid
Michael
##encies
leading
exactly
##oles
##ining
movie
carry
jobs
blood
hundred
despite
middle
experi
##ysis
February
prior
described
East
spokes
##istan
##IC
##rupt
Republicans
interesting
fill
attacks
journal
sometimes
modern
Int
##ground
named
##field
##bed
century
##uf
People
Bill
##lied
biggest
sexual
opportunity
table
##AL
##hib
##oses
Over
Tur
##emy
pan
imag
##coin
##eech
products
mur
answer
dro
complete
##unk
path
convers
gas
##ux
##esh
details
fix
surv
stories
##aught
stuff
purp
compl
finally
##AC
chief
rob
climate
il
##ban
www
cross
##rast
##cial
counter
practice
ones
expert
##lying
##ari
violence
Read
League
thinking
Since
##cing
und
danger
##inese
giving
writing
ready
##entially
##ny
Many
dog
ult
deg
##isions
##ospital
##uk
item
##idge
remain
deliver
disp
##vertisement
usually
TH
##IT
Democratic
kids
##uing
summer
certainly
##erve
camer
##ped
changed
James
standard
rout
implement
assist
costs
Play
histor
hous
##eth
perhaps
store
increased
unf
##iers
guy
Chinese
continued
education
purch
##aves
mill
starting
file
Che
##ida
William
Rich
showed
damage
##owd
corpor
##ously
provided
Bo
select
choice
Rec
##utions
designed
##uclear
region
99
remains
pen
reality
reading
##room
date
calls
died
directly
##fort
##to
figure
Super
comments
Mon
mob
blog
sle
ten
beyond
challeng
wouldn
##arr
demonst
Tor
culture
wife
##ension
##akers
write
concept
Mart
Apple
##oul
cele
##iant
Because
multiple
##icks
##urt
perm
parts
center
36
speech
repe
EU
##iation
##anced
avoid
Texas
safe
##enge
##FL
couldn
complex
Last
Indian
##ara
Jack
##inated
Rober
##egr
safety
disapp
epis
##zz
platform
additional
meaning
clean
Minister
property
piece
football
efforts
scene
##astic
Bel
##atever
stage
option
alone
##OP
towards
##ables
Green
software
ver
subst
cast
consist
Associ
sell
title
voters
##vision
includes
pressure
nom
II
recomm
throughout
guys
##aughter
launch
Photo
command
gone
immediately
AP
relative
appar
letter
computer
clos
##ollow
student
sil
thousands
cris
largest
dark
display
moving
Day
33
yes
tour
##amb
effects
prec
bal
##ocked
religious
sat
drive
School
##ford
officer
ang
ut
##yl
passed
##ilies
ahead
prevent
Em
moved
receive
##itute
Cap
Although
opin
Like
##anch
Yes
insur
##arian
reached
happy
cool
##ditions
hy
eyes
##irth
##ago
##BI
Smith
Democrats
ign
agency
##aches
##down
##ocks
stra
nature
English
Tom
characters
toward
##rim
##using
budget
device
debate
reasons
band
Mexic
esc
maybe
##aly
difference
failed
positive
beginning
note
Tod
ord
alleged
park
Reg
Germany
##eness
Govern
##olute
conditions
Air
brain
##oes
##airs
tur
wall
Add
conference
##rief
##itness
80
Ant
rock
limited
spending
##lection
organization
Rob
Serv
presidential
crowd
Syria
citizens
encour
helped
league
##roy
##ploy
##ston
Earth
autom
Met
shown
trust
nuclear
appears
mix
Ber
##10
insp
##ampions
grad
necessary
##ression
Us
battle
feed
powerful
French
aim
Ben
George
##ivity
myself
contribut
##venue
web
##yan
touch
sal
##me
Val
executive
analysis
green
meant
twe
illeg
eventually
arch
##50
estim
##kes
yourself
detail
##ek
charge
##inary
feature
##lay
##aint
##wise
books
politics
frequ
##ken
crime
Wind
princ
##chan
##orney
forced
unique
2007
spir
##cher
college
door
cat
physical
compared
##agon
print
weapons
Image
General
candidate
Bu
families
##iles
Flor
schools
signed
har
##ufact
##set
##berg
High
International
##rated
Trans
throw
criminal
followed
Def
truth
##itz
crisis
cyc
##ris
##enty
allows
voice
rank
Union
##wood
color
promot
rap
Mac
developed
Op
During
##omen
pus
senior
##OT
Council
nice
firm
##ero
central
freed
Brown
gives
##owers
smart
##EC
lif
actions
easily
treatment
Australia
Your
experim
eye
credit
murder
##eration
uses
overall
##ET
previously
brother
reform
rates
##iny
decades
drop
psych
altern
Two
correct
##AM
Christian
benefits
Aut
Inter
expand
individuals
ideas
status
spot
emb
Ham
intelligence
##rom
appeared
straight
Dis
##Th
Alex
shar
spread
projects
Angel
continues
customers
swe
ren
##ection
Matt
beaut
Law
liter
traff
clearly
##roll
lic
prem
##bur
##dd
34
plant
Scott
Gold
##ressed
Franc
analy
70
mist
##secut
##men
highly
fighting
90
winning
fully
max
born
rule
lines
draft
##itely
goals
minor
##che
predict
noted
conflic
policies
grand
Stud
seemed
Mo
##aming
places
peace
##onents
##bon
greater
normal
##ortion
Ter
##ube
##uty
194
larger
Bit
integr
female
studies
##ki
##rec
##orter
Any
Mod
##vin
save
attract
kept
dise
celebr
owners
##lease
knowledge
caused
commer
incident
cities
fine
activity
fan
successful
Bre
##bum
##iverse
enforce
##erved
##EL
##ropri
##IA
ended
Arab
calling
challenge
##sey
organiz
##riage
feet
Also
origin
traditional
send
exch
measure
##SA
##iring
37
Mag
absolute
##aph
advant
Mad
195
manufact
scen
gold
patients
knows
rise
sales
spend
laun
Phil
sources
resources
shooting
##band
establ
options
Hillary
Are
thr
##antly
regular
primary
##ville
Bay
manager
##mon
emot
##osh
employees
##ext
temper
##ici
mostly
##urd
##ategy
minister
charges
push
##OM
programs
France
Art
##rant
pun
Lou
beat
##11
funding
basic
leaving
hospital
researchers
actual
whatever
request
##ping
determin
##board
England
##roid
##ae
Once
scale
Health
Internet
agreement
freedom
slight
Chic
creating
trou
Florida
Sun
##iced
Bush
shut
See
cry
pet
adding
fat
fa
##iled
adop
judge
##alse
Mal
birth
Another
etc
vac
rare
##iders
reflect
##etic
##ounds
concerns
##oti
supposed
authorities
AM
claimed
##earch
##gen
haven
Sam
##cul
chair
Advertisement
ensure
values
Step
recover
arm
images
org
raised
Sanders
##wor
wait
jump
Follow
willing
seeing
Wall
wat
drink
##amples
happens
behavior
massive
acqu
limit
Instead
independent
street
mechan
Liber
names
feeling
Mike
produced
Att
beg
Port
##mar
application
tick
38
Mil
stream
favorite
##ribution
##olic
##inn
prices
memory
eth
Del
##EO
commit
affect
##icient
choose
##olf
station
Western
##reme
##ID
Secret
uns
section
Press
##oyal
##ado
weekend
wild
##ray
Palest
wonder
offered
resist
mount
Chicago
lawy
produce
residents
##spect
confirmed
Frank
##ota
propos
Those
##ST
album
mission
Commission
arrested
##orial
teac
picture
effective
core
qual
district
Inc
Under
male
whom
Ro
chem
brand
brief
gather
believed
revealed
Big
parties
virt
##ya
adult
##onent
benefit
UN
devices
shop
posted
ice
assault
adj
heavy
weight
2006
dollars
strategy
lose
kick
Today
sleep
border
tend
Justice
##ING
Who
learning
Chris
bed
trial
investment
agreed
##itude
load
##ona
species
records
##istry
learned
advoc
##ava
CN
iP
Great
critical
influence
##add
debt
Security
der
asking
Commun
cru
##box
politic
opposition
Pri
Vir
replace
Canadian
digital
exam
##otten
Wil
##inger
dire
defend
showing
occurr
##aked
##estic
##ags
##craft
minute
##rial
vari
pattern
##dom
49
##ancy
NFL
##ords
Sub
300
highest
solution
ine
ship
opening
##azing
rat
interested
##rol
La
44
Game
##ties
cars
generally
operations
##pper
Rel
types
camera
Sl
##more
runs
daily
##OU
worse
##while
provides
Bank
##aby
bottom
##hicle
map
Micro
ir
Uk
48
Both
nine
stre
dream
##liament
Det
Hall
condition
driving
vill
responsible
##ription
##ugg
compar
##ocr
surround
thus
Committee
defe
Good
restrict
existing
Francis
extremely
##pping
train
Jud
theory
Cle
Found
coal
##rav
destroy
42
Fox
neighbor
Robert
Hum
Pre
prefer
Dist
false
generation
2005
##ipe
##ias
Sil
##gency
illegal
millions
assum
explained
Korea
occas
ST
active
##ype
opinion
##rate
tro
##ront
##uana
##acing
labor
##ograph
understanding
purpose
photo
offers
teach
partners
##vant
suspect
39
notice
##rian
transfer
vs
Prof
Britain
##outhern
Leg
negative
hundreds
##itor
##umn
##bert
##lands
length
proposed
##rants
categ
double
##ste
episode
##cl
unlike
none
2000
shared
becoming
Cup
##orrow
reject
Ac
##mit
associated
##orthern
serve
Thom
machine
Islamic
hack
join
frame
separate
tim
##oster
negoti
43
##mine
onto
professional
opened
Sur
putting
Direct
floor
becomes
basis
Office
television
served
reduce
##abor
PC
Their
san
belief
management
structure
##ked
##iqu
hearing
sun
##ih
Kh
Jeff
coverage
blue
legislation
##igned
incred
Israeli
supported
##inter
marriage
advantage
Dec
bomb
spl
Johnson
mer
initial
controvers
fit
##rey
amb
scientists
##ios
Pet
appeal
location
FBI
Gree
##lant
Medic
##usion
solid
announce
insurance
animals
Out
ran
##AD
miles
Wr
Church
stated
achieve
Sal
##ears
Windows
vehicle
##uries
aspect
accused
##IL
dangerous
fresh
internet
Ver
documents
cancer
Miss
Sup
traffic
Please
purs
enforcement
ded
##atically
##ulf
dism
issued
electric
MP
returned
sites
watching
easier
unit
Que
##ica
Los
conservative
faith
driver
occup
Ukrain
##iliar
argument
audience
gay
##NA
##ram
fuel
##ijuana
instance
##icip
wealth
doubt
cells
react
leadership
closed
victims
department
church
##iful
charged
harm
##itation
##udd
eat
##time
daughter
##ingly
##andon
rich
##lick
##lies
##ortunately
Yet
victory
commercial
aware
##ander
##zen
193
Despite
##coming
##wide
hus
entirely
Tim
spoke
##BA
radio
repeated
launched
background
47
##za
supporters
nor
established
41
##eline
comfort
views
items
Mill
Bur
communities
##acity
Jim
worst
##oly
cards
owner
Back
notes
##lusion
##ga
surface
please
north
Mer
justice
##istics
Richard
##GB
##ronic
Afgh
explain
##inct
##aks
novel
Institute
grant
##uct
Jones
75
discovered
holding
definitely
##ography
phil
focused
mobile
download
Ev
finding
##odes
amp
Carol
##oms
degree
##ius
##iling
Louis
##cell
concerned
joined
decade
spirit
placed
die
committee
requires
telling
strength
restaur
contain
allowing
guess
##works
wel
photos
##RE
earth
witness
##rie
click
55
##vest
competition
Group
##inate
rough
catch
##ribe
hair
##soft
believes
##arant
Nor
Lib
planning
smaller
Str
2004
construction
Japanese
##mark
stock
Virgin
Const
Ir
partner
PM
cook
2018
suggested
tools
##gers
annual
direction
cash
##ena
Palestin
##house
context
##isation
banks
Bitcoin
Ken
standing
plays
kid
truly
aggress
afford
Mont
##bing
##ribute
##azon
largely
drugs
Mary
Tre
Time
01
older
farm
establish
attend
housing
sud
Mexico
caught
Jo
##owl
waiting
##izes
##TC
plus
exerc
##ifying
task
consequ
identified
##ampionship
businesses
##OL
dat
missing
raise
Supreme
Sk
bul
Team
##itable
##eless
Ryan
testing
Government
African
Gar
##apped
Pak
##oted
transport
Association
##ipped
##agn
protest
useful
presence
strateg
stick
providing
depend
##nel
girls
recommend
Afghan
setting
homes
pair
operation
speaking
##oper
##yright
Thomas
sust
##tained
RE
Jewish
##igan
update
appoint
##ien
Imp
chann
activities
disease
ge
46
accur
AC
mentioned
Rem
##ulated
##lor
register
64
sequ
candidates
54
##lege
##ait
##semb
##0000
fell
##bl
##bour
fant
fourth
south
managed
##andom
relatively
##ania
##FC
offensive
Army
arrived
CEO
Er
Rock
THE
conversation
flight
##osure
##SP
IN
keeping
Martin
##going
stopped
seek
libr
introduced
##ossible
tells
conflict
Microsoft
circum
Africa
##cknow
Spec
princip
Prime
decisions
##12
##azine
connection
spokesman
taxes
##ady
Ok
crew
refuge
https
tough
Bern
measures
appropri
##ctors
assess
Rub
##vention
planet
initi
funds
slightly
strike
##ception
changing
Holl
Research
##ocracy
##ada
anc
Camp
amazing
marijuana
fellow
committed
##RA
##lig
revolution
Angeles
interests
skills
identity
roll
conclud
##onto
husband
Joe
commission
removed
feels
struct
Kn
award
therefore
##ka
corner
##issions
steps
Open
protection
obvious
fle
Public
transform
##adium
injury
immigration
micro
##isf
hasn
failure
GOP
Jose
Put
skill
consc
abuse
skin
guard
##gypt
trip
##asy
##ario
score
USA
otherwise
beer
newsp
killing
Bet
figh
standards
sports
AN
Jon
spect
##ipl
##oman
Mars
era
planned
Secretary
lived
environmental
Sol
##rees
##kins
script
transl
territ
heat
interp
##icles
nar
##rel
##ula
##hi
interact
models
animal
mig
survey
thanks
##ulate
seconds
##illa
files
subsc
scientific
weak
52
familiar
Amazon
Den
##verse
Emp
acknow
Egypt
fired
paying
hero
##hedul
##BS
unless
##ucky
batter
philos
sudden
mere
##enses
Mass
##itutional
##mas
##onym
finished
##DA
exchange
talks
suggests
Web
collection
discussion
Fed
figures
Kar
Syrian
neighborhood
defensive
##uke
symp
que
##gar
Android
domestic
Social
##eah
covered
absolutely
Free
##ansion
##ulture
##rif
##adem
Prot
supply
organizations
unp
master
Service
hate
veter
##ocal
mental
##odies
seeking
accounts
elements
Chief
remind
wish
##iance
mail
univers
Peter
turns
dropped
Toronto
cold
religion
##rary
Whe
tweet
AT
decide
happening
corporate
Bob
professor
##PA
##iser
balance
##well
gain
union
possibly
filed
variety
Lat
College
##aded
string
Central
##PS
starts
Ari
##cript
tests
##itect
impossible
alternative
##elling
depth
selling
fundament
optim
twice
medic
carried
Jes
humans
Fire
Lee
Plan
Dan
helping
##ynam
sides
bigger
fif
##lets
units
schedul
mut
capacity
##has
cuts
##ros
scr
##icted
Media
Williams
solar
wing
carbon
##anging
vast
elected
increasingly
##la
##otic
famous
Only
agencies
Before
worry
400
window
tast
Sing
Look
##gu
##uters
##anda
sounds
innov
losing
Federal
honest
Conserv
##erous
##hens
Watch
CNN
adjust
##resp
##oston
53
##uate
ton
Atlant
Book
Cath
##EM
earn
apply
Journal
lob
authority
##amm
dim
##ils
din
sector
Images
error
stars
flow
shall
apparently
##outs
Top
##agues
##stein
sitting
vision
##ading
prospect
##ipment
odd
65
Where
##ano
56
server
Maybe
Mel
##icide
ultimately
##rick
51
##HL
imagine
healthy
pit
##lete
guarant
gender
army
votes
expensive
apart
Sher
beautiful
developing
##anche
recall
markets
tack
owned
exclus
##rastructure
writer
District
##de
##isher
Virginia
elim
rid
intended
arms
bound
##ini
mort
regarding
pil
##ker
##fe
developers
broken
closer
attorney
Guard
Steve
##fl
##hicles
95
Sum
##ruption
##ette
experts
##ocol
presented
possibility
operating
Boston
soldiers
internal
trail
Foundation
consult
prime
Gal
##makers
prosecut
##CC
##AA
streets
breat
##apers
Though
factors
Mean
Offic
NAS
Somet
default
pieces
gar
cas
2003
hun
Carolina
##eren
sea
occurred
Middle
##rible
surprise
Fig
applications
2001
Supp
minimum
council
specifically
rapid
equal
BBC
Mos
##phone
deploy
Francisco
##mm
hyp
##porary
Mem
##kn
Paris
seat
Right
vir
Each
elections
chemical
vul
symb
Australian
Hist
Ve
sale
ruling
##iate
##coh
Rad
Pac
##igg
sch
##ashed
listen
perspect
agent
prepared
forms
ec
##acks
governments
ath
sport
cultural
ast
##rad
bringing
##illing
convention
##ologies
Second
weapon
estimated
##obody
59
##aine
schem
regime
Sign
##hone
tight
##stream
helps
Getty
Labour
secure
instit
##idden
combat
stret
##how
##oma
##uster
herself
troops
tourn
Haw
Work
fol
recru
facing
magn
Still
voted
revenue
seasons
Hol
##ogue
responsibility
random
##icated
mode
Fer
determine
dram
wearing
##osen
originally
bought
teen
factor
arrest
complic
##uration
distance
##ressive
##reens
privacy
cart
hurt
Human
refused
##och
##onald
stress
greatest
vehicles
infrastructure
obviously
##terday
equipment
conducted
Daily
filled
River
handle
##tered
shape
tech
57
clin
Power
proposal
broke
construct
mal
Thank
offering
##80
approved
Show
potentially
##apter
remained
powers
accident
prove
##pm
Stan
Penn
Note
Andrew
located
affected
reduced
tact
remove
nut
faster
About
widely
##rig
appearance
Far
##ola
clim
column
##isted
##rier
PR
jail
Nav
##30
liberal
shift
retail
expressed
glass
Life
sac
weren
plants
typically
##This
##inating
criticism
pointed
maintain
##OW
aircraft
baby
aftern
plenty
pulled
recorded
Kim
##IG
experienced
maximum
Cru
##auc
percentage
pages
Science
Its
##DP
challenges
##sen
Sant
approx
discl
voting
excited
Force
positions
##ource
Four
quant
emergency
involve
##useum
depart
finish
switch
##IV
##Al
methods
clot
university
connected
Bus
##cel
politicians
forg
spons
talked
discrim
Saud
##mosp
##CH
##vey
leads
##ENT
subs
##kin
Mot
##oving
considering
upgr
##lder
Grand
Ma
##cean
Reuters
motiv
supporting
determined
indeed
##orage
##ION
##ocking
marg
Men
reference
aid
profit
disappoint
satisf
remaining
purchase
##ader
proceed
apprec
Hel
profile
renew
##ita
Charl
treated
array
Thanks
significantly
zone
concent
package
identify
square
afternoon
Dani
Braz
combined
hol
surprising
##pir
Dou
Nov
nav
##reland
yards
diss
suc
argued
frust
youth
signs
wood
academ
Wal
##essions
ends
boost
completed
Wood
creation
ordered
Conn
Sov
DC
##olved
##apping
hopes
burn
grew
van
panel
Ms
craft
armed
##oom
##ashion
visual
Road
opposed
##ownt
encoun
dial
78
basically
spring
god
04
Tra
fish
proced
Director
lots
matters
##15
Spe
sad
subm
valid
belong
denied
##gment
sem
Project
SP
trouble
opportunities
Cop
evening
injured
Ireland
technical
films
##atured
turning
vulner
##idel
##AP
fly
Tal
violent
reporting
Long
movies
sharing
grab
confident
##IR
expansion
##bre
capable
buildings
experiment
input
emphas
##hab
Meanwhile
System
tree
Jul
bodies
dismiss
Develop
controlled
struggle
coord
Again
weather
Ann
Ap
Island
delay
Lin
Oly
Av
##ensions
thoughts
Christmas
##lyn
unable
##xual
datab
##cohol
Ill
##ato
##edd
Vict
##ez
industrial
edge
laugh
##rog
##ulations
tun
videos
##arks
brows
Ukraine
detect
Walk
confidence
Pakistan
collabor
##16
reporters
quiet
Jackson
contrast
editor
picked
alt
broadcast
##the
explos
numerous
hall
consumers
##ours
Columb
##tainment
Ohio
prompt
linked
##ipping
seriously
loved
Space
##ffee
##rawn
architect
instruct
resolution
apps
responded
Rev
Color
passing
updates
calcul
##gl
declared
ment
flood
Turkey
Michigan
substant
##17
##ache
##endment
radical
forget
faced
label
58
Hen
client
attempts
ourselves
##anged
CH
proud
centre
transition
150
element
copy
Edit
##nell
advance
circumst
hell
crack
Olymp
Techn
##mond
02
Bat
mand
##onna
3D
differences
##awn
eval
suit
sets
ongoing
tradition
driven
suffered
##enda
##osite
writes
founder
Mount
##PU
##obe
signal
extreme
artist
##ym
##Wh
enemy
crimes
Squ
Rod
craz
##aza
explo
##14
reaction
##ansas
##oking
Enter
##otes
reli
breaking
caption
experiences
##known
guns
##icul
Brazil
Down
pitch
##lines
##oves
Swed
cloud
Scot
batt
atmosp
fraud
output
Exp
GM
session
effectively
##uous
##ributed
192
Kell
##illance
##oken
##nergy
admitted
##licit
legit
##isters
##ups
##aped
twitter
##ixt
##ishes
abandon
##ampion
coast
##hew
messages
brew
walking
##place
statements
Blue
Lake
contains
confirm
##erate
pictures
perspective
institutions
##iot
##LE
withd
appropriate
explains
##18
advice
practices
lit
neither
pool
##dule
##unte
Year
agents
##abilities
secretary
##19
Card
##respond
Wik
##ompl
Next
wear
married
publicly
Afghanistan
temperature
governor
faces
totally
consumer
Best
emails
62
perman
##ancing
ID
stands
##IP
shouldn
Fil
##ller
##uations
tow
2002
terrorist
Games
Muslims
##ilty
resident
Ear
##point
delivered
friendly
newspaper
excell
Aff
examples
Win
cycle
defined
doctor
bull
route
##ador
writ
##ternal
lawyer
Prem
ML
Polit
sav
giant
##gent
accompl
entry
democracy
ske
##oral
ISIS
Wars
##wr
##esters
leaves
enh
Elect
config
##eds
##roc
dynam
terrorism
incor
Boy
magazine
Ariz
desire
##arts
##ucks
objects
##gia
##encing
mir
##aints
inspired
##abin
reportedly
Barack
Fore
##iplom
Vol
phen
Soviet
##what
Three
##ellow
gra
pray
serving
auth
copyright
Korean
articles
debut
##13
##hedule
lie
flag
passeng
causes
essentially
expression
AL
fashion
##MA
underst
facts
activists
Ep
##UT
##ads
subsequ
philosop
Dam
applied
Vide
readers
scheduled
Div
Take
rail
realize
05
declined
66
85
##essor
plane
Home
##imal
##adow
argue
existence
resc
surprised
listed
intention
SC
pu
nearby
##It
del
interpret
fort
##arters
Seattle
##astern
0x
advert
initially
island
Perhaps
essential
explan
quarterback
Dar
Naz
Real
increases
creative
thinks
##vis
##abled
missed
library
sought
graph
##SS
##uls
Young
bond
joint
##abb
Wild
dollar
##roit
Hy
songs
chain
roughly
franch
##lo
Econom
pure
exercise
discussed
guilty
rein
grown
warm
Fam
Saudi
suffering
Club
campus
performed
Stephen
patient
##ico
##ionally
##orted
lawsuit
storm
warned
moral
favour
IT
division
prohib
##illed
Tit
scored
##standing
decre
bug
fairly
Sar
accepted
af
button
talent
outr
boss
Week
YouT
##orry
##onom
neur
currency
findings
##whel
warning
deaths
metal
represents
##inent
##edy
everybody
fasc
mine
drivers
Upd
native
Ell
zero
shif
Further
##enture
##illy
Author
cert
blow
yesterday
split
announcement
iPhone
##rd
adds
##erves
##anish
overse
shots
younger
##ERS
cy
neut
Ital
AF
Lord
##iest
##estival
##angers
follows
consequences
evolution
stood
advanced
AD
Eric
rain
investors
##usal
thank
Rights
buying
cheap
entered
tom
##asts
nations
##OD
tiny
authors
bare
trick
##ship
abortion
Ah
##agers
anywhere
syn
Energy
remark
Rog
hat
classes
rape
injuries
##acle
##ala
wage
liqu
NY
Wilson
sick
universe
functions
##ourney
causing
rising
somewhat
heads
restaurant
materials
alcohol
##greg
rot
##iat
egg
##athan
Ret
ride
parent
##under
##oked
networks
Davis
bon
##war
combination
Palestinian
CIA
##atell
relevant
communication
conscious
succeed
IP
##taining
Romney
PS
Way
correspond
storage
therap
bright
improved
Bas
coup
##avor
monit
allegations
Die
begins
##ket
backed
Luc
##ua
moves
distribution
Love
Catholic
##ii
colleagues
Board
boys
returns
Land
wid
##TA
##rip
NBA
##iences
stores
disappear
Call
Society
immediate
hardware
thread
Detroit
featured
AR
brings
threats
meat
surveillance
##iment
##hetic
CD
##inals
hoping
musc
##IM
necessarily
##acter
urban
allegedly
63
wound
##icious
Did
##rid
Charles
##40
##employ
Kevin
Unf
bike
Daniel
diplom
sees
##adel
YouTube
##iger
##elled
unlikely
Story
marketing
heavily
tournament
Stand
Adam
##esome
Ford
highlight
consistent
##irty
usual
replaced
behavi
isol
##urning
holds
Jesus
bird
confront
Cast
Max
sample
waste
pushed
##ooth
forest
orders
crazy
motor
east
##edia
doctors
targets
Hou
lock
##erial
rum
classic
Contin
trend
Asia
##orders
west
##arden
customer
carrying
manage
manner
fundamental
playoff
parliament
assets
Hor
Sn
##iven
detailed
View
##emen
volunte
##sembly
eating
##formation
strange
observ
sand
promise
links
##PR
literally
pra
flu
fewer
importance
intent
Sports
Women
Disc
plot
motion
Ram
##ati
##asp
ring
extent
offense
##ockey
pled
Invest
Bell
##mates
winter
DNA
Defense
circumstances
Putin
##rum
termin
analyst
symbol
Brook
##icy
##rations
##chen
##ocket
narr
##icing
acting
regulations
##ologist
commitment
##As
earned
selection
Holly
Van
pushing
03
gang
ending
assert
Share
walked
femin
##lv
Tay
opposite
historical
fuck
Mic
attempted
teachers
Gra
colon
ancient
wake
dedicated
sustain
##ether
Miller
embr
downt
##IF
mouth
illust
TO
##xy
formed
desk
protected
athlet
rally
domin
vice
chairman
adapt
moments
repeatedly
Di
index
facility
household
Spanish
##real
Fort
##oz
watched
kit
referred
Id
sister
Old
bag
Hot
Jews
Special
##pet
Never
forth
schedule
Brad
72
overwhel
protests
Jr
sentence
Arizona
acts
wire
versions
controversial
Pan
slowly
targeted
mechanism
excellent
anx
shel
Gi
diet
height
artists
##aling
Italy
dealing
800
flo
unus
##olve
proof
##apse
handed
wave
approximately
##nam
##pay
closely
##tr
posts
emotional
reward
##anges
receiving
competitive
penal
acknowled
Cub
frequently
##kel
alongside
NASA
congress
##iner
category
##ded
Wat
67
End
guide
Conf
surrounding
pip
struck
adults
##ko
##iques
##night
Water
##utch
##US
channel
Unfortunately
Dark
king
blame
phenomen
##rint
hotel
deeply
Carl
##uated
##ilit
signing
properties
cutting
instru
empty
600
##unction
subsid
##aled
##icit
##omin
database
Brian
resistance
regional
harder
gear
flat
knowing
gap
##andal
upcoming
tested
##60
Come
properly
volume
passion
Java
wins
soul
##emies
crash
##allas
kinds
aside
##uable
hits
##host
##izz
pregn
describe
remote
Josh
##oration
##aze
Ut
inher
##umber
Shar
##iami
coffee
bear
reput
realized
participants
kil
##iveness
lies
##agan
precise
Civil
promised
selected
##burg
constant
Jord
northern
##alle
magic
Sky
mainstream
##pe
Lew
studio
adopt
Cat
rub
snow
prote
Bru
suicide
opponents
pal
##iscons
phase
typical
##rison
likes
effici
param
suddenly
##isconsin
Houston
enth
unknown
##ensus
topic
schol
Camer
Arch
requests
MS
Irish
##64
newslet
dry
agenda
Finally
territory
requirements
Network
##nic
welcome
directed
updated
comfortable
##rehens
multi
68
locations
dress
Organ
ped
noticed
approval
##va
##ademy
Business
Such
Child
drag
Class
Mu
fixed
anonym
Has
Light
Wisconsin
##asure
decline
worried
hyd
teacher
Night
fake
sending
##ellect
fifth
tort
##pass
##enders
unemploy
theme
69
77
plug
unl
Check
pover
risks
##rect
strongly
Pacific
##fire
nomine
##stone
##unning
comparison
##ao
extract
exhib
Valley
##asks
Yeah
flying
Agency
07
##Ch
definition
Miami
Oper
latter
Colorado
Administ
attacked
##hot
anyway
Which
Among
involving
Sea
reasonable
diagn
Thus
1999
poverty
limits
immigrants
Attorney
license
merely
retire
extended
Scient
##OC
arguments
ruled
##ographic
##ingu
sky
ok
destroyed
feat
surg
understood
250
exciting
pin
sweet
Cruz
drawn
battery
alive
190
Marc
matches
southern
##west
McCain
Jersey
iron
##ums
winner
impressive
##PD
dogs
fighters
journey
##wan
Key
observed
NBC
##II
##iform
employee
Dallas
##anchester
flex
courts
democrat
recognize
stretch
mistake
Balt
Nations
##anes
basket
08
disag
obtained
equival
##adelph
bunch
##aug
Cam
duty
Indeed
gotten
assume
enemies
Turk
Turn
inch
clar
sole
Scotland
champion
##regon
trees
atmosphere
unw
franchise
##ey
protesters
relationships
##ugh
honor
icon
##esc
##ighter
constit
FC
somehow
Hollywood
##word
NE
##erry
Mat
escape
##ceived
##rors
root
Click
##For
emissions
communications
regions
oblig
ticket
Nic
allies
Tony
promote
informed
##ORE
defeat
exposed
corruption
Az
paint
Inf
OK
tall
employment
##TS
amounts
##inations
journalists
Joseph
folks
satell
stim
chose
aspects
Victor
opponent
ble
squad
village
##celer
06
punish
##ensity
Georgia
##cks
##LA
pic
stronger
falling
sight
##rating
##adelphia
HD
Dun
##onc
##aser
truck
implic
puts
occur
critics
rig
wal
format
finds
primarily
Fre
Manchester
##vard
Labor
##gor
dozen
refugees
developer
raising
scheme
Cross
bitcoin
Jordan
tank
goods
##We
captured
answers
rejected
##ora
ideal
Live
LGB
cup
row
##itar
NC
##onn
##uce
bench
choices
Hard
bid
##awa
supports
Dead
OF
09
inqu
##axy
OS
purposes
outcome
fees
letters
engage
vacc
evil
##han
deals
drinking
##bel
facilities
convert
scenes
claiming
LGBT
Viet
##vy
##isan
##igation
somewhere
loan
##equ
blocks
Disney
rival
##otal
sup
registered
Oregon
racial
mixed
74
nobody
Philadelphia
myth
personally
deleg
Ali
virtual
Moore
desper
Sometimes
Coll
Hun
Mur
trib
contem
weird
Curr
plastic
##anny
aggressive
Budd
anymore
Program
threatened
contributed
##On
##oming
##icken
Ult
##ucing
houses
##care
Does
Italian
ties
exists
##lers
##itarian
generate
trading
##uits
angry
Educ
Care
Southern
constantly
Mob
Data
Without
##pool
distinct
terrible
estate
degrees
installed
comic
intellect
headed
demands
##olt
ori
##hal
habit
Foreign
Ray
western
Senator
##tle
Bowl
##raid
officially
conven
enthus
##road
incredibly
gall
organized
IC
taught
feedback
Source
fields
upper
##boy
##onic
Rose
##azz
comprom
Jac
blind
Asian
##exp
Fair
Make
extensive
##inson
Greek
##32
newly
deck
situations
funded
ru
List
Full
agric
Taylor
phr
encourage
Sir
##iro
returning
polls
apartment
condem
Dri
Bry
NHL
bat
##can
payment
Video
##osis
estimates
Little
1998
founded
represented
accomp
severe
ven
##do
##water
##esy
decent
recovery
Py
##inem
Orig
thin
manip
tail
Through
##rates
##essed
generated
transpar
engaged
parking
Constitution
Ra
Report
Pay
regularly
titles
capture
consumption
tied
HT
manufactur
Test
##woman
##owa
##ima
components
Fund
##asters
narrow
Linux
##met
##een
continuing
IR
somebody
Sever
hidden
##ems
Hell
keeps
##chain
solutions
reporter
##UR
chosen
Cost
##pan
unn
tor
meetings
Moh
LA
Greg
Major
##zens
perfectly
harass
narrative
AS
##fall
##iscal
electricity
pilot
Start
Judge
sympt
Fall
concluded
efficient
Kurd
forec
incredible
accurate
browser
Gall
Kr
stead
mayor
cer
##gred
Food
##ml
##ilarly
##iable
##ura
##ogan
resulting
mainly
crucial
excess
Kir
##rich
county
Tele
writers
Ott
##cers
controls
Kelly
Mah
Vis
##bn
Tem
Nick
teaching
ESP
enable
History
regardless
routine
Kent
Championship
Ruby
taste
##ifications
operate
granted
withdraw
worker
Market
thousand
Series
Oak
rus
province
complaint
97
McD
shares
Hom
##weight
Keep
##idelines
79
negotiations
Jason
##eda
possession
elsewhere
collected
ow
Company
Zeal
automatically
spin
Anth
Global
inev
sanctions
compens
##iated
##amin
Spain
Nation
payments
complicated
Ins
##cy
##oric
stuck
worldwide
contest
Minnes
lawyers
76
##cho
technologies
Assad
Snow
##uine
##bec
chances
anticip
successfully
Mult
##bled
defence
##owed
taxpay
bills
permanent
gaming
##aire
Ever
yield
innoc
Northern
pod
conclusion
sensitive
alert
Given
##25
neutral
Ty
##redit
veget
solve
sharp
cited
attended
crypt
audio
explore
awesome
Have
##gender
dict
coalition
actor
marked
proved
fought
Parliament
Eastern
Mid
elite
visited
Rick
assistant
tap
##inder
visible
Mir
##alo
Ash
Season
88
reaching
PD
##win
recording
machines
Following
disaster
##era
affili
Build
Iowa
hadn
Foot
loud
depending
tracks
Hon
clubs
equivalent
Capt
##intend
assistance
academic
seats
Premier
medium
##inity
partnership
##sters
funny
uncertain
aimed
ads
##24
explanation
##aa
implementation
pace
##agram
Services
adopted
ju
cyber
##mont
minority
Ol
discrimination
##etary
Kat
##uts
bes
Music
penalty
Minnesota
##gets
clients
gonna
strict
Henry
compete
Development
##list
baseball
mel
##mail
##abis
##idency
##bles
saved
##VER
##ultural
processes
Policy
Jam
genuine
VR
lawmakers
prominent
##ocation
portion
emerged
rating
formal
##orne
1997
Avenue
Lu
##cow
##TV
entit
historic
##gas
##urb
apparent
Kingdom
##pro
##mann
simpl
techniques
##oop
##look
relief
##iel
toler
shock
Zealand
##itors
intense
1996
hole
Blake
##ibilities
##pread
shit
producing
valuable
Columbia
84
Os
stab
counsel
acceler
inspect
##uan
##usse
conspir
warn
roster
propag
Coast
mo
afraid
finance
patterns
warming
reputation
thick
recip
corporations
##otted
destruction
downtown
##Le
##rete
Mayor
Albert
laid
enjoyed
eur
##ogen
stadium
##sylv
principles
##imore
behalf
##olit
##sole
bom
##bell
describes
producer
busy
##amber
##lights
enorm
##itals
stable
NAT
apolog
survive
73
extension
##sea
##upid
Use
crop
##aturally
##idespread
philosophy
unusual
rent
reduction
privile
##aven
personnel
Tenn
explicit
Saf
exception
Howard
rarely
wheel
McG
cameras
Pennsylv
fault
grade
700
##ews
losses
Moscow
Jun
resulted
##gorith
strikes
Bull
##orough
##opp
synt
progressive
Whether
brut
Roman
permission
87
arrange
##lla
##iana
##esse
##igar
##ilipp
computers
cable
championship
##ials
Review
Ros
exclusive
liked
Harry
Freed
##etts
uniform
participate
Ext
Pack
shortly
Latin
chart
scoring
##olis
interface
CO
establishment
Rand
beliefs
veteran
trig
phones
vulnerable
Walker
component
racist
entr
Cur
tag
Conservative
recognition
collapse
UC
Dev
##oen
##bal
creates
##allel
DE
##ifies
electronic
contained
##ferences
Independ
hired
##ules
span
expectations
Navy
bath
tip
advis
Medical
deliber
Several
Set
##asion
ships
wonderful
SS
bail
##iler
fiction
##ye
engineering
borrow
transm
principle
Professor
Diego
ABC
Adv
entering
Community
fee
processing
ESPN
Pennsylvania
##ares
spark
##rypt
dinner
##If
Battle
everywhere
cerem
passes
Gov
neighb
priority
cos
##aun
Ur
incent
warrant
feelings
Prince
##rative
##icial
Baltimore
hang
##athy
lights
ON
containing
contracts
98
drawing
stations
obst
Dig
roles
widespread
Matthew
manufacturing
Ball
##ni
spell
##prise
profession
82
##iration
20th
Royal
nominee
##ione
uncom
Administration
Death
##senal
lean
grass
physic
Having
exposure
##igen
doors
##enz
Hit
programming
convicted
scores
Bernie
##acking
pump
##ureau
struggling
Education
surgery
##fit
dozens
SH
##top
##lix
layer
##ester
Ice
##izon
##olen
milk
ranked
Ron
##antic
usage
Everyone
Centre
recognized
hitting
elev
Hay
description
##anna
normally
##ja
indicate
##etime
Arm
Spring
terrorists
##hent
##bar
Tile
hur
##ba
Point
SE
liquid
mic
foundation
##uild
eastern
Brother
Bad
achieved
journalist
Ross
##ication
plate
Patrick
86
rely
prepar
120
Turkish
Circ
##rical
util
Philipp
scenario
Radio
carefully
Form
pounds
CBS
hide
campaigns
banned
92
define
restrictions
##lah
##ashes
begun
89
##ologists
devast
democratic
2019
Aud
NSA
algorith
Alab
casual
##olves
perpet
movements
API
Lyn
independence
Lewis
shirt
Head
finger
legend
listening
##scape
suffer
exceed
websites
Person
sty
fiscal
forever
tickets
##endum
photograph
##eland
##resent
edition
au
brown
##areness
multip
genetic
Using
upset
branch
structures
##lined
##ilton
soil
rose
Price
ocean
##MP
alien
sugar
mining
Plus
Laur
Greece
##70
firms
##achus
smooth
settlement
rif
##fast
##rett
mathem
Kansas
gained
practical
##xit
ethnic
myst
flash
Sem
Pen
##mo
Action
tab
##actions
##life
##abinet
Cre
##ounced
scream
Lind
##viously
##rest
##veary
awareness
##Alveary
TileAlveary
1994
tackle
Roy
flaw
raw
Liver
humanity
##enny
resource
##mes
rapidly
94
external
reducing
Austin
##lan
versus
minds
association
Master
##ycle
bin
hook
##LC
##riers
chat
outs
deeper
vary
1995
##ATE
bridge
Hind
##NC
shell
UFC
Marvel
technique
grounds
Atlanta
Family
##vere
##heast
trained
Justin
challenging
fed
83
Stone
clock
Medicine
##osexual
PA
neck
1990s
##achusetts
welf
constitutional
episodes
intellectual
lists
Academy
Queen
Core
stupid
lobby
1990
footage
Pot
papers
invent
advertising
Field
##inding
Allen
interviews
ratio
je
proven
##ogether
farmers
96
##person
asks
Pop
Former
elig
##aska
anger
prepare
Tri
##MS
welfare
anybody
appointed
basketball
Cit
Massachusetts
##ulating
retired
suggesting
Ly
robot
poly
presum
overwhelming
##ria
airport
indicated
prol
deputy
1992
Information
bra
headqu
equally
Alabama
##umer
Ark
transgender
neighbour
NOT
##ami
handful
Gaza
Pu
citizen
walls
Sus
du
Vanc
##ras
referring
sorry
Moon
mile
regist
delivery
unclear
gam
rend
convin
porn
peak
steel
Ba
Equ
gir
yard
##Tr
unemployment
##eding
##ouver
comprehens
barely
Unt
##usted
fears
##udes
contribute
Lim
Tech
rural
loyal
failing
sin
##uma
Mexican
Think
guest
Division
Update
Sat
Was
civilians
roads
Ale
##Sh
fab
##rators
Conference
Guardian
Square
Freedom
gift
##ML
saving
Est
dump
Amendment
Non
notion
concert
ownership
Bra
coc
prosec
Ren
foss
frag
hardly
purchased
Tour
Chair
streng
Batman
NATO
exclud
involvement
vital
##da
##uties
cha
connections
collective
Iranian
attacking
statistics
gathered
Anthony
##lements
settings
Stat
##burgh
Custom
Environment
Ho
spiritual
Cameron
Ast
breath
##99
##keep
1980s
viewers
Sony
discovery
##rine
Anton
##ictions
Town
steal
Earlier
WH
tone
invited
expanded
Syd
holiday
legitimate
##itary
soph
##lessly
Pass
##Sp
trem
stone
regulation
Cook
Oklah
smoke
profits
Ak
##acon
disagree
Stadium
screens
menu
##inois
temporary
61
luck
III
jury
##adi
ridicul
overs
domain
reviews
Dave
Jay
Ministry
Later
tasks
##yer
##arrass
licens
astron
dynamic
overt
##icket
incorpor
Bang
illness
thrown
Prop
representative
serves
Exec
river
##arsh
ignore
cod
##rific
fold
substantial
Sure
investigate
Design
strategic
Yemen
implemented
symptoms
##eman
legs
Credit
Pent
platforms
brothers
Vancouver
affairs
joining
subjects
extraord
exit
##away
Gun
##RI
##isp
##rous
attached
publication
reader
Iraqi
ms
efficiency
93
grav
Short
barrel
yellow
estimate
improvements
aged
silver
##orse
Broad
alter
samples
ht
remarks
featuring
##rets
manif
inject
reven
##22
presc
entertainment
convinced
lying
extend
respectively
CA
Six
##rep
fantastic
Associated
Cow
protein
##verage
##oln
math
##rupted
joy
fulf
wars
noise
threatening
fantasy
scandal
Front
Photos
##iversary
careful
inner
covers
referendum
Golden
Illinois
enormous
Oklahoma
WW
performing
suspected
dramatic
##agh
lin
##ila
info
rational
##acked
Lo
##rac
hel
##umin
tc
accus
depression
fallen
##BO
ultimate
spoken
suspended
Wolf
##agg
Liverpool
Figure
Brew
scope
intervention
Exper
dance
##FF
iOS
theor
depends
throwing
tomorrow
trop
admit
satellite
parallel
replacement
Conc
bread
diversity
offices
Prov
les
##mun
##ouch
brill
1993
buff
languages
controversy
gal
##ystem
##angel
Common
visitors
abandoned
stayed
bub
##ais
Beach
investigating
missile
Sydney
depos
anxiety
Bal
threw
##umes
##ikes
horror
discussions
behaviour
Event
##olph
testim
joke
improvement
framework
involves
complaints
Brexit
locked
Buff
##arn
jur
Low
auto
Sams
cust
lucky
mad
deficit
investigators
embarrass
hint
##PG
##acc
fruit
##veland
Corpor
Unlike
##season
virtually
Silver
##mary
##uten
monitor
stake
Harvard
addressed
##lock
AND
fro
moon
factory
Five
recommended
Ha
conversations
Lar
##mate
##An
theat
##ogs
activist
covering
captain
tweeted
mountain
conce
membership
Abb
ingred
heading
premium
##aron
##ffect
##etch
Hey
marks
Control
MA
resign
Creat
##appy
universal
races
scan
Engine
Related
wages
##TH
stolen
preced
cannabis
absence
initiative
Revolution
promises
voter
petition
advocates
protecting
Belg
pound
salt
##mers
##istent
breaks
rescue
Chel
Museum
scar
amid
shoulder
populations
okay
toxic
##lfriend
Christians
guarantee
abst
attempting
replic
grid
Being
##EST
mortg
Pict
hung
##har
trave
smile
##DS
##90
discip
personality
muscle
incidents
encounter
bars
##ivals
rom
##oto
sufficient
Eth
tear
##eb
repeal
Anderson
seemingly
##raph
survival
Arabia
##fare
##ammed
viewed
inquir
MORE
##EG
actors
CR
Ted
##anted
##ookie
lowest
Santa
monitoring
Lear
Qa
distract
counterp
##UL
chapter
guitar
attitude
salary
Technology
ranks
noting
twenty
commonly
Der
inflation
scholars
Ont
handling
loans
passengers
Hope
Main
revel
spaces
##ijing
##itage
##itionally
distributed
Doctor
innovation
Son
contributions
Gri
chest
encouraged
clothes
hockey
tries
persons
BC
##BM
displ
##mans
##abeth
shout
Yang
swim
logic
Final
comedy
pour
closing
bacter
##otype
horse
temperatures
##born
nic
Beijing
AFP
##laim
racism
medicine
appreciate
Samsung
shopping
drew
##oval
authent
improving
headquarters
cigar
Age
Line
coaches
colour
boat
portray
Portland
rhet
Sweden
conspiracy
consistently
opinions
Indust
obtain
transportation
Hold
81
Mun
##sels
hypot
stages
skept
##PP
##enth
None
##apes
Maryland
Norm
powered
midfield
colors
Obam
Mrs
conservatives
divided
arrive
hyper
ignored
Cleveland
upgrade
gains
##ira
assessment
variable
Rather
replied
Expl
Bruce
Base
Linc
Graham
##iller
##active
##iano
homeless
Vegas
##aver
studied
legacy
absor
Captain
Email
speaks
CS
Ten
plain
reprodu
##rator
Priv
Would
##operation
employed
Atlantic
Football
SU
##gun
##Ad
Sean
judges
correl
dad
Deb
Las
Xbox
cogn
##sa
##unes
filter
Eliz
Talib
Patri
girlfriend
##mal
##uted
##ecess
Hospital
Iron
Pitt
drama
Empire
lands
console
Indiana
2nd
wine
##oice
Fix
monthly
pursue
##obs
##ito
surf
kilomet
1970s
GO
##ho
##iture
tracking
inequ
GT
wrest
ordinary
Carter
criticized
##geon
CL
jun
Governor
ramp
drone
##ean
insisted
transit
landing
71
Award
Sel
gross
tea
Intelligence
subsequent
bother
##net
lad
##HS
obser
1st
##ommod
wealthy
Qaeda
Lincoln
burning
Magic
repair
##hesis
diverse
##ieties
Bloom
dub
copies
beauty
blank
politically
visiting
Steven
proposals
Dream
ham
thorough
prisoners
acknowledged
vert
Things
insist
blocked
Clar
swing
Code
Tel
striking
Edward
mistakes
equality
##usalem
##isk
spokesperson
quote
##weet
##urric
Gary
IM
##lly
##otyp
phrase
2020
classified
providers
Intel
stored
Alexander
Should
fu
##ifer
centers
weekly
reads
Support
Dutch
literature
Marsh
##aga
contrad
investigations
##iy
Jonathan
assign
##ika
titled
Jean
conventional
entitled
quoted
cooper
waters
Early
SA
##isons
requested
divor
Jerusalem
Girl
naturally
march
Chelsea
dust
gate
ballot
smoking
savings
wra
##bro
Nothing
Could
##rent
##ela
approached
ax
spr
##comes
Warren
channels
mole
##RC
Left
1991
targeting
##ols
##ille
Fred
module
dismissed
##GE
##ultane
##icking
fled
falls
vet
Hawai
lets
maps
admin
Olympic
nin
checks
responses
accomplish
Sarah
##utive
accommod
flags
rush
##000
actively
Roberts
##ev
representing
##theless
Vietnam
lunch
blast
supplies
cream
butt
DO
appearances
Access
boot
congressional
##acare
Tax
concrete
urged
senator
Everything
Liberal
##ihad
margin
Sound
ho
##repr
##ources
##print
demonstrated
Run
Tai
##66
compat
##assador
instrument
km
##nedy
acquired
Below
Denver
Elizabeth
mun
whenever
Caption
GDP
bow
myster
Mach
ups
ages
hoped
AI
##thon
guidelines
Bor
Hu
jack
Cooper
nomination
Oakland
mos
musical
Quest
tactics
bonus
##intendo
##Script
1980
##tes
Therefore
deny
popularity
streaming
Box
expanding
##ector
resem
protocol
Taliban
##reprene
##sect
programme
civilian
pros
releases
frequency
Tennesse
patch
dates
cance
maintained
fighter
awarded
##bling
counts
photograp
preparing
Obamacare
NS
compare
##ls
##PC
discount
measured
celebrate
Vice
##Pro
banking
Pier
fing
Khan
tape
rear
sear
unexp
##annel
waves
##rogen
loose
acid
Speaking
Utah
##right
Leader
tonight
tens
##isa
##iculture
reverse
provision
predicted
##irts
pron
healthcare
Berlin
fossil
Bud
Sab
weigh
relax
Mobile
drove
trillion
Moreover
Remember
##ocolate
##berry
Bible
CON
##cons
##eters
shr
Trust
alias
helpful
universities
firing
veterans
submitted
violation
Kennedy
therapy
museum
McK
tips
Trade
Simon
Palestinians
##enez
surely
Lt
gent
incomp
presidency
overseas
testimony
wider
##urray
Leon
consciousness
retirement
##odox
Uber
tie
##erald
letting
Crime
introduce
phenomenon
Link
##ali
Nintendo
##BN
Eag
Much
##ahu
##esty
arguing
CC
Others
##atar
settled
Fact
bowl
desert
reveals
Vill
generations
##shire
##flix
keys
dominant
Wel
##icon
Cra
soccer
1000
dominated
ranking
##bow
abroad
##bridge
##izer
discour
##bi
sovere
Scottish
seed
##endous
Hamilton
Arsenal
demanding
##WS
delic
Andre
anniversary
Know
dying
intim
documentary
autonom
pipeline
beating
shame
simultane
##hips
secondary
semi
comprehensive
unexpected
Gord
Gulf
##hatt
knee
##teen
suspects
Treas
Kl
cul
contribution
architecture
innocent
Kong
forcing
roof
formation
Roll
revers
##arms
graphics
propaganda
##aching
consideration
puzz
Nazi
##asty
roots
producers
brilliant
Hand
unions
##argo
burden
introduction
##There
Marx
regulatory
prosecutors
3rd
##urance
##iti
reforms
Roger
##RL
Ref
windows
Dick
comics
hopefully
##AND
functional
##iffs
Hong
##ipedia
spokeswoman
Occ
180
sequence
wounded
##oenix
Harris
objective
principal
Galaxy
missions
categories
restaurants
Sa
SD
shadow
gathering
accessible
Consider
touchdown
wise
##omes
stamp
pointing
receiver
reliable
Pok
##kee
landscape
##You
##aka
facilit
##rooms
festival
designs
borders
inches
##ois
##reced
circle
cow
##recedented
##ington
sevent
intr
demonstrate
##ormon
##mad
##ethe
Until
Friend
repeat
Connect
EC
##ouri
##icism
trigger
Sav
##irm
focusing
calm
Capital
Sud
pig
shield
Staff
Michel
19th
whereas
importantly
deadly
silence
implications
enthusi
mac
##itol
Tennessee
##EE
##heim
odds
pocket
Comey
representatives
disorder
damaged
assumed
custody
##iden
stem
hash
##eps
drives
##vens
rooms
Bi
Tok
Li
##FA
dish
Bureau
SEC
hal
dependent
fate
##PM
##orious
transactions
questioned
Netflix
remarkable
exha
##plate
##enger
##worth
##lad
artific
hosted
affordable
Vik
##po
##emed
wanting
trials
Nev
1989
errors
NA
##hand
Coal
indicates
unprecedented
##TER
argues
stability
moderate
stepped
meaningful
Mit
Po
##yo
scientist
hosp
difficulty
experiments
Economic
rounds
outrage
organic
Metro
virus
##ta
##orous
servers
Represent
##ylum
PH
Som
##aki
Fal
strip
execution
##inction
##ributes
##itzer
eggs
chicken
##onder
investments
Resp
memories
broader
insert
emerging
##igate
##estyle
legislative
contacted
graduate
##86
##tenance
mathemat
##VP
capabilities
##archy
spots
Order
Mess
openly
nod
##maker
picking
blockchain
spectrum
precisely
##ught
capitalism
Kentucky
Case
Had
conver
##ixon
ceremony
mit
Bridge
Opp
tired
##To
prost
Alan
Children
torture
##rome
Local
na
##inator
speaker
legally
##phones
greatly
judgment
subscrib
lux
loves
##iamond
tiss
deserve
mini
ministry
gif
endorse
foods
searching
gad
##fol
##arity
differently
benefic
engineer
Trib
##34
abilities
voices
##Hz
competing
discussing
eligible
childhood
Charlie
Nar
Weiss
beings
smartphone
kitchen
Cro
##gus
educational
Kick
Article
##opher
##elson
##asant
procedures
publishing
physically
vig
##ications
managing
persu
##holders
newsletter
misc
sorts
coinc
heroes
followers
industries
##Ex
arbit
##jo
Place
Hide
##iev
substance
Bow
Hart
##acco
Affairs
extraordinary
##lando
##oir
Ban
Wales
##aration
promising
collaps
instructions
transaction
pulling
##erning
stro
possess
Instagram
labour
Ku
##When
grap
Morgan
Ven
##apolis
##iki
FA
189
Buddh
##osystem
defending
assigned
vib
##aping
butter
intro
assass
dispute
defeated
lapt
##eals
##itudes
bottle
##rell
##eck
##iley
ease
Third
staying
Kal
##eries
occurs
surviv
Library
scrut
Bon
picks
Pentagon
bold
highlights
Digital
export
une
pharm
Phill
##ixture
Ze
##65
upload
##ova
requiring
utility
Boe
tables
opens
unfair
recruit
topics
answered
strategies
html
wedd
##And
violations
rebels
Executive
birds
constitution
Ontario
##ctic
sections
Du
enhance
Cas
Hal
Tes
consensus
participation
##fers
entreprene
frequent
ves
Phoenix
##brid
##ompson
promoting
Burn
cooperation
##backs
Jenn
buck
utter
dialogue
shocked
shoes
crus
Harper
##then
Total
Cole
elder
##21
consent
Assembly
##ista
##akh
overcome
Management
constitu
YOU
sentenced
timing
Store
underlying
##ounce
Medicaid
mask
centuries
##pton
distingu
intellig
escal
ratings
occupied
vocal
unve
uncon
harassment
DV
Type
##inking
echo
riding
managers
cheese
periods
##ele
imposed
Additionally
Online
sustainable
registration
##Ar
pollution
hire
sne
##walk
##upp
recipe
institution
adviser
##ennis
towns
##igenous
arts
Mail
Near
Publ
##UST
disrupt
##orship
Andy
donations
explaining
Officer
##ogy
passage
password
Page
##ishop
##UN
requirement
Player
rocket
procedure
Very
eager
shipping
Thompson
sheet
poison
nerv
tut
##zing
fool
athletes
Gil
##alia
Orlando
ridiculous
athe
cler
rolling
bullet
sacrif
Aaron
gig
##owing
perceived
partly
loop
printed
backs
Clark
stops
billions
Crow
Move
relation
##aus
clip
Murray
segment
Barb
Aw
es
radiation
clinical
battles
hanging
om
##ji
seized
##atern
executives
logo
birthday
migrants
disappointed
cock
subur
parad
##vertisements
Tower
##imp
##rix
evident
packed
struggled
revolutionary
impression
signature
Wright
badly
rhetoric
inequality
jer
Giants
contemporary
##zer
helic
trends
studying
irre
Furthermore
Channel
coaching
Craig
Ox
stere
blocking
##TP
##apore
Reagan
##leton
Crit
##agic
##thodox
asset
memor
glad
Change
##dy
##umble
sed
stance
##ernand
sixth
fabric
mood
##rence
arc
##utter
traged
convince
Brooklyn
insult
arrival
Sheriff
clothing
MLS
mirror
anonymous
##35
genes
demanded
fatal
Libya
infect
engineers
##oli
Whit
ideology
lessons
addresses
tons
adequ
Soft
Log
flour
Anna
obsc
nu
pill
##stal
##cott
##Er
kiss
setup
punishment
ranging
undert
modified
Pers
Pope
##liest
##ateral
embed
commander
lifetime
oxy
citation
bab
##eria
tempor
Mother
statist
lift
##ui
Univers
Lam
superior
gest
helicop
chip
reserved
invasion
##ancer
True
drunk
burst
Future
lineup
##eping
removal
adventure
entity
presentation
dramatically
Dur
Find
##osc
traveling
loaded
diplomatic
Rest
citing
Singapore
Based
ED
dating
delet
Model
patent
Capitol
neighbors
lect
torn
interviewed
Bes
1960s
shaped
Les
##iece
insight
OR
advent
##alties
hospitals
recre
maintenance
Transport
recommendations
Hung
##Os
##bury
compr
interaction
##hire
##App
signals
Obviously
communicate
permit
aims
districts
outlets
encouraging
Ay
Bul
resolve
knock
##PL
backing
boxes
Han
correctly
pleased
diseases
vend
Command
Delhi
theories
##ortions
Spir
employers
accompan
##itual
##omed
beach
outd
21st
SN
##aved
smell
##attered
##hr
charity
prize
enabled
cheaper
designer
acknowledge
professionals
holes
Trek
Zim
genre
distur
attractive
yeah
perception
organisation
credits
sessions
##One
##33
##istol
Level
deployed
playoffs
##power
##aware
nose
##ses
instances
eliminate
Psych
Table
rookie
##uman
sponsored
instant
Lev
Grant
concerning
##lusive
Iv
Rac
documented
ecosystem
##ding
##ibl
minimal
automatic
hunting
Gordon
Cy
##He
compli
Authority
##mat
##usive
psychological
NO
##gence
187
bias
manifest
TR
##olas
gameplay
posting
CPU
Father
weakness
couples
isolated
manufacturers
##enezuel
##agger
owns
##scribe
concepts
Yah
fel
hip
spo
Stanford
Standard
Pitts
punch
##iac
Studies
deadline
racing
prompted
mystery
Gre
##State
##interest
110
##icipal
Missouri
prospects
##orneys
makers
Buy
emotions
Sad
##erb
##change
everyday
preferred
##VE
expense
Steel
homosexual
asylum
checking
Entertainment
Continue
Hug
sized
##zed
Argent
annoy
considerable
Film
Treasury
bits
##omy
surrounded
stack
##elve
doct
Reserve
displayed
fleet
##izar
associate
inspiration
fur
reviewed
jumped
earthqu
DA
landed
talented
certific
JavaScript
Duke
lane
solo
charging
Nevada
sli
##isdom
accum
Gib
##owned
occasionally
forum
confused
maintaining
trigg
##ulty
Ent
Leban
integration
BM
Dor
witnesses
ric
Blood
Reddit
dropping
advocate
Esp
IV
submit
Abu
Montreal
approaches
physics
Egyptian
Wikipedia
Map
##GA
defender
Steam
Area
Gard
Obs
merch
Ub
##ns
volunteers
Kings
Raj
fert
ghost
embrace
EPA
bankrupt
Venezuel
Deep
bure
USB
exclusively
carries
User
males
##isd
stating
Alliance
acceptable
##By
notable
refuse
Merc
buried
Gill
##front
enact
##assy
performances
##hattan
desp
Within
##ettes
Da
##mic
##ceptions
fights
guaranteed
flav
Financ
emphasis
compensation
ingredients
representation
executed
Pant
##umph
gene
references
Summer
1988
collaboration
Poll
##abe
static
forgotten
oppose
suspic
orient
Festival
##23
##oca
criminals
stimul
ther
##abet
economics
killer
kidn
Ka
underground
promotion
Eb
profound
Imm
Protection
prosecutor
Editor
tremendous
##bits
integrity
integrated
4th
reserv
guid
guests
Wi
subsequently
##boys
spac
journalism
188
Pear
##EA
explosion
Oil
Ocean
##oned
proportion
Canadians
biological
##00000000
Mountain
##Cl
lesson
operated
swit
Snowden
beta
##bourne
Emer
da
Morris
FO
##zy
Marine
breast
regarded
Robinson
iPad
Yan
Scar
fails
soldier
Jerry
Bir
##izza
##ATCH
speakers
pregnant
Jane
##QL
quit
Christopher
##ESS
motivated
Stew
taxpayers
Taiwan
momentum
Alp
sits
unre
interpretation
meal
removing
merc
electoral
Bond
mart
attending
Manhattan
Warner
Say
harsh
##hl
##case
controller
java
adap
amendment
hosts
tweets
##lee
bombing
junior
Na
Nature
Ts
##riors
knife
boom
abstract
Holy
dual
##emic
poet
1984
variables
##adesh
Modi
Modern
inquiry
91
expenses
summit
existed
Vlad
##TON
##acher
Adams
struggles
brutal
Ta
##erg
refers
fi
impacts
Jeremy
Luke
dreams
sophistic
cabinet
Whatever
peaceful
steady
inevitable
cens
Band
speculation
Convention
FR
Phys
teeth
interior
agreements
Looking
entrance
mortgage
Nap
Rome
Station
provider
occasional
strengthen
nervous
LS
leaked
fundra
Small
analysts
Pir
##rove
##achment
imper
##gged
camps
packages
ET
##friend
engaging
Imag
EX
##But
endors
shelter
desperate
Try
compound
guards
Overall
acquis
Collins
Lad
##bian
outcomes
confusion
curious
ancest
##ussell
Independent
bureauc
describing
artificial
Nob
dies
productive
##break
Pa
##CA
Perry
##28
Charlott
Heart
##annon
kicked
##Error
Cold
##ishers
##acles
##alled
ally
epic
tower
bombs
##iox
##tery
##aders
decor
1987
flavor
rebuild
Ukrainian
cognitive
justify
retro
Tesla
Dragon
complexity
bacteria
##LY
vit
outstanding
peer
oxygen
Marg
Ow
font
##iens
##thur
nowhere
creatures
1979
unnecess
fingers
Comb
hiring
##atively
1986
trailer
##elle
chips
contrary
##lusions
Edition
passenger
##ailed
Talk
##osa
synd
Climate
gadgets
chronic
operator
surprisingly
fucking
Et
tar
##olm
asc
suck
##oker
robust
desktop
Ni
theft
Beck
chaos
BL
##aya
leak
Mississ
Return
Fight
garden
##onz
delight
pleasure
angle
msg
Baker
##Re
inaug
Anti
qualified
nurs
Product
Flash
Chairman
Dod
##bes
indu
influenced
challenged
Financial
MD
deemed
wondering
gym
##no
assembly
##ptions
Reid
thri
pride
ministers
lobb
burned
Antonio
Len
##eek
##chell
Ottawa
Pittsburgh
Gh
Osc
Tell
venture
##leans
bone
##istle
##lihood
Indones
equipped
Abd
transparency
##29
belt
editorial
courtesy
reluct
routes
360
Tam
Var
simultaneously
Dak
Name
enfor
ES
Jess
briefly
##27
flee
subscribe
Building
CB
Cars
HIV
##llor
##agen
residential
Row
void
reass
consecut
developments
Bart
mm
##kill
##ón
monster
minim
##apper
900
Ga
evolved
Nether
Between
Larry
Es
##Sc
provisions
intimid
##etheless
##oga
probe
patri
agriculture
##TE
##iah
140
Orleans
figured
##ports
keen
parks
130
survived
murdered
Ky
Section
##olving
lifestyle
Griff
wet
Comput
MPs
tragedy
##instein
##endar
restore
##owski
influential
Louisiana
bands
##reshold
researcher
analys
Hub
##onnell
chamber
1985
recalled
barg
hes
##ds
##rition
##owder
singer
Robin
Hitler
Nik
dressed
rhy
##rist
assemb
##uity
choosing
checked
##untu
Victoria
Poké
Russell
dirty
oh
##idal
screw
creator
Crim
attracted
concentration
##izarre
Ja
sque
##oting
hub
sake
##inge
##reck
Coalition
Ward
Mind
golden
configuration
Fif
pm
##26
##inite
refugee
ought
worship
expecting
volunt
##Cont
Alaska
bulk
compromise
tears
##oup
##uther
publish
Reds
prosecution
##ante
Manning
telephone
closest
silent
Rap
fits
recession
visits
##father
promoted
##ige
##imir
polar
cooking
tum
administrative
Dog
bases
null
vent
orange
align
electron
engagement
Peace
Jimmy
GPU
##agu
##astrop
avo
raises
Hamp
##lu
Campbell
Round
##starter
##rup
Philippines
##gal
Dal
alloc
Hop
##oning
##ippi
renewable
##37
Fun
fer
##mir
##ctive
militants
ignor
##iper
presents
modest
caps
##ducing
graphic
101
keyboard
Wy
scared
Princ
jihad
los
politician
occasion
Copyright
bic
designated
neighborhoods
Against
adoption
consecutive
bump
destro
bags
184
organis
examine
Download
Jamie
explicitly
Marshall
##asm
accord
##isms
opposing
expects
characteristics
wedding
Fant
duration
##vation
Poland
panels
lens
shops
evac
filing
popul
Text
robots
Swedish
disappeared
uncertainty
subtle
Beat
libert
surge
releasing
transferred
Rs
attorneys
DR
cinem
##uates
preserve
globe
quantum
Citiz
Rain
mouse
applies
Cloud
Parker
complained
constructed
Drug
Nash
##ca
theater
disabled
functionality
IBM
handled
exploration
premier
Dest
Mand
##ener
alliance
slot
recovered
beef
identical
Regard
derived
interactions
185
layers
Song
##ilst
polling
##resh
Stewart
inbox
##oded
Inn
Block
publisher
conviction
##Station
beaten
Something
households
gut
mice
inhab
Mormon
##etically
fires
planes
Wayne
##ouses
Corporation
chocolate
Forest
Sport
sexually
departments
whis
defended
destination
nationwide
##assion
happiness
##layer
McDonald
intelligent
painting
impressed
algorithm
jurisd
bol
gro
royal
ug
decrease
FOR
##With
accepting
Quebec
sustained
reign
##una
##usting
reck
assists
##imm
secular
McM
forecast
podcast
imperial
Posts
Cry
Stock
realistic
pledge
luxury
Pur
similarly
courage
engines
cops
blamed
detention
dimin
##ampa
brands
Dean
cleared
CBC
tu
tent
##68
Smart
migration
##What
solely
Nich
##emon
donors
slide
projected
creature
Parent
rated
##aments
produces
Chrome
technological
Corp
launching
tel
##math
##state
Neil
senators
suprem
uncomfort
caution
Lady
##alling
absurd
Hans
hunt
iconic
privilege
Mitchell
innovative
delayed
RA
accompanied
UI
imprison
consists
elabor
rifle
Bloomberg
Fi
Nobody
Sessions
##uating
##omic
socialist
fut
##ques
Champions
terrif
Medicare
Fergus
awards
##tains
departure
golf
asp
compelling
manual
poster
circuit
##urricane
tune
##avery
Gener
Interest
Awards
##wa
entities
awful
worthy
celeb
Lie
Lock
Along
Portug
Word
sauce
flights
##appropri
radar
##etta
horrible
##ophob
##aucus
bathroom
Ronald
##FO
##SE
bears
acted
rolled
Beyond
liberty
Knight
praised
COM
Raid
headlines
##limited
1967
tissue
guidance
Lor
advertisement
Tokyo
Less
Own
rewards
amongst
Netherlands
##orge
##erto
invested
Christie
Niger
overnight
Commer
Beh
##JP
unfortunately
mysterious
rivals
##Be
infer
Russians
##lementary
reflects
affects
BE
Dom
tale
overd
ambit
Lucas
Hotel
##aro
160
occupation
Bab
##obby
crossed
bizarre
employer
Mas
Progress
Anyone
voc
##bul
##seless
transc
Nin
##igration
Currently
Mov
##words
##ateful
highway
Comics
productivity
Kurdish
##olitan
js
orbit
##ardo
spotted
##onduct
stopping
density
fet
spray
Stop
arrests
##ART
bip
##wich
##Ps
##So
Nelson
##opes
##earing
##phy
Bah
Election
quietly
authentic
gentle
Benn
##iary
drinks
settle
PlayStation
experimental
IRS
Biden
Doc
Gene
teammates
respected
competitors
Environmental
##str
##eling
coin
empower
collecting
##ILL
grave
EN
##edge
violated
width
Jacob
colleg
lib
boards
nights
beneath
separated
Hawaii
Kit
tier
coins
courses
Assist
Grow
pix
threshold
Hispan
arena
accuracy
Stanley
devastating
SM
##rons
##inally
advised
##ikh
safely
MO
ft
supposedly
Cowboys
bubble
nonpro
backup
seeks
corrupt
cease
Melbourne
parameters
winners
restricted
Due
Rangers
wore
##ders
##utt
Storm
Susan
Fisher
traded
protections
hacking
Rh
pending
ash
##acts
verify
Alberta
pir
##grad
questioning
missiles
balls
Motor
Arkansas
scrutiny
sophisticated
##UM
counties
ME
lady
Stri
regret
meters
possibilities
criteria
logical
examined
##ulse
##vironments
immune
Ec
spy
builds
painful
participating
legislature
discipline
##kward
##alysis
##ockets
relie
longtime
worlds
earning
##afe
1970
350
meets
##angle
Speaker
Occup
appl
interven
catastrop
conflicts
toss
resort
Chapter
viewing
hosting
rebel
Fle
hiding
riders
curve
Franklin
accusations
Ferguson
Aqu
Pel
##Up
Berke
sacrifice
##rot
countless
occasions
lun
wisdom
##oven
proc
Stars
Almost
Speed
addressing
suspension
Queens
RT
##Tw
##aco
conced
intrig
investigated
Congressional
Lions
Tob
lyr
pressing
animation
crossing
favourite
Nat
##rics
comed
serial
Effect
##hop
carrier
##anyahu
bitter
excuse
tension
##aukee
retain
drum
formula
shooter
container
##amous
stir
anch
1981
Morning
converted
##CE
bell
islands
Soon
Manager
Liberty
Fu
##38
lighting
Mississippi
##gi
stats
replacing
exploit
prosper
##lists
oldest
electrical
meanwhile
documentation
Commissioner
Money
Native
Tan
pose
##section
balanced
photographs
endless
combine
Ele
Gab
Wiz
##fish
##omach
##star
bugs
lone
chap
partially
annually
Lawrence
aggression
ambitious
Orange
Netanyahu
node
distant
##ASH
##shore
Similarly
orientation
Fa
till
##44
##itate
themes
operational
1973
Bol
Qual
##Un
detained
##overed
mandate
##urities
alph
Stra
commentary
preventing
Jets
##pa
accomplished
wireless
##39
impose
capitalist
FCC
viable
##aval
finishing
##onymous
sons
##waukee
##amine
Profile
Ian
minded
incorrect
venue
Cinc
Eli
##izations
Kirk
jokes
environments
Senior
delegates
HP
fishing
##incess
appearing
painted
speeds
Players
scratch
Lynch
Danny
Fat
Ru
bio
dil
forb
##ersion
Chall
newsletters
Draft
##rod
infant
##ierce
##incial
awa
##claim
Drive
##hero
reserve
startup
damn
Bear
Number
honestly
##overs
##HA
Brandon
demonstration
celebrated
frustration
stun
##icts
##encer
##ugby
crowds
Political
forestry
Fast
Hann
Iss
pension
query
exchanges
Malays
Subscribe
##EMENT
chemicals
Ju
MM
##law
##atre
##ifier
##quest
operators
observations
praise
uncomfortable
Around
##ribed
##ernel
ambassador
Vladimir
DS
Tig
Cann
antib
##pat
##ching
exempt
abund
pricing
Hampshire
BR
composed
##ipher
Hunter
anticipated
##alid
##leep
commands
Asked
exploring
dealt
##IST
preparation
##iors
toll
##ryption
traveled
laptop
Winter
trains
##itement
Todd
Evans
walks
HTML
Huff
immun
##innati
appointment
calculated
tends
thro
prevented
singing
1983
styles
Berkeley
token
controlling
educated
Corps
frustrated
Toy
##igious
##chron
scrap
commod
Saint
##post
whites
##ressing
cruel
Eventually
Kickstarter
tanks
deserves
Chron
Madrid
Olympics
agricultural
CT
##vas
##55
toile
##ocurr
Barry
Milwaukee
Organization
naked
##wart
##bery
##ERE
awkward
permitted
advocacy
Campaign
altogether
WATCH
##orer
indication
confirmation
fascinating
Want
##ivan
availability
Nevertheless
Sac
##mage
tob
##isive
##through
##lected
Arts
##ucker
##fs
##orate
interf
marry
Orthodox
conversion
NG
Nixon
bones
##gate
faculty
pressed
libraries
anth
seeds
residence
##quer
overlook
sentences
Military
Better
coordinator
Bund
Hend
assuming
pregnancy
divorce
lung
loving
##jud
Magazine
reactions
Python
municipal
Fro
String
demo
ensuring
##arios
##uz
summary
DJ
Search
poorly
Pod
##At
Maria
immigrant
Federation
mechanisms
Watson
Hindu
Jake
##ailable
preview
##olds
reflected
clinic
significance
tablet
notably
grants
capability
Eight
sod
Ric
£1
haz
Heat
instantly
suggestions
##ambling
Bri
pays
##erving
Pokémon
Epis
##eno
supporter
Arena
125
Natural
##oub
##oding
##awks
suggestion
Crown
remembered
Patriots
Ry
sher
citizenship
flew
Mom
PAC
trips
judicial
fastest
##ecraft
witnessed
Imagine
##erm
##anim
##artisan
alike
scary
##itty
deport
infection
Christianity
sleeping
Besides
##PI
##UD
##held
stunning
##ologically
Hamas
presumably
displays
Cincinnati
jet
stressed
distribut
conservation
complain
revenues
nan
zones
##MAN
spreading
Legisl
##rah
Alb
processor
Swift
Side
Blu
##http
##icer
shorter
twist
drones
Tampa
##die
##rin
stomach
shocking
priest
Philip
satisfied
##alin
circles
toug
duties
##uably
trapped
inappropri
Stein
Madison
boundaries
Ess
Gand
Roc
ears
##abling
Inside
relatives
essay
marginal
Tea
Neither
gray
patrol
gradually
greenhouse
Chen
delivering
feminist
Ca
mild
offs
clever
probability
installation
experiencing
Kas
##enter
Commons
compliance
dup
##ilation
insect
10th
frozen
bass
##arians
abol
defenders
Treat
hill
##anches
sensor
disclosure
PDF
pub
##UC
##onies
applying
Spr
insane
slavery
mechanics
##gregation
Abbott
Fem
pa
Sciences
devoted
assumption
Jefferson
Domin
LC
##DB
##acular
contents
dispar
editors
tendency
Investig
Tyler
fract
Fried
Mitt
shake
actress
monetary
assured
corn
##books
acceptance
1968
Communist
bonds
Software
##oa
Records
limitations
newspapers
babies
Rio
ritual
offseason
consol
hearts
illegally
##74
females
Conservatives
Cuba
greet
##oples
##lynn
##mented
##outheast
liberals
prayer
NCAA
unnecessary
Cass
FDA
105
revealing
READ
Karl
vaccine
Pick
py
rehab
proclaim
addiction
directions
receives
Terror
Okay
philosoph
rotation
Jen
##Us
##itory
Universe
eleph
epid
##udeau
attendance
Singh
##jan
##icut
##iffer
outer
186
1978
drops
784
mandatory
Express
RC
hostile
focuses
Solar
Rav
sizes
tempt
vague
##verted
historically
Cu
fest
##xus
treaty
flexible
Vin
arguably
divide
enjoying
highlighted
Buck
Cell
dign
por
Advent
Partners
touched
dispos
ugly
floating
MC
furn
##chest
##KE
##aman
##ighed
##rolled
strongest
crops
Kerry
unity
Books
wrapped
rice
##36
##ateur
frank
resigned
ceiling
Benj
Dougl
DVD
Living
##dog
##urches
weaken
incons
technically
steam
##itivity
hopeful
panic
Multi
lake
Blog
completion
expertise
mutual
Cos
Emb
Sor
grip
##iere
##core
Cohen
ly
##gs
intensity
Shan
USD
respective
##graph
prototype
debates
cultiv
determination
##iar
heritage
variation
climb
Sep
nons
composition
contributing
sew
reconst
secured
treating
pictured
mechanical
qualify
hatred
Zero
Inv
resur
cricket
##arget
meth
demol
deliberately
cave
longest
Arthur
McCart
MMA
cous
##IE
##itably
##reek
Safety
Chance
quarters
##ella
##otta
Swiss
heaven
Keith
Glass
pedest
acquisition
CF
mall
surr
ideological
massac
optimistic
FL
##Name
Works
tobacco
Cut
mixture
##agraph
skilled
seventh
Bagh
lanes
Mario
##ugs
breach
Need
Mort
##Qu
placing
unac
Leaf
##coins
1982
firearms
emerge
approaching
shifted
instruments
beneficial
celebration
equity
Past
lip
##liver
lasting
Study
aer
cake
maker
##tics
Stevens
stabil
spacecraft
rocks
##hill
##Bl
##igma
alarm
Century
Gray
declare
hybrid
consequence
flexibility
Murphy
##aria
reserves
knocked
Alt
conclusions
formally
##aughters
Deputy
##oj
##azi
##ortunate
##ycling
respondents
motivation
##iatric
fles
pink
expend
grain
##eller
Arn
enterprise
subsidies
embedded
JS
nick
##WA
modules
planets
structural
##gary
##outing
##pled
Circuit
Yahoo
fright
dose
magical
Fixed
mamm
pione
##rock
difficulties
digit
##és
slave
Meet
mothers
mountains
Vermont
withdrawal
oversight
Buffalo
recount
Trudeau
instinct
filling
Verizon
Maine
Rah
Brand
volunteer
earthquake
Bos
offset
##town
##atile
detected
##loyd
traditions
1977
printing
bedroom
getError
understands
cultures
initiatives
leaf
##ellar
##comed
earnings
##mart
##cious
##arded
desired
Prom
designers
Amb
McConnell
maxim
Members
MB
Si
##feld
elderly
Give
##rection
apiculture
Finn
enhanced
Half
Nort
Sent
whistle
Terry
triggered
Bou
mate
##acies
Chap
##liminary
disturbing
Typ
editing
Connecticut
Dakota
getErrorState
##olo
##rik
swift
declaration
minorities
fluid
AB
File
Gates
##45
affair
misle
cryptocurr
##nty
Chuck
Brus
bottles
buzz
announcing
Fitz
Theatre
resolved
partisan
particles
formerly
destruct
responding
Beng
FS
##ousing
##beat
succeeded
Eagles
animated
trusted
drafted
clicking
GA
Pin
lau
exem
##ATED
denial
adjusted
BY
Kyle
contam
lineback
Getting
Gay
Nep
##mons
##bound
##TIS
welcomed
Rubio
excessive
WWE
Oxford
MI
Mason
Sin
##inging
backl
refusing
Reading
Title
Friends
##err
##ulu
Appar
innings
imagination
verd
REUT
transparent
VA
##oons
##child
Thor
breathing
viral
Making
horn
gov
##IGH
warnings
safer
interrog
sword
pledged
EV
Jar
##All
reply
penalties
scenarios
incentives
Clarke
rhyth
BJP
stocks
##abs
##afi
Wiki
##rov
shirts
attributed
participated
unfortunate
Oscar
Benjamin
Luck
hence
humanitarian
1972
REUTERS
Date
peers
attitudes
barriers
suspicious
ethics
survivors
Rice
bund
reminded
observation
UPD
deciding
Anne
##umbled
computing
achievement
Fish
diox
##gments
moder
Cand
##dale
##uum
##apor
##onda
Peters
rod
finals
lifted
grabbed
doctrine
Pinterest
wings
##odge
detain
boyfriend
nominated
AMD
hackers
Castle
##ernandez
ray
##zes
aftermath
memo
buyers
fraction
suitable
damaging
harmful
Baghd
##onia
##sem
Cho
supplement
Planned
Operation
oriented
bless
earliest
conclude
##oncos
manufacturer
##bage
anarch
##asted
approve
Serge
Merkel
##itzerland
##wall
##75
##estone
Holland
Firef
sends
gover
underc
Broncos
constrain
texts
transformed
rib
romantic
Fab
##llers
breakdown
contacts
Prior
legendary
blacks
audiences
Bryant
sparked
##olphins
##otypes
##ilateral
Forces
identification
feeding
Communications
riot
tragic
##ATION
financing
calendar
Country
##ICE
##iop
##initely
overr
Spider
essence
Bird
Gear
SO
cu
posed
undermine
Phone
Indians
Print
Norway
Ath
##las
##kers
##TR
investing
Too
rumors
Ton
meg
overl
raid
destroying
secrets
Coach
Harvey
explosive
compatible
Episode
CM
##icked
##DAY
teenager
##celona
adaptation
Cambridge
rushed
administer
buttons
Lisa
dece
Switzerland
Photograph
translation
avoided
nonprofit
Islands
operates
cleaning
cycling
transmission
Hait
inhib
decreased
Fel
Lot
bot
wolf
Reed
indicating
conducting
lyrics
Flynn
gaining
examination
diagnosed
##organ
##ims
##istani
vegan
identifying
Must
Truth
gravity
Lane
Rosen
cm
##athon
tutorial
Il
Oliver
condemn
5th
aest
##DR
retrie
waited
Turner
cocaine
##byn
edited
pursuing
cartoon
taxpayer
exped
##azy
Schm
Airport
alternatives
acquire
preval
masses
urge
governing
quotes
##arma
Ubuntu
Either
VP
rall
hungry
GB
##After
transformation
translated
Doug
Universal
Douglas
Bh
masc
nob
directors
organizing
grows
Parenthood
Pap
kg
##vised
admits
collapsed
##ppers
intu
comply
##mph
subt
realm
1969
Working
Urban
Cli
Load
Mission
binding
##mare
##isen
beloved
feared
##world
commissioner
Employ
##VERTIS
Kam
thereby
freely
Joined
Confed
unveiled
DM
Hud
##cia
##gel
reaches
##aphor
depri
immense
casting
Koch
##rust
infring
Barcelona
thirds
Kle
Ped
breakfast
tunnel
DNC
mock
indirect
php
terminal
vertical
##pg
visa
Guy
Dub
silly
conj
trucks
descript
##ropolitan
encryption
vacation
prohibited
colonial
Tun
bust
##48
##iva
flip
runner
believing
credibility
Rank
Unit
Resear
Room
cats
fib
##atoes
##idays
##acent
disg
##anka
testified
generous
1976
condemned
##News
republic
Applic
1975
intentions
helicopter
cord
starter
chop
##ailing
##beit
Germans
portfol
reminder
Spirit
suspicion
Bash
Corbyn
ordin
throws
##icate
##heric
Finance
emotion
Garden
Ghost
powder
founding
Johnny
ACL
recruiting
shifting
Bradley
wrestling
laser
##TION
##hell
##uri
provincial
generating
colleague
Content
##angelical
dioxide
Farm
cam
steep
raped
##iasm
territories
Histor
Rogers
Pun
beers
cheer
societies
Brussels
donation
##ublin
ISBN
affecting
renewed
euro
autonomous
Happy
dirt
##rc
##oft
treatments
arrangement
Maj
Om
Pence
Ring
Tro
Wonder
codes
dumb
decides
template
priorities
certificate
Certain
cra
overh
Close
pilots
Greens
Virt
tong
dubbed
tang
inmates
habits
##ulative
advances
draws
interactive
fict
unh
##duction
layout
unders
##alyst
lobbying
brains
advantages
auction
Venezuela
Saints
counting
calc
regulators
tourists
traditionally
Raiders
execute
isolation
holy
##Book
##How
agrees
appeals
##pert
betray
McL
landl
millenn
kingdom
fuels
temporarily
Soul
marine
##idding
sentiment
Abs
hier
##just
rewr
trace
Stalin
blown
authorized
Harrison
##flow
Memorial
licensed
Gonz
prox
Muham
adequate
Cant
Cover
##dam
smugg
Studios
HR
Rat
tub
##seud
##urred
##ahn
creators
Notes
Enc
mounted
batteries
passionate
##vals
Stay
Newton
failures
Guide
purely
Jennifer
Ebola
Hem
anime
infected
Quick
purchases
1950s
nutri
##lie
##stan
Anim
Sox
18th
##ollah
endorsed
dys
##rus
##brew
##eror
##ighters
unch
strings
##lett
careers
##ACK
Picture
##eston
humor
funeral
##ARD
corporation
##OO
compassion
farming
Seven
observe
armor
encountered
Belgium
boring
##western
bearing
##cha
Devil
paragraph
Bears
tensions
healing
trash
AG
Oz
Rail
##armed
aging
##aux
interference
suppose
accountable
Hopefully
Carson
render
Thunder
##rolls
magnetic
proceedings
licensing
organisations
reflection
classical
excitement
encrypt
paths
magnitude
pupp
SW
##uously
reun
grateful
shoulders
limiting
convenient
Ltd
partial
economist
creativity
filming
traits
colleges
Dublin
Loc
##77
indict
kills
barrier
absent
pleaded
doubled
Walter
screaming
bankruptcy
##AB
empire
Perform
pursuit
wreck
daughters
considers
Arctic
consumed
honour
jumping
routinely
Barbara
Argentina
Apparently
Rou
rever
##etical
lasted
counted
Marco
buses
distinction
publishers
Prize
Nazis
NEW
Bryan
Pred
##FS
recept
churches
worn
reson
grace
urging
ethical
Veter
ox
##ationally
exports
Islamist
sequel
Double
##While
Puerto
##abetes
Salt
##aret
monsters
governance
##ycl
Glenn
purchasing
Buzz
Students
folk
cigarettes
Lebanon
Fame
##LS
Shadow
lined
##Now
##HD
crude
Index
eliminated
Titan
vegetables
dancing
##abil
shed
institutional
warfare
attacker
Contact
penet
gamers
Gate
##low
##aba
Init
##ango
preference
invite
implementing
closure
lengthy
URL
wishes
##mother
##wind
##oard
donated
farms
Neg
Auto
comparable
##keeper
statistical
sheriff
##isers
economies
practically
matching
Cob
shore
invented
Brady
Shel
escaped
Roose
villages
evaluate
Dale
indigenous
strain
demon
triple
trafficking
Target
##embers
leverage
offshore
continuous
economists
labels
Current
nickn
7th
bite
curs
rage
Alice
stroke
Charlotte
Corn
fence
##burn
workforce
directory
Wallace
90s
Hockey
LED
##orph
##utical
glob
##boards
permits
compos
namely
arriving
ultra
meantime
ampl
fitness
##yd
##lev
##uter
##ussion
investor
##utenant
counterparts
Tribune
toy
unrest
disch
Teh
Exc
streak
##iosity
retailers
inappropriate
##88
##itb
sued
inflamm
sensors
imagined
##fr
resume
Exchange
averaged
bloody
Pakistani
Ferr
disappointing
thoroughly
champions
##uez
##cca
##obi
mortality
corresponding
sisters
uk
##sky
References
trap
Object
Sunni
mentally
Computer
##inces
intercept
extends
slower
specialist
1974
Record
deployment
introducing
80s
Rams
##len
effectiveness
1964
Relations
Mul
##owell
arrow
##velt
creep
crying
Tory
##iw
thirty
##ulpt
commented
psychology
UTC
Viol
Wii
##urer
albeit
connecting
wildlife
solidarity
brave
unaccept
VM
horm
redist
Upon
precious
##visor
swimming
midfielder
adapted
Qatar
WR
aired
##izable
defining
Break
medication
QB
sinc
##oin
##ignty
forming
accounting
sooner
celebrity
Brazilian
likelihood
##enna
separation
fundamentally
##uv
##bie
##aceutical
justified
wherever
Browns
Hunt
tribe
##neath
##roller
Gro
Save
##base
compiled
metaphor
supern
negotiate
retreat
threaten
Budget
fierce
##mith
##New
##rior
instruction
##prising
exceptions
unfold
Regional
catal
occurring
Pi
divers
##stock
Altern
tribal
hammer
induced
Wait
##kens
unst
crown
monop
metres
##bean
establishing
accurately
preliminary
genius
midnight
wondered
Highway
timeline
Columbus
Original
kernel
##cular
winds
willingness
##guard
Git
##esis
convey
defect
Prob
170
Amy
Polish
damages
Edwards
novels
gifts
Ave
MIT
cents
branches
Really
Spencer
Edge
Indonesia
##itated
##acket
consume
pizza
unlimited
Alf
memorial
115
encl
##former
Actually
Palestine
Carlos
cub
hood
##DC
##Go
##chi
Plat
privately
Movement
NPR
##ci
##76
##urse
plaint
severely
Method
Enterprise
shifts
wallet
##VERTISEMENT
MAR
PL
halt
regards
##ontin
independently
predictions
disclose
ol
adverse
intake
Reform
##addy
##ugging
Zh
cache
hij
iT
##ridge
##iots
##NS
sheer
128
##forward
Bernard
Cart
teens
lesser
Activ
besides
Michelle
Joh
RS
bind
##km
toys
##urg
metab
laughing
##Post
##itative
##orses
temple
rankings
consultant
##inos
##aws
##othy
Grace
superhero
heroin
hypothesis
Ny
##ori
##arcer
crashed
Spot
sanct
incentive
delicious
Roosevelt
Fan
##31
Thai
Item
Comment
carb
##olly
optional
inevitably
##rane
##FI
firef
dated
##issa
slaughter
Superman
Dennis
Pas
heter
sectors
sho
inclusion
disk
##issance
Desc
civilization
sacred
Tigers
jazz
lap
##aru
##ensen
trauma
grandfather
Homeland
rendering
Nearly
Him
fiber
##inery
##otton
infamous
Agree
Palace
lacking
firmly
accidentally
Systems
Agr
Cher
Spect
problematic
catching
evaluation
parliamentary
Temple
samp
##pen
##UE
fork
env
unanim
Going
1971
admission
##ugged
Iceland
##atus
afterwards
literary
Incre
Self
UPDATE
Gas
Pad
Pere
##rose
transcript
reasoning
plea
spectacular
Chem
##bris
Result
Wells
LG
wolves
##urable
chains
abused
peoples
##INGTON
GMT
911
nit
##eches
Warriors
cooling
rubber
Kate
Vi
##df
nationalist
Regardless
prey
Muhammad
unacceptable
##illo
##umm
Chand
tenure
Studio
outdoor
od
##acker
Prim
airline
Clean
##IVE
Sull
forums
##igm
##ften
##insula
Select
sounded
Officials
linear
Horn
OC
##MB
##isible
##lli
friendship
spirits
Rodrig
legitim
reinfor
auster
##zilla
expose
continent
locals
battlefield
Researchers
dash
##95
Legal
Od
dive
neat
Brun
header
Elsa
eighth
screening
genuinely
Daw
twin
darkness
garbage
analyses
##eor
leaks
convinc
tuned
rushing
deleted
felony
Tar
gri
jew
##edi
enables
workplace
##aha
apology
alternate
climbing
behaviors
Eve
##usters
spare
supportive
dealers
athletic
physician
Pierre
IG
Joy
honey
##ech
##lem
##irable
enl
arranged
Bros
Survey
Fourth
outright
Transportation
verdict
forests
abortions
comparing
Shi
gods
gallery
##wal
##asi
disorders
Spurs
maintains
matched
obligation
wash
colored
filmed
reasonably
switched
Ax
Lost
Mack
REL
##Phot
chase
intensive
##ordable
publications
corners
entries
killings
malware
consolid
origins
billionaire
Hispanic
WA
ware
##Num
Charg
underway
##azed
##roph
organize
accountability
##umbling
variations
Workers
##Trump
Criminal
divid
##otion
shy
meals
Politics
inhabit
##Res
liver
socialism
1965
exhibition
destructive
Maur
gard
##OG
##gian
##adows
##abul
##ocus
interim
successor
avoiding
straightforward
celebrating
Cardinals
Kill
tribute
##ieval
##ickets
##borne
Server
astronaut
Tol
pp
sink
##aste
indef
locally
Recently
appealing
plugin
facilitate
fli
##uto
##unct
portra
Imperial
Representatives
Phillips
##piece
##style
whilst
artif
considerably
archae
unlaw
##oubted
craw
##ppo
Counter
determining
exercises
flesh
Dear
RAM
liv
##stri
##iments
##ueller
##raham
##track
SF
cher
##First
##pace
reception
grat
sexuality
Gallery
attributes
##grade
acres
Someone
accompany
veto
##fits
rect
##aku
insists
median
Colomb
Calgary
desperately
sovereignty
##nik
##yard
haul
plates
outlet
triumph
Bobby
motorc
cancelled
Mi
specified
expressing
exceptional
wooden
prescription
Mix
Woman
cort
##ounded
Beast
translate
##escope
enthusiasm
Jav
dense
fame
##owners
amend
##cules
chemistry
laboratory
Legend
Scientology
Bennett
iTunes
##zb
intens
##ovic
slip
inflic
declining
##ogenic
travelling
vigil
Gor
exagger
charter
##valid
subscription
Marcus
Occupy
Fly
heated
quo
flowers
libertarian
hey
13th
diagnosis
leaning
Jong
Nas
##ocker
modes
##security
persist
unsu
tolerance
Blair
classroom
Account
responsibilities
Hills
Palin
mobil
Feder
clouds
Scientists
Ultimately
utterly
austerity
BB
##omer
##uting
suits
impl
opio
##ombie
Everybody
exhaust
Kind
Pyr
##osures
##anded
impress
12th
traum
##Leaks
##yang
enabling
underneath
11th
Billy
##iciary
Got
Kath
##IO
yours
Shah
carriers
Resources
divisions
tactical
Village
Diamond
GR
pale
ts
##arted
quad
monument
detection
confusing
meter
uncons
substantially
galaxy
pronounced
Grey
spill
##astically
relating
demonstrations
Surv
##rocery
Tehran
##itbart
UA
relate
delays
##eem
##View
##onge
leather
supplied
##author
##ALL
Electric
misleading
Ald
grey
£2
##map
##page
unpr
##amps
hearings
Goldman
Holmes
observers
grie
ster
##ooting
##uki
teenage
helmet
reluctant
TD
Wa
cab
ner
##rament
##hett
spite
folder
##azines
solved
IL
Ori
Sorry
TS
useless
##eu
altered
##ounding
##retion
snaps
1945
kicking
Denmark
elaborate
overhaul
Hat
Mode
Till
zip
pepper
recalls
garage
puzzle
BP
padd
sie
##olutions
drift
tradem
lawsuits
calories
edges
err
assumptions
searches
Cond
wand
##airy
Deal
Advertisements
listing
albums
Semit
resignation
Assistant
shipped
intend
104
Whats
arrangements
GPS
##Donald
##arc
##reach
prest
parade
diabetes
smartphones
licenses
resistant
Hallow
Path
laug
##Is
##Wor
##asma
neo
impair
Forum
headline
costly
Flight
credible
denying
briefing
##oubtedly
Lay
binary
pants
##kh
Training
reduces
Hero
portfolio
Juan
##erver
##essional
##opa
slaves
sensitivity
commerce
Liberals
Fantasy
NDP
wip
##zi
##aton
meta
##airo
striker
Krist
Baghdad
##di
##TO
##Con
##roduction
Help
cosm
Celt
##pin
impe
1960
blogs
Brothers
##gie
##En
insights
marketplace
##forcement
belongs
juice
accommodate
750
Kel
##uro
debris
leap
wrap
passive
strictly
fulfill
martial
Lic
##hner
##ripp
incoming
##OST
graduates
Magn
flooding
Joint
Lang
fancy
fusion
##itis
thumb
outlined
Stu
Unless
genoc
revised
verb
Joshua
Jessica
Opt
aide
nort
##SC
##otine
##idth
straw
##ailand
contractors
snap
laughs
Laura
mathematical
laughed
fare
fisher
##erable
##iri
##terior
Chamber
prevention
recommendation
Girls
slic
##eason
##inates
##orp
Collect
ignoring
Ahmed
stimulus
Mine
Nine
bikes
tube
##advant
sail
prejud
medal
Quinn
Ground
Kane
Nag
Zion
##car
cluster
##comm
arbitrary
OP
ram
în
##days
unle
manages
Chad
##lington
expressions
loyalty
##munition
apt
vel
##avy
##enson
brick
violating
functioning
##puted
Richmond
fortun
Were
##master
ing
achieving
##marks
freshman
Rachel
Immigration
sealed
aggreg
##ools
predomin
frustrating
Travel
Griffin
##olan
aspir
shower
Invalid
##iph
processed
Carr
casualties
nonsense
Ide
ward
##je
boats
##ervation
propri
Gandhi
Days
luc
##rams
stays
salaries
Create
Kos
dun
dangers
inability
delete
leagues
murders
historian
Silicon
syndrome
##semble
Hig
Together
foul
pile
##vious
outbreak
##actic
amateur
##blem
##ocaust
Sullivan
Pil
Winn
batch
cum
demographic
Strong
quantity
Welcome
Member
Years
cure
cute
##oner
##usk
sculpt
##ITH
Additional
shutdown
navigate
theoretical
Vikings
Mueller
##Comp
##uru
firearm
packs
Apoll
obligations
entrepreneurs
##mod
##hend
orchest
##ittees
##manuel
presidents
nuts
tricky
clarity
Hughes
Laden
wounds
liability
Blues
Thailand
intersection
summon
##iliation
Privacy
pseud
##100
agg
valued
urgent
horiz
measurements
defendant
aides
seal
##opard
wheels
pretend
Ster
##98
plag
credential
spotlight
sporting
Throughout
Abr
incomes
disadvant
##iking
solving
Clearly
disclosed
coastal
assembled
Baby
Bishop
Nut
gau
pause
generic
49ers
Bangl
philosophical
Pic
Poly
Raf
verbal
Breitbart
Arabic
skeptical
Roth
si
##etics
##illery
##ulous
drilling
##AST
organizers
bipartisan
PT
##nesty
restored
risen
statue
Globe
##zech
##holder
athlete
Hello
photographer
Nobel
Ib
Wing
##riages
##anth
refusal
credited
stealing
vendors
Kan
##mines
##67
##oline
spat
lips
incumb
repos
##overy
Colin
protective
breakthrough
shootings
Race
aston
##rained
musicians
massacre
Halloween
Made
united
Ask
relies
cares
communist
Drag
stepping
Defence
Sudan
ER
Nathan
aug
fart
##mel
##idges
##ecessor
##urring
characterized
##offs
confidential
exploitation
Aleppo
Nashville
advers
newest
minus
subway
17th
Posted
permanently
Bott
drought
dwar
tha
incarcer
##fulness
##otto
##umbl
regulate
##ITY
embassy
fictional
Fur
Hur
grocery
ports
seam
##wealth
speeches
Commander
descend
Sandy
puck
##tail
##keys
divine
harvest
initiated
labeled
anonymity
##ASHINGTON
Tru
bay
##lass
##giving
charts
spends
##rones
ALL
mature
pars
extending
surveys
automated
Rud
##ocity
opted
##IDS
Dynam
HBO
##ND
##abad
subjected
midst
Soccer
streams
beside
throat
Airl
Gam
Pink
gi
loses
##hard
teenagers
##laimed
portrayed
TC
##Skill
donor
Clay
refund
summar
magazines
precision
Montana
Rodgers
algorithms
linebacker
TE
Wire
satur
cancel
appet
grasp
freeze
declaring
##borough
consistency
mentions
confronted
jurisdiction
toilet
##iang
influences
biology
##agonist
analyze
Fortunately
##watch
##asse
Analysis
centered
sketch
##ync
loading
columns
WikiLeaks
psy
alumin
Animal
##atherine
Princess
Starting
Commerce
tant
##lessness
Question
endorsement
Jared
hunger
euros
Brotherhood
Learn
mant
ye
##vi
twelve
shelf
##ovo
guilt
poses
1966
sponsor
Belgian
correlation
Often
melt
seiz
reset
blend
##ahl
Colon
mistaken
achievements
disappointment
ADVERTISEMENT
Costa
revenge
Born
Touch
##lation
##fo
tricks
flower
Process
holders
##ungle
predecessor
irrit
varying
Hi
Mak
##kind
##fix
##arming
##ensional
ammunition
costume
Israelis
Metal
Angela
Chiefs
Chancellor
##omo
Comic
triv
lovely
objectives
infections
Malaysia
Batt
sticks
##ulent
prisons
Shop
sweeping
qualities
frankly
McCarthy
##vol
##istically
accidents
decks
indie
donate
Carib
sweat
evolutionary
embraced
Movie
dignity
Mull
Trav
sheets
Isa
16th
kindNum
reviewing
lesbian
##eenth
##More
##Ob
##stop
##iga
listened
consuming
tourism
villain
Mohammed
excluded
tongue
Curt
Mall
Rush
completing
Eddie
arrives
tournaments
revelations
sovereign
CSS
TX
oz
pipe
pockets
##01
Brig
chess
Minor
deterior
laying
negotiating
Join
precedent
Creek
pad
piv
##UP
playback
##adequ
intentionally
misconduct
Large
messaging
copper
Snap
Duncan
Hungary
Dut
Ey
Va
heal
##osi
guided
broadband
cycles
Planet
Catal
Drew
Zach
##42
##amy
Armen
Shield
##ORT
Courtesy
settlements
doubts
exhibit
Customer
fond
sect
Chip
Arc
sells
buffer
Citizens
Sau
mph
sixt
reiter
##agging
aboard
##ivic
##roportion
Interview
grandmother
manufactured
sanction
Jesse
tactic
CO2
Cool
EP
nodes
rings
##85
##riel
proving
##ocument
dispens
troubled
##ottenham
malicious
convenience
bureaucrat
Agreement
Mans
affirm
175
extremist
bandw
commitments
Basically
Raw
underw
Border
LLC
MVP
relent
miner
15th
breed
victories
##lickr
Few
Taking
##oko
overtime
facial
swept
presenting
Parks
mobility
tourist
vessel
Jobs
Kor
NET
kicks
##ão
##amped
Shaw
activated
Austria
necessity
tackles
navigation
Affordable
Bulls
discourse
Tib
bout
relied
stones
##irical
concess
frames
106
eventual
##culus
bullets
affiliated
##gt
Chile
invalid
Heritage
glasses
Foster
Kin
Luther
##iology
##Net
tokens
Rey
##remlin
identities
analyzed
Protest
HTTP
Pub
nest
##ioned
##quis
backers
111
glory
financially
mathematics
cousin
AV
aka
tatt
businessman
violate
##mingham
1963
demonstrates
Autom
fundraising
diver
pec
shapes
lease
newer
##ormal
drill
Syn
questionable
Nexus
##ported
electronics
Czech
Sold
Screen
skull
variant
pressures
##ealous
priorit
locker
Late
nost
##pack
##amo
stark
yout
flows
##plex
Palm
crowded
troubles
dominance
suburbs
Airlines
erect
ank
##ogg
Indianapolis
Brooks
spells
deposits
##wing
##storm
##iances
109
surpl
##hereum
Advanced
subscribing
GS
Gir
pup
##ido
##olar
##uns
corrid
telecom
graduated
Student
concentrated
revelation
touchdowns
voluntary
Apollo
pel
##wick
##oni
##orable
preserved
medi
currencies
volumes
disproportion
Added
vulnerability
globally
Cab
Voice
endang
sometime
inspire
Breaking
fifty
muscles
Alpha
gly
caut
upgrades
symbols
##irk
aligned
##ghai
McN
Month
Garcia
##monton
apologize
Dj
EM
Mitch
von
worries
militant
foreigners
rebell
hacked
fortune
Machine
##ifferent
convincing
HTC
stakes
##onde
provinces
infinite
prediction
defendants
backlash
Material
Sale
lately
inadequ
socially
taxi
14th
persistent
undoubtedly
unconst
Wim
dread
ende
terrain
Allah
premiere
schemes
tribes
unsuccess
Dim
SL
##BE
##Image
oral
lacks
legislators
Finland
cyn
eleg
semin
saves
disability
defines
##iciency
##breaking
Shortly
Cou
Fac
Yellow
oun
overly
Admin
organised
##INE
##ipper
satisfaction
##ulsion
GOOD
Aub
Hob
##sis
aliens
committing
##xton
proves
factories
vacuum
interpreted
Ident
Buddhist
mi
##erman
conform
##sson
equation
analog
secretly
misunder
fixes
hydrogen
NV
Nancy
hedge
horses
wheat
intermedi
invisible
Shin
readily
##engu
##affe
dominate
turb
Usually
Julian
Zimmer
pairs
android
unbel
Bour
Sens
Tottenham
hind
jam
##orig
shook
miners
pitcher
##Des
priced
stranger
boots
definitive
Samuel
Pete
##names
##heastern
famously
artwork
lethal
Latino
habitat
neural
Anc
Democracy
caf
specialized
associations
sticking
switching
searched
Birmingham
AA
fitting
##athetic
##oust
relying
103
Hurricane
##jar
notorious
voiced
Caribbean
Housing
nasty
##roots
wholes
Bron
airpl
Karen
Visit
affiliate
6th
CP
UP
##72
prone
##acht
Arg
realised
slice
##ischer
Complete
Emily
##ECT
Bills
##levant
##osity
Lex
patents
Edmonton
Alexand
narc
kilometers
Kash
Tu
las
Bright
artistic
varied
educate
dissent
barrels
Yale
ma
rab
brewery
Weekly
Kaz
bypass
doi
resid
108
8th
Goth
Host
Kremlin
cargo
foster
##ulin
##occ
hardest
Prosecut
swall
contractor
##castle
Jeffrey
Lower
wield
##mouth
##EP
##ceans
##liers
retained
fixing
rolls
Dad
Pret
dorm
##vo
##tic
##ski
##hu
##atics
##oria
##intage
dragon
photography
downloaded
fingerprint
Boehner
suburban
ub
##hots
##aires
assaulted
Merced
MSN
dragged
duo
Engineering
annoying
Dra
MR
cattle
src
##opic
##ribly
transfers
policing
Barn
broadc
renov
RO
Wes
aqu
##run
surpass
prevents
crews
Holocaust
oversee
Luis
##49
##icides
##kees
proxy
##fty
signatures
nightmare
Compan
##van
##Read
stagg
profitable
Updated
culmin
Sources
Ul
Wang
cro
abuses
plaus
Specific
Creative
jacket
Cox
Dawn
Kenny
##AG
##acious
##roe
##outed
broadly
inherent
##racept
Firefox
lighter
##unc
specify
ERA
FIF
Sah
##soever
commem
undermin
expectation
reactor
worrying
Continued
feminism
Banks
nerve
vi
nicely
overturn
Wizards
DL
Task
nurse
##eur
##esity
trim
acute
entertaining
tracked
Bayern
Gibson
alpha
Cancer
GN
Mann
dug
pond
rats
vowed
##making
clause
Coming
##ICK
touching
physicians
FOX
haun
##ostic
unint
overth
102
##ahan
Proper
denies
encourages
Baseball
Bed
Moss
ost
implicit
invitation
##rophy
drain
economically
Generation
Panthers
mim
tyr
##eut
##inis
suited
##oute
coat
Clin
##aneous
rises
Assange
extremists
Tommy
Hudson
Rule
aster
stub
ate
maneu
Hezb
disconn
Leave
##erness
booth
Doll
dynamics
Pix
Tourn
gaps
##tage
##mi
##after
heating
Butler
basement
complaining
substitute
aiming
##entions
backwards
##ucle
Greater
entrepreneur
##omi
unrel
attribute
troubling
aggressively
Pictures
Lion
Tak
##achers
reconc
implies
Trad
##ennial
##atican
inspiring
Erd
flaws
Hernandez
##HC
enroll
intact
##ouncing
shortage
starring
sponsors
macro
Cav
##ancies
modify
Flint
multiplayer
ladder
Mis
##NT
##inho
##otation
##adata
pole
remembers
mixing
Ern
Official
correspondent
TODAY
blew
neighbourhood
Aven
Ye
mol
trump
unaware
disgr
backd
propose
facebook
stripped
Musk
uncovered
confrontation
Classic
deliberate
flawed
Cabinet
Dian
##EY
##itches
##anto
rooted
distress
imports
measuring
belonging
##abbi
##strong
F1
Match
bour
sab
£5
##oos
evangelical
flies
##urrent
designing
separately
rejection
AK
Bannon
bod
oven
##69
fines
farmer
USS
skip
banner
sharply
##market
Boeing
##iblical
poetry
epidemic
Pract
Tree
rou
##ión
beast
whatsoever
Webs
makeup
publicity
##ospel
morality
Integr
contributor
sequences
Hab
##cat
criticised
regulated
Anyway
SB
Wade
dy
##ayed
orb
Fran
##iciently
eliminating
vaccines
neighboring
Especially
anchor
sincere
unlawful
horizont
Mes
Mol
Sett
##CO
##aky
##uda
perce
##respect
Seb
9th
Kids
Langu
TB
ty
##eta
##olics
##oping
##ando
chairs
whoever
misd
Similar
attraction
##accur
distinguish
Chronicle
Por
##ovich
downs
turnout
Otherwise
categor
cigarette
Freder
##umblr
Ging
Vatican
hilar
ta
##uh
##iche
outfit
evolve
genome
colony
handy
##azor
##ierra
reminds
Listen
duplic
diamond
rans
dear
Reyn
continually
privat
embry
preferences
dimensions
symbolic
Lenin
BS
##esta
React
issuing
flowing
blowing
manipulation
dictators
Private
##colm
##kar
encom
teaches
arise
attach
Seah
critically
Sacrament
ml
tags
##zel
upside
feas
Beaut
Fla
assisted
seekers
Connor
theaters
##ocumented
unconstitutional
WAR
##omon
##idt
lever
offence
Reb
Agent
1930s
unlock
overwhelmingly
Mig
caucus
lazy
tooth
##endra
medieval
attackers
pharmaceutical
recreational
Challenge
PK
Trip
##igs
##opy
107
illusion
premise
rifles
Strike
constraints
Probably
Sach
pork
beans
##ushed
undergo
patience
disputes
##OME
Joel
holidays
recipes
Independence
##tra
weaker
Sex
shareholders
texture
consultation
Traff
Authorities
neutrality
obstacles
##namese
Rico
##py
suite
intends
conting
justification
##erte
Collection
forthcoming
reversed
##ranean
lending
adoles
restrain
##braska
##screen
youngest
Minne
religions
uncle
parked
Register
lifting
##points
paintings
ICE
Pearl
Shanghai
Hezbollah
cups
##px
##ede
complim
contracept
Consumer
ambul
Single
MLB
enacted
ignorance
bats
sir
##gom
##IX
clash
##eneg
Martine
cryptocurrency
Bangladesh
Num
WE
witch
##nia
##atched
##ambers
corps
postp
##writer
Formula
prolong
Loading
overhead
repet
##pring
##ashi
Reports
digest
Athlet
credentials
AFL
sci
##nex
Coin
liberties
Compet
robbery
dismant
satisfy
appreciated
elevated
embarrassing
Job
Rivers
RPG
hated
mana
##ometer
240
Monster
Woods
kilometres
bicycle
Fo
Math
Rab
Sri
committees
##resa
illum
thrilled
submission
Vietnamese
ego
stap
knees
preseason
submar
retal
commissioned
garner
##mmet
vessels
Diet
junk
##No
##eton
##iaz
themed
accusing
systematic
Twenty
practicing
url
calculations
towers
bosses
livest
AIDS
SR
vic
##hou
##0F
ours
Prison
administrators
THIS
Salv
neurons
encompass
Drop
Ko
Kap
##Of
##cill
Chan
projections
purple
Abraham
integrate
certified
injection
##Advertisement
mosque
Mercedes
Bin
Bapt
Lives
bru
##OV
##zan
reop
stole
teammate
nonetheless
Minneapolis
Jur
##uction
##itutes
inaccur
outlook
handgun
refere
Beer
ruin
HE
Youth
°C
unhe
##ometown
nationally
tablets
scripts
Crimea
memorable
terrifying
Fine
##Here
##edict
##ainable
##astrous
Weather
Newcastle
refuses
##attering
Nebraska
staffers
##heimer
subscribers
##with
hem
##ulates
intimate
incorporated
DI
mush
##BER
##orr
##ulator
##asting
##aley
oppression
breeding
internationally
favored
qualifying
Strange
compromised
ninth
Mercury
##asures
fores
compact
Weap
investigative
companion
linking
Malcolm
encounters
Operations
rendered
Cyber
iter
Brend
transpl
tenants
Outside
boundary
naval
prayers
genocide
SQL
rental
##cr
##asive
##agged
compounds
depict
Presidential
nationalism
injust
favorable
displaystyle
Broadway
Commonwealth
Portugal
Bald
mud
##LD
##atable
##ifully
Thous
descent
Unity
trio
storyt
coupled
hotels
Recent
examining
Catholics
steadily
youtube
Body
ال
##dess
##nan
##87
##xx
disgu
founders
112
135
traject
450
launches
surveyed
Packers
Perez
Hence
gotta
pistol
##isb
##ican
##oured
dishes
startups
caring
metric
promin
obsessed
##pit
##ourse
disastrous
adjacent
Industry
Site
Sweet
Zen
##Rep
##ithub
congr
1950
fever
ber
##olver
Unc
reloc
distribute
elites
risky
##lining
Simply
emphasized
pitching
##bledon
anthrop
Travis
FIFA
dining
ling
##qual
immin
Twin
consulting
tuition
TM
mg
##89
##human
smiling
Glen
surviving
Boys
Horse
Cuban
Norman
irrelevant
WASHINGTON
##uer
##ür
chasing
centres
disturb
##ORK
offerings
Delaware
interpre
Walmart
Matthews
contradict
Wimbledon
LE
SK
dairy
##found
##47
beats
ons
staring
##prises
soundtrack
recovering
hazard
Ravens
Dere
Kay
duck
##umar
##ggle
factions
##asha
metadata
profiles
receivers
threatens
networking
archive
Wheel
Trail
synthetic
Armstrong
molecules
Casey
fertil
Nigeria
##imeter
shaking
compiler
unin
grim
trades
impacted
dressing
satellites
benchmark
pornography
Tibet
Sacramento
Paper
##ucc
blunt
simulation
imported
ecological
unwilling
Critics
sid
##oku
mindset
packaging
castle
Arnold
Dise
##onut
##icians
chrom
##obile
needing
##aho
accounted
##elta
##shot
horizon
merit
Writing
concludes
Damasc
Wildlife
simpler
Junior
Margaret
##unks
enters
1944
celebrities
CDC
reproductive
Fighter
nt
Anonymous
Armed
campaigning
Mini
horrific
Detect
calculate
Darwin
coding
GP
Pew
mes
Initi
##phis
220
Interior
##respons
proceeds
crackdown
Published
Gingrich
##ée
##enh
##icits
feud
Release
##arged
##iotics
threads
Herald
cere
naming
##uy
##irmed
##version
ordering
Heroes
applicable
mounting
Richardson
obscure
Seahawks
4K
##elsh
Newslet
connectivity
##REE
Beta
dimension
Officers
litigation
clarify
assassination
indictment
Gore
Sny
maj
£3
##zo
Strip
blade
wrist
diff
insuff
deputies
Palmer
boycott
##anchez
RELATED
Dolphins
Matter
Powell
Witness
diam
rivers
rugby
##pers
##isco
##igo
conferences
inclusive
landmark
joins
ballots
budgets
##ventions
assessed
censorship
Bog
jets
##rill
##hn
##kell
succ
shoe
chim
envision
individ
studios
PhD
collision
##iculum
Damascus
Nad
##rolling
deer
##ushing
##ocy
Champion
sheep
##otherap
##inski
dried
positioned
conscience
Henderson
encrypted
##YS
anytime
Appro
lacked
Previous
Burton
assignment
EA
Haz
Tiger
scattered
Comcast
glance
smallest
travels
predictable
Attack
ambig
Import
pitched
apartments
Ellis
Rodriguez
Fischer
Mons
greed
##rehend
finale
depicted
convictions
collar
guarantees
Titans
unemployed
bleeding
Personal
noble
surplus
Fear
pul
##vance
##izers
smiled
##uffed
professors
##oulos
##OWN
Performance
Ferrari
unbeliev
Tournament
Fans
##Add
##fold
##actory
organisms
strengths
forgot
Cubs
Redskins
Cash
Stories
deserved
cyclists
loads
prosperity
Rules
##tag
##From
##quir
Starb
Ashley
counterpart
Abdul
Evil
XL
tv
unsp
Sha
corp
sounding
##OSE
Berg
proclaimed
Hack
Sanchez
lb
##eze
##uming
##endered
Lead
behave
candy
1962
Socialist
crafted
juven
astronom
intriguing
##bab
fruits
##udge
Stream
Noah
pleasant
PS4
##iblings
fleeing
Crystal
BA
##04
##53
##ummy
bloc
activation
measurement
Surface
shouted
adventures
Steelers
Esc
Sierra
##Me
##ongh
atroc
offenders
discretion
realise
recordings
##ographical
Memphis
writings
Lightning
##gomery
Graph
HA
##rage
##Col
##UI
std
deficits
114
neglig
pursued
battling
Statistics
deposit
Springs
Bomb
Din
Oculus
Wow
gre
nail
topped
##idi
##irs
inte
Brain
paras
portable
backgrounds
Solid
dimensional
Motors
Led
##code
##Acc
##07
Chase
coher
lightly
nodded
Snyder
Cairo
Wals
ranges
##Man
stint
##ainted
lik
##ecd
##conn
banning
delivers
Simp
undocumented
##That
crystal
Stephan
deriv
mentality
anxious
Television
yields
Leonard
Zone
lamb
tire
##Id
##igue
disputed
##ographer
norms
biased
Details
cooked
LGBTQ
Originally
Industrial
Sr
dot
##ampton
##ilitation
notified
Strateg
Cyp
Maz
##nis
##inters
forfe
Fredd
obesity
##ranium
collections
##block
randomly
inventory
flavors
Queensland
Brien
soup
manga
##minster
##ANT
prisoner
emotionally
concealed
Adventure
Certainly
cad
cope
##ershe
##mental
spear
soy
clashes
Choice
Always
##quez
Filip
Brewing
Observ
tougher
Dw
Gaming
Seth
heels
##ifiers
USC
exploded
glimp
prompting
Pyong
Telegraph
travelled
bored
hike
##mund
##FT
##Ind
decay
locate
refres
Serb
curb
prohibition
Ethereum
glimpse
Husse
##hart
##bull
##52
##arious
inexp
wasted
finances
chef
Parad
spreads
behavioral
NYC
parameter
elephant
rallies
Liqu
pestic
##think
Bengh
congrat
Cer
vag
##ente
spying
incon
manually
scal
Answ
Begin
audit
proteins
##aternity
git
penc
tender
##Do
brush
slim
slated
artic
Shep
##uffle
advisers
grassroots
unpredict
Node
dare
eternal
##BL
##aic
##bard
depressed
##END
petSkill
##addafi
inherited
Majority
moist
Potter
commodity
aesthetic
trademark
TPP
Walt
Welsh
mapping
##edIn
atop
contempt
##auer
addict
defenses
mines
discipl
electorate
customs
talents
progression
eaten
Montgomery
upgraded
academics
Hass
##function
##ilers
##emet
##ifiable
lied
##hedral
desires
acre
lightning
starters
slee
##IGHT
AIR
Lith
siblings
##RO
##etz
##imedia
##oder
Cha
crap
gram
freel
Randy
Faith
Benghazi
Camb
grief
##lav
##Not
##bone
ink
Europeans
##linary
teachings
Yankees
Vincent
launder
rhythm
Cape
Gem
WITH
##evelop
##cially
defer
securing
explored
Individual
skate
lowered
punished
Ahmad
float
phenomena
UCLA
Haiti
intuitive
Virtual
bent
eld
sided
notification
##antom
strangers
127
opener
honored
virtue
variants
remotely
Pyongyang
Pul
##DE
##oda
chick
##ptic
furniture
unhappy
Martinez
Gaz
Ral
##don
neglect
Enjoy
recruited
instructed
inspection
Nuclear
Send
WS
gates
ion
tract
disreg
invention
##opez
horrif
##recy
efficiently
absorb
enforced
hometown
##ti
##uj
##XT
##ref
chunk
uphold
peripher
Requ
collectively
rebounds
##AME
integral
##izzard
inherit
microp
blanket
relaxed
supremac
ACLU
##original
Crew
GC
NHS
##Some
##97
##asa
offline
constitute
dealer
Schools
watches
bullying
alerts
cater
##hum
glac
potent
installing
Milan
queue
pund
##rez
weighed
##enched
Production
generates
ineffect
containers
Ethiop
jersey
merchand
inadequate
Einstein
Lopez
forem
shark
Meg
dialect
forecl
unconscious
Bak
Dust
Honda
jpg
##ía
abrupt
unav
scales
Northwest
energ
indicator
fueled
nutrition
scholarship
Leafs
trivial
Jedi
##oqu
posters
footprint
confirms
rockets
Kurds
niche
fortunate
Bee
Clear
dude
pets
##án
stall
clearing
infilt
eyed
temp
organs
Apart
accordance
ordinance
aluminum
rides
##note
##Time
forty
##imity
outline
Alban
burgl
sensible
##ELL
columnist
brewing
Ultimate
inhabitants
MSNBC
Hundred
Sid
##dr
##anting
##astian
critique
improper
recognised
ambition
lecture
bees
##iao
Heavy
Enforcement
##ASS
remainder
ninet
descriptions
Newsletter
Fresh
cyl
conceived
sue
Stre
resent
continuously
singles
treats
sweep
gesture
catastrophic
Absolute
Burr
Mong
lingu
segments
chron
suppress
Except
##osphere
cookies
atmospheric
##aternal
Lan
Southeast
jar
tales
wished
##Fi
##bird
##gging
treasure
Norwe
Basic
Architect
shouting
foremost
##fig
chlor
gren
Ana
competitor
matrix
digging
catalog
ankle
imminent
70s
Jet
RBI
Vent
pdf
##GH
plun
showcase
comeback
gluten
sufficiently
Switch
Transit
irony
premiums
##Upd
Huffington
staggering
Belt
Flickr
Sgt
ain
gambling
piano
##Type
##stall
asleep
##cht
genetically
Senators
halfway
touches
wildly
defeating
Squad
shelves
displaced
Jos
PV
Sak
fost
hurd
##lon
thy
##inea
grades
Glas
favorites
Includ
appreciation
Panama
venues
bailout
axis
flagship
Lloyd
SV
tended
##43
##96
Theresa
1080
legalization
ISIL
promotional
Anything
Castro
Laboratory
##ophobia
bandwidth
CG
Tap
##leen
##mentioned
evolving
grams
##uffy
statute
##ynasty
machinery
substances
attendees
Munich
IMF
Aur
Ker
##Hub
##achel
##onsider
Forbes
118
authoritarian
characteristic
musician
Schumer
manipulate
Winnipe
Hussein
bans
##uded
indul
##aney
activism
hugely
pitches
navig
railway
overwhelmed
Klein
giants
TIM
rip
provoc
handles
##iker
geomet
databases
homosexuality
Interestingly
Ecu
farther
Male
Wings
lion
forens
##berger
filters
Pride
accordingly
militia
raids
pulls
fathers
comparisons
appealed
Behind
Legislature
Stuart
Hear
##icultural
##ophy
##opoulos
unse
Reilly
numer
117
Subaru
ambitions
Nonetheless
Sadly
##emetery
Culture
##ME
##Or
##imated
##ema
##ifa
imposing
showc
controllers
easiest
Mosul
liquor
Bailey
Website
Kenn
##ement
sphere
canon
Leices
reinforce
decentral
##eanor
Derek
individually
Cel
##iological
##hole
Aside
Barnes
1961
Professional
Curry
Erdogan
Bach
Lanc
##Red
##anas
##ipse
##oba
blat
certainty
averaging
precip
Value
migrant
inputs
um
alarming
pointer
answering
Quant
associates
imagery
Politico
assertion
portrait
IQ
aerial
##erpt
haw
enrich
scroll
##ello
nearest
AMY
Emperor
enthusiastic
Buddhism
Nam
Xi
nucle
##olk
abusive
adher
securities
Marie
freezing
marriages
Euro
excerpt
consisting
Likewise
positively
contributors
hypoc
NSW
slipped
Auburn
CE
VII
Version
jaw
##idity
enrolled
crust
passwords
airstri
recipients
##brook
Schmidt
yoga
##nut
##atisf
covert
Train
116
Evan
Louisville
cooperate
delighted
insects
opioid
incumbent
Brett
EL
Lamb
Mend
Mumb
Vo
##Mod
##atories
sentencing
##String
bonuses
overlooked
CI
Sales
Und
##200
byte
incap
academy
##ietal
probable
##heads
premature
premises
Termin
branded
monitored
proximity
Running
Yam
##heed
##heet
##aters
##oux
##igel
##usc
advancing
kinda
bitcoins
punct
margins
gangs
Gregory
deportation
velocity
Simpson
Dat
Kid
Logan
pyr
ripped
##ei
##eous
##fund
##idy
capita
postseason
gloves
cement
catches
distinctive
syntax
poured
canceled
whisper
chapters
endangered
Cork
Villa
vicious
##tor
##llo
##otics
##urally
stiff
scare
para
curriculum
bihl
sunlight
tastes
satisfying
inherently
molecular
gaze
##My
##Off
##ablo
##arez
##never
Spicer
traders
Mediter
Users
cruise
Croat
cinema
disposal
Bashar
PG
Sadd
dip
oceans
##vity
##CL
meditation
Leaders
fifteen
elimination
SCP
supreme
Falcons
Gabriel
Yu
census
mold
##arak
washed
clue
additions
Shakes
##iko
pastor
##oshi
territorial
advisory
Linda
incorporate
Emergency
lunar
inconsistent
Veterans
legitimacy
Cort
Ruth
ng
##heck
consp
foundations
autism
Kenya
whistlebl
Jama
Sug
stellar
##ersed
happily
boo
explanations
ladies
Luckily
Vot
gorge
##haw
##stage
##ayer
##osaur
poem
Shell
accessed
recognise
faithful
optimal
##aaaa
Limited
Language
Initiative
##iently
inex
##unal
disruption
underest
marking
Perl
Cris
Knights
queen
recipient
inauguration
GOODMAN
Walsh
Cities
FF
cables
tide
##Face
##Int
##isi
ree
Stage
Track
handing
populated
practiced
portions
repeating
verse
Antar
Falls
Innov
Nicholas
nickname
Results
Jill
Lum
Nak
dough
til
##iotic
##pear
adul
Comments
slides
patches
##anners
psychiat
Visual
recruitment
intervene
Cele
Nice
beard
##owitz
wears
blu
carn
##alez
protagonist
Particip
Edin
correction
Moto
Hyd
synchron
surrender
Malt
Vel
##atility
stagn
regen
obl
blogger
unwanted
UT
socket
shadows
spike
grin
selfish
Romania
Sherman
Katie
borrowing
constituents
paradox
plausible
Rut
Wake
icons
##yers
##urry
faction
definitions
promotions
clinics
quantities
scholar
Federer
Mut
Poke
Rew
##itous
anom
Insp
##avid
smok
practition
##secution
transported
##onomic
sophom
dishon
pixel
immunity
methane
siege
Dana
Tab
gases
piss
rs
##rising
##mg
unm
informal
combo
angles
Yesterday
thrust
coordinated
detective
asserted
souls
helm
scarce
atheist
thermal
Mediterranean
Downt
GL
Lav
##ör
##aren
##etooth
Geoff
##ACE
utilities
Prevention
Winnipeg
Jays
KC
NR
##eled
Advert
placement
motive
logging
Thanksgiving
Learning
Representative
Companies
False
##lif
reim
extinction
##orthy
passport
Conway
couch
separat
negotiated
Electronic
Hopkins
Omar
##adays
##rium
##uscript
wholly
guides
varies
applicants
buyer
darker
planted
rescued
Nord
riots
##matic
##houses
exposing
investigator
Gran
emergence
Videos
echoed
minimize
cautious
Reynolds
Easter
Gang
eB
masters
##opular
unauthor
arrog
Shane
morph
combining
sync
uncommon
Pelosi
Baptist
Lag
Moses
dawn
vector
##estly
offenses
apple
coff
redirect
230
bankers
##riters
Disp
adjustments
Eagle
crushed
conceded
Colombia
##esville
##role
secrecy
logs
reflecting
breathe
Insurance
persuade
Tweet
cage
spont
empathy
swap
similarities
Moroc
renowned
Legacy
climbed
elementary
Pirates
appetite
Allow
Pos
VI
##46
##otive
123
homeowners
Indigenous
basics
Depression
1956
##prisingly
Agriculture
predominantly
unrelated
resil
210
Valent
exhausted
coincidence
Ign
Kil
Yor
cabin
som
bee
##idav
##opath
clues
overview
obtaining
distances
classification
originated
Notice
Letter
##ylan
evaluated
cripp
punk
woke
##GL
##IES
anecd
Arrow
Spl
lottery
directing
Pradesh
25th
sensation
embark
1948
adjustment
sacrific
uniforms
##anthrop
Specifically
Norwegian
Mumbai
Average
TW
Ug
oct
##amid
##ilem
1900
olds
processors
protects
Simple
contempl
Mohamed
imprisonment
applaud
Toyota
Brendan
Crypt
Masters
OL
Tories
sic
##ст
##levard
stew
sprint
##isexual
suburb
optical
looph
Summit
hunter
Economics
Coleman
Boss
owe
oath
##andals
plots
inclined
Hebrew
Neur
consisted
tours
Prophet
instrumental
thrive
PP
wives
##vor
##racy
##bin
whales
145
baseline
morally
Resist
1958
literal
administered
Curtis
nostal
Eug
Focus
Hours
erupted
##82
##BR
##bot
##gow
##eto
implied
feather
##cker
Reich
rounded
Fitzg
Kashmir
##babwe
Dire
cant
rows
##Press
##arse
bytes
Thrones
##ogyn
una
interrupt
undergrad
Brent
humble
restoration
understandable
shotgun
Texans
optimism
vastly
woods
astonishing
Ecuador
Kiev
##NG
##Sub
foref
##amiliar
poised
##formed
metaph
119
ski
Internal
Whenever
Idaho
Triple
ancestors
Porter
baking
##ounty
flames
Emir
illustrate
delegation
Cards
Wend
vapor
##Se
##ifics
complement
Adrian
Burke
concentrate
Hod
Same
cel
gru
##MENT
anten
contender
decisive
Param
2000s
Shares
dictator
Conclusion
detainees
aggrav
Hoff
Upper
afore
gently
nevertheless
testify
Guild
homicide
Crist
hyster
embod
awaiting
Ambassador
sanctuary
Drake
Hook
Mik
unequ
slammed
debts
Guant
wrongdo
##ascript
verified
extensively
fragile
undercover
Gonzalez
nutrients
Buc
Jin
Lit
MK
Ple
RB
gmail
lightweight
Write
dietary
phrases
WHO
incompet
outrageous
##Twitter
SI
bang
loot
sq
##bank
accent
governmental
runners
meteor
Colts
workshop
capturing
Quarter
##ictionary
snake
1959
##thening
flooded
utilize
repository
hipp
upward
Rex
cared
booked
Carroll
probation
##ARE
predators
plaintiffs
warehouse
hilarious
##otherapy
Buch
Easy
Mills
sway
##vid
notor
mega
##elly
Coffee
##chedel
Australians
Metropolitan
Winston
vibrant
Ot
Rif
mast
##var
beet
##opping
repay
realities
Marin
Westminster
judged
promotes
##iggs
exploited
bargaining
Thousands
Leicester
Shakespear
##NE
##elong
##okia
unjust
fluct
Oracle
activate
structured
SNP
Starbucks
Bene
rays
##baugh
sciences
Indy
assaults
##clipse
Zimbabwe
Princeton
dysfunction
jewel
Ralph
Sie
##rans
##bb
##Val
##elf
downward
Flavor
conditioning
merger
protesting
rewarded
sampling
CAN
Sit
##Mr
##Feed
##inel
##acerb
seize
attachment
Analy
Clint
campuses
mainland
##text
subjective
##ACT
demonstrators
promptly
trophy
autonomy
BO
Delta
Won
hobby
##bus
##eni
##rea
realizing
slots
competent
##asket
Protect
tightly
feminists
devastated
theatre
Confederate
Cros
Rare
Racing
##lings
##erie
##otiation
forwards
deaf
exotic
##licity
##ibles
proposition
Region
Libyan
Scientific
unnamed
DOJ
Somalia
stunned
aforementioned
doses
##rational
##Br
##ilia
##usions
##eway
crush
reminis
1939
broadcasting
constitutes
bucket
Treaty
trajectory
Craw
Egg
tennis
##Care
exacerb
##abi
contests
Heaven
crises
artillery
Plant
slowed
advocating
Legion
Elder
Nike
litter
pent
##cut
contested
confined
harness
storms
prescribed
mascul
##roleum
##reated
##chat
spam
enlight
viewer
Myth
login
##hetical
welcoming
proceeded
belonged
warns
lucrative
gauge
GET
OH
##Com
##orum
shred
##inement
imaging
137
##uffs
engineered
unfamiliar
automation
Relig
jailed
tropical
diameter
hype
##aque
toggle
clips
##ampire
Anders
Rebe
confisc
demonstrating
hurts
Satan
##upported
Ivan
interfere
Kasich
##frame
Bing
Fail
Mour
lod
vest
##uran
Theory
exert
plum
Style
crashes
##enches
weekends
sexy
revis
fairness
Burns
Geneva
monopoly
##game
expans
combinations
Franken
advisor
Returns
imprisoned
COL
Pengu
##ulk
outlaw
##awi
124
##aiden
responds
misogyn
slowing
unpopular
Edinburgh
Dash
Kurt
##Like
onion
noon
flown
manufacture
reliance
fashioned
vendor
traumatic
Ancient
Jagu
umb
##eks
##57
topp
##char
##rians
shorts
compile
cliff
finest
Sham
systemic
servants
discovering
Timothy
retailer
emphasize
Earl
Volume
Audio
artifacts
maneuver
Happ
HERE
##MI
##bial
##List
##itational
##isle
##ardi
intol
unified
redes
occupy
Honor
lobbyists
bothered
FROM
expenditure
WhatsApp
AW
PE
cite
civic
##race
##othe
##atel
plasma
google
spur
statewide
priests
drastically
Success
urine
undef
Emma
corrected
Disease
Beth
Kon
ov
##lace
bridges
discontin
valley
##sche
holder
##ascular
curiosity
gasoline
altitude
highlighting
comedian
Duterte
##orus
##ilogy
outreach
clo
##itsu
capac
funnel
Appeals
##mega
1941
fascist
floors
Insider
prolif
Fitzgerald
Aj
CV
NRA
Troy
XX
Stef
coy
simp
coordination
cracked
hurting
insisting
Pretty
Coc
Kur
Lux
dent
rightly
patron
Annual
Standing
##ophobic
proprietary
ransom
Hugh
Koh
Liter
NJ
OT
pap
shine
abn
interventions
facto
113
Donnell
chooses
225
mentioning
##olester
quarterbacks
remarkably
Circle
##Facebook
x6
##Can
##ju
inning
##umed
interfer
affection
enjoys
historians
1954
Sherlock
GTX
conjunction
HS
eg
laughter
offended
interrupted
underwater
Script
humili
typing
Canon
trait
respects
analytics
prospective
magnet
Cardinal
sneak
allocated
lover
##elines
twisted
payroll
varieties
devil
candidacy
obsession
##OUR
Damage
diplomats
Alien
##intendent
Progressive
TI
akin
##iott
##qa
##kshire
##orns
programmers
wonders
garlic
grapp
amendments
##iating
##icht
##achi
coh
preservation
##ussions
Colbert
Desert
influx
balancing
strategist
##ammad
monitors
Sharp
reckless
Nim
Pip
RF
cotton
eag
jealous
staged
washing
prag
##space
sworn
Guate
admitting
Schne
Cheney
vacant
tasked
shallow
Illust
pools
##azeera
##children
rebellion
Gaddafi
rider
##oro
##itime
chill
1920
blaming
Shawn
quicker
Resc
Investigation
excluding
Princip
Initially
Bass
Jup
Lem
##eo
##GS
##foot
toe
outsp
accepts
volcan
pushes
inspector
jeans
chaotic
uploaded
weaknesses
Maple
Fighting
Dodgers
populist
Growth
wiped
Eye
json
yelling
releg
Sche
visibility
proposing
barred
Brock
privileged
FT
Rise
Vic
uranium
zoom
##Fr
##lain
heck
blessed
relates
boxing
cooler
Danish
unpredictable
Bio
Coy
Dogs
Og
bog
##rar
##fa
knocking
assure
insider
modifications
##ohyd
Score
##overing
appropriately
##iggins
illustrated
Kirby
enthusiasts
kidnapped
pedestrian
astronauts
##achelor
Hood
mt
tense
backward
##identified
155
entertain
personalities
Naval
sandwich
##onnie
jeopard
LSU
bargain
perceive
livestock
Birth
Fury
Huck
Lif
##Ab
##arin
beam
whit
##estation
##user
allied
gran
Comedy
LeB
##ucked
penis
Previously
reliability
hydro
##Object
horizontal
Rd
bounce
mails
##Med
##Per
bron
specifics
##sequently
curse
feeds
##oppy
PHOT
greeted
storytelling
##According
Gent
Wu
##81
##xon
thesis
##aned
crore
believers
headset
1957
assumes
prohibit
embarrassed
injustice
GE
##wer
##wald
##NY
##92
chord
cores
Blade
reddit
formats
affidav
##ORD
ACC
stretched
fluor
ambulance
Cambod
Kend
şi
##alion
##ultz
generator
successes
unsupported
Decl
Investment
Kurdistan
accelerate
romance
ubiqu
##rade
##Act
##stad
##sover
##iani
handc
1800
internally
Expect
homeland
##gestion
selecting
Libert
apologized
weighing
ignorant
forbidden
abundance
calculation
Salvador
XP
##hin
##Berry
##██
##ilight
grind
Leh
##ervice
exclusion
Harbor
##afort
THAT
licence
3000
##club
cornerback
intentional
tolerate
Fifth
exemption
Sebastian
Fell
HM
bore
gn
lament
##84
manuscript
smarter
##bye
Feel
extremism
Finals
Religious
prosecuted
Mao
concentrations
Pyrr
merchandise
Bark
Option
TL
bureau
bacon
##sk
volatile
##shit
Patrol
Simmons
sympathetic
Buddha
Respond
Hundreds
Gross
Jazeera
lining
##kg
brow
Rein
Exam
Valve
PCs
Popular
Rolling
comprised
elegant
Zimmerman
Avengers
Bent
Gul
Maps
Rus
##lide
##Data
##fax
##istical
##geois
sober
##rys
##neys
Marines
122
metrics
Plaza
throne
inflammatory
wrongdoing
Soph
hills
##Rec
Inspect
colours
boasts
performs
##ATH
primaries
erad
matchup
doubles
Points
surfaces
Alfred
Liz
os
##information
uprising
Chang
suppliers
mineral
aviation
standpoint
ideals
Calvin
Abdu
ballistic
##ANS
connects
inferior
metabol
extensions
hardcore
angel
microw
pixels
prejudice
Sterling
Absolutely
sophomore
flick
rust
tenth
flank
##ocratic
figuring
conventions
destinations
##ISA
insurers
Available
therm
inaugural
MUST
journ
##uzz
##fficient
scam
##uese
runtime
Meyer
purported
starred
Territ
Legends
browsers
miracle
disappearance
exceeded
Cad
Gw
Ig
Pain
Vas
sam
tamp
##oan
weed
slump
Johnston
Myst
gunman
reboot
paired
nominees
neighbours
Investigators
accompanying
dwarf
saturated
db
lend
##AK
##inum
##asio
##mentation
##ieve
workout
Shot
slam
visually
taxation
airports
Manafort
Grad
##elaide
Sudden
##isbane
Sax
matt
##roved
##roads
seas
Trent
Shim
detrim
pickup
referenced
##shine
selective
Construction
explosives
##writing
shelters
nurses
nursing
Motorola
60s
##inatory
Advis
locks
particle
resting
Doom
replicate
compatibility
incomplete
Bluetooth
Partnership
mammals
Mt
hollow
tapped
usern
justices
##INT
administrator
colorful
Peterson
Wrest
Conservation
stretching
paradigm
Owner
Serbia
Fuk
Range
RSS
Sans
ranged
vivid
spraw
unfor
cheek
seniors
heavier
Adding
shuttle
adopting
sympathy
Respons
bureaucracy
hierarchy
unchanged
Chargers
Dylan
pier
##will
conqu
##antry
Chi
##ensed
paran
excav
Manuel
combines
objections
Copy
tortured
stabbed
##Sports
absorbed
diesel
squeez
overthrow
Lakers
MT
Rum
Vit
tires
compuls
contention
imply
Frame
lovers
biom
apparatus
Dayton
noticeable
##ULL
despair
Draw
dur
gem
##DI
##ename
##umper
##oulder
compelled
Changes
queries
metro
receip
Sevent
identifies
voltage
updating
commentators
commanders
reacted
sadly
palace
partnerships
Marxist
unsuccessful
insufficient
Shakespeare
Cec
Said
cd
vin
##asis
##llah
##imen
##rae
thereafter
1917
Perfect
Playing
Jackie
salad
spinning
Jaune
lonely
Dh
POL
##cro
##но
framed
Charter
repairs
interval
debated
recognizes
1940
perspectives
Multiple
Robertson
delicate
Considering
Glasgow
Might
Nokia
Vari
tally
##large
##arl
##ppy
notices
##ruit
crunch
Ship
bigot
advise
##balls
goalkeeper
advocated
deduct
dedication
Mohammad
constituency
distinguished
WiFi
rebuilding
voluntarily
telescope
Route
Tas
Vision
cites
lenses
segregation
##ivia
##reeze
reconsider
##isha
regimes
socio
##etti
recognizing
robotic
detailing
fraudulent
rigorous
coconut
Experience
foolish
BMW
Jenkins
motorcycle
Rift
dilem
##cule
endured
Period
Hammond
Nova
atheists
undertaken
blessing
inconven
Pokemon
Pyrrha
Ki
##nings
##steps
##urai
desirable
Scroll
##These
nationals
hostage
objection
portal
lowering
stealth
transmitted
obstacle
Audi
protocols
richest
Kush
lag
##Link
##ativity
##stairs
contributes
righteous
programmer
downloads
circumc
cooperative
stamps
Dame
rav
sacks
atomic
twent
governors
slogan
projection
messy
participant
senses
vitamin
backdrop
compliment
Crisis
Jupiter
Ble
Hogan
wary
##rice
disrespect
warrants
freak
sums
settlers
1953
hacker
mirrors
accelerated
surfaced
dilig
Boulevard
prevalent
Higher
##eutic
misdem
gorgeous
##nels
##Last
Richards
defeats
Joan
##aspberry
##OCK
owning
elevator
Peninsula
hashtag
prostitution
unreason
0b
Erik
LI
##Follow
##bach
traces
endure
Brisbane
144
Johns
broker
Above
enterprises
##OND
##boro
vulnerabilities
coordinate
myths
Lieutenant
Portuguese
Dubai
hormone
wholesale
IB
lav
##via
##semin
newcom
modification
ensures
dependencies
Planning
laundering
Prec
Sinc
##rab
upheld
unreal
scra
append
timely
##angled
consoles
##lude
Already
Claim
costumes
authored
courtroom
housed
medications
vanilla
collaborative
rivalry
borrowed
pecul
BTC
Cord
Rot
Vers
fist
##around
##eprint
amended
Neill
Southwest
##lamation
criticize
nominations
freedoms
listeners
tapes
##aunting
Lynn
ceasefire
GW
Wag
bisexual
io
stip
##ustainable
trails
cancers
Admir
paste
clearer
Features
liberation
Character
Julia
philosopher
##ozone
Victorian
delegate
Response
chopped
Sachs
MAN
arose
mates
##rise
##hh
##abee
solic
immort
waist
circulation
Crus
introduces
1955
innovations
viruses
proudly
Holder
skepticism
##worthy
Persian
Hus
NFC
rabb
##girl
offences
acids
Ars
##ceptible
Swan
logged
Across
Championships
compensate
kidnapping
bundle
Bert
Cinem
ps
zombie
##rand
##Over
leaking
disabilities
##ovan
##terson
refined
Goal
filmmaker
##ARY
reductions
BlackBerry
regulator
ratios
complications
##proof
dumped
hints
interrogation
ineffective
650
IA
Nom
Rising
inad
121
thoughtful
competitions
supervisor
batting
Friedman
inaccurate
2D
aven
##esar
stems
129
Adm
##racted
healthier
168
anthem
discusses
001
beds
Helen
architects
strengthening
dubious
unbelievable
Poor
sidelines
vine
wipe
##kov
##strom
##emption
remed
finishes
carc
##attery
responsive
touring
microsc
ALS
Safe
inserted
mercy
prestigious
prolonged
CW
Different
IF
##URE
performers
pleas
##IDE
grabbing
crypto
northeast
Jump
##Ms
##Get
##hester
##entric
rehe
##utz
cloth
Heath
emission
cheating
empirical
Flag
eyebr
requesting
acquiring
Impact
mentor
Azerb
owed
Everton
stereotypes
GitHub
Tyr
##itan
Chin
scaling
Butter
##ysical
##uka
attracting
Churchill
pitchers
gallons
Rainbow
reconstruct
Saddam
Lud
Purd
annex
fracking
allocation
indoor
wells
1947
Topics
Walking
Ellen
Elliott
Nicolas
championships
Advoc
Gardner
frightening
##stanbul
indefinitely
microphone
Azerbai
Fuck
diving
degr
exterior
afterward
tops
refrig
accessories
Gram
circular
collects
Display
1942
1952
irrational
Jacksonville
Mirror
resemble
##World
airplane
reminiscent
320
Catherine
DB
Wenger
fitted
hay
mint
spouse
scoop
Ree
autop
Adelaide
##spot
superb
##ycles
methodology
irrespons
Evolution
cookie
##isphere
ingredient
distraction
SUV
helicopters
deceased
Kee
Mub
PTS
cows
##step
stigma
intoxic
milestone
considerations
##ennan
##hyd
detectives
Turnbull
furious
imperative
Tunis
forensic
##olesterol
Mets
dwell
vintage
##rina
##aqu
##bps
##adh
whale
##yson
watchdog
sympath
recruits
certification
inquiries
Venus
Bengals
juvenile
simplicity
Vote
pulse
##iaries
##cm
##itives
chuck
dont
##raction
hostility
communicating
frequencies
##ographics
ruined
Driver
Philippine
Corey
exclude
retrospect
expedition
minerals
Dow
##gem
##ieu
traction
upwards
unb
unple
buys
institute
256
Manufact
balloon
motives
psychologist
Prep
Silva
Raymond
observing
statistically
ashamed
Fleet
exempl
Isaac
Rebecca
Abe
Gan
Io
damp
pi
##dogs
##voc
##asia
anat
##agne
expon
##week
Bristol
##plates
Isn
##redited
Active
snapped
closet
analyzing
unusually
brutality
divorced
Citizen
maximize
Census
TSA
lur
lump
##MC
stal
##ieves
inviting
captures
cellular
Schwar
enjoyable
displaying
jumps
Skin
Memory
Ultra
##munications
prevalence
Description
concessions
Bun
Ridge
rim
##anut
##ionage
##illon
terribly
##ieth
marched
marathon
Neigh
awaken
steering
unsafe
Events
Rocky
planetary
ONE
##urricanes
Northeast
relentless
BU
LL
dice
##herd
takeover
retention
Athens
suffers
digits
Ready
tonnes
acknowledges
Midwest
Broadcast
offspring
reconstruction
Gig
Lars
Rabbi
bend
##cam
##De
##ados
##umi
fined
empt
leftist
badge
270
progressives
Consult
predicting
hunters
Hawks
##osaurs
disgusting
Bever
DT
LB
Nan
fog
pills
##cence
##56
##stick
##oped
##ivo
undergoing
goodness
happier
Reporter
entirety
radius
alleges
illustrates
outdated
Halo
Ske
biblical
cried
dos
github
exile
instability
Shut
##ypse
charism
councill
uncont
1949
Launch
tuning
Hyper
pipes
Saturn
vocals
BuzzFeed
AU
Rust
hurricane
##atal
##itas
intric
regain
Americas
autumn
Blizzard
sidewalk
benefited
280
bloggers
truths
debuted
supernatural
bourgeois
retaliation
Downtown
unauthorized
outspoken
550
NL
Wer
##TY
hailed
sha
clutch
epit
merits
Opposition
antibiotics
plagued
ounce
intermediate
Function
Istanbul
MH
ul
theology
storing
##rive
Thread
##asses
##ussia
##anyon
urgency
##iberal
##ophren
Prix
datas
Panel
##doors
Ethan
Pierce
tumor
Kumar
Rid
dod
pine
##gio
##opia
shade
##raf
contend
##izophren
arsenal
memoir
Leo
Atlas
func
specialists
statistic
financed
Welles
halls
smoothly
Hungarian
overdose
corridor
dictatorship
Ras
Zucker
dull
ruth
##atism
prince
enduring
Phase
caliber
visitor
criticizing
Penny
Violence
cortex
incarceration
Size
winger
##94
##73
##onal
belly
##abl
abduct
soap
Reality
##ggy
popping
Seoul
Angular
conceptual
seller
Julie
broadcaster
Files
Vern
faint
##anson
warmer
##atted
##ACA
1943
mortgages
firefighters
Gmail
bun
bast
cs
ironic
##DM
##PH
##fly
##SQL
seated
shaping
##ourcing
intest
##ishops
warrior
126
30th
operatives
Doctors
Feed
Austrian
domains
radically
destabil
denounced
Schwart
##ylon
casino
switches
psychedel
journals
Odd
PB
##rs
##Wr
##Sec
##inational
##isse
##rella
needle
Cla
seasonal
severity
Synd
emailed
##Star
Solomon
councils
CHAR
NEWS
Lauren
hinted
##manship
Industries
reservoir
supremacy
Cable
Rugby
dock
pensions
rope
##Dr
##ен
##anity
##ayan
##oland
withhold
##chair
205
mankind
Heights
##ovak
lawn
Claire
develops
turnover
dependency
vegetable
screenshot
Lebanese
reiterated
Tah
Via
wires
##din
##iman
nep
notifications
wors
upt
##ravel
interc
##inkle
preserving
Revenue
##oldown
emit
prophe
improves
primitive
##Inter
fatigue
occurrence
appointments
therapeutic
sustainability
vegetarian
authentication
nitrogen
disregard
GST
Haven
Kiss
LP
sore
vou
onset
drown
singular
surprises
indicators
biography
Seriously
1951
troop
mutations
Holt
extracted
Devils
enrollment
Suddenly
FREE
Mist
Pand
rack
##yg
##edience
2030
clone
disasters
mods
popped
agreeing
Peru
travelers
pathway
renamed
Philos
validation
extraction
adequately
gardens
##abulary
feasible
Aid
Bag
Laugh
Pool
Stern
Suff
Tag
WC
joked
matur
pg
##Pal
##arus
Theater
202
##ishment
directive
authorization
judging
confirming
Monica
##rosion
burns
cosmic
Personally
Abbas
festivals
##ongevity
aggregate
Mate
Sleep
ditch
rogue
##onso
##stra
##riad
alle
cans
slash
##ratives
##ustomed
positioning
allegation
chancellor
treas
##ocalypse
discriminatory
correspondence
Jacobs
symptom
acceleration
bombers
Boris
mitigate
Pirate
unpleasant
Brief
Canyon
Gur
Um
##aca
stairs
unoff
phases
handler
slog
Depending
##sterdam
conception
Winds
assessments
dialog
intrins
Gilbert
##Two
rehabilitation
tattoo
LeBron
Bike
Diaz
FE
lemon
pard
##Point
blows
minors
extrad
grounded
ISO
Introduction
stuffed
1920s
bullshit
anticipate
carbohyd
Monsanto
Gust
MIN
Pars
baked
southeast
champ
theirs
perf
reps
reprint
Reason
smoked
##iolet
glorious
posing
Davies
paperwork
Berry
embracing
illustration
Haskell
hooked
Astron
pigs
indirectly
creepy
forefront
touted
##mind
cholesterol
recon
bracket
highs
##lander
meme
solitary
storyline
visas
Example
apost
Genesis
##headed
##ASE
firmware
irreg
Freeman
Experts
Kitchen
contamination
Baldwin
Taj
bark
bilateral
vom
##hm
spaw
##ondo
Unknown
Sprint
slope
Teams
clearance
suspend
gallon
pouring
shrink
contaminated
Tonight
Jazz
Riley
Tow
##ountain
impart
prizes
134
operative
violates
Guinea
Install
neglected
cleaner
Darren
congressman
blasted
Fusion
wiz
##Fl
##wed
##Co
##asian
iteration
##umbs
##arten
printer
Pharm
eleven
##ARR
geographic
Questions
naive
Owen
soda
Female
Diane
Freddie
Mubarak
##ffiti
Frances
deplet
societal
Europa
Amazing
Exxon
Morrison
1946
organizer
merge
heroic
franchises
##keepers
VPN
referee
vinyl
iv
sights
##eros
twins
countryside
132
militar
Manila
Congressman
cybersecurity
Hugo
interfaces
Vienna
Religion
proliferation
Gav
JO
Ti
gle
##tion
##table
##iov
##VM
##78
##esa
parole
glow
##brand
241
Harold
##etermin
fireworks
copied
##ORN
Koreans
undisc
fatty
splash
rigid
Narendra
Hubbard
alignment
discharge
unstable
Dance
Jensen
Murd
Pine
RR
Saw
Sask
bunk
##ician
##essert
##velope
Amsterdam
Myan
Grass
##OSS
shutting
compares
northwest
##guards
instructor
eligibility
prosecute
Hag
Moving
Pors
eject
##hops
##card
##VR
##illes
unaff
quint
Complex
slap
demise
psychiatric
beautifully
Discovery
colonies
##aunted
##restrial
PHP
Femin
heterosexual
Rafael
spatial
Detective
pundits
affidavit
rode
vandal
##nas
##log
##gone
smashed
filmmakers
Used
tackling
preparations
landlord
IGN
Tillerson
sectarian
Sugar
Abdullah
Hash
Kem
vault
##itating
clan
teasp
disable
brace
markers
Yorker
contentious
illicit
archives
branding
lengths
bolster
Ace
kin
##bra
##orie
##amon
stacked
shiny
arche
backyard
##elsen
antid
##ICS
falsely
gifted
terrified
Generally
Brigade
Cert
DW
capped
##yt
##isans
Trinity
cleans
Amanda
Monitor
Skype
stretches
NYPD
Extra
Towns
unanimously
License
Emirates
Admiral
nurt
##aunch
##anton
##ivable
Income
warriors
cafe
alleging
contracted
discoveries
boarding
Artist
reactors
southwest
proceeding
Mountains
subsidiary
Hayes
embarrassment
##folk
squeeze
abundant
retrieve
tangible
impeachment
Huckabee
Bold
pave
sack
##tw
##gon
##GM
##Let
##ро
##lda
##agin
unarmed
accuse
suppression
Forward
infants
marker
##olitical
Colonel
Cultural
Rating
ero
##lib
##edin
##aning
##aline
##otism
##itte
monarch
Brennan
effic
negotiation
Smash
##ITE
Tomorrow
Robb
hello
diplomat
palm
Andrea
Liu
WordPress
Kenneth
Pv
dé
masks
##was
##olith
##ulators
resolutions
##ogram
unim
Shia
realization
mighty
Christine
revision
perfection
ruins
photographed
accumulated
richer
reinforced
sabot
Purdue
GH
IPA
href
##file
##VA
##idas
stunt
##oser
spine
clown
subc
Shutter
electro
Neo
##oooo
Melissa
navy
privileges
##moil
Refuge
catastrophe
weakened
Schwartz
Myanmar
Hair
Powers
Tate
UE
lenders
rapper
tin
ya
##mia
##atin
##amas
##quet
speculate
charities
pretending
celebrations
unsure
Academ
renewal
Aviation
withdrawn
Camera
##enzie
accommodation
olive
##vidia
Gian
Mental
TN
fetch
##Mark
##FD
##Email
thunder
##oyle
imbal
costing
165
Mega
hopeless
Else
modeling
meaningless
exchanged
Judiciary
triggers
obstruct
eBay
Echo
Jas
Miles
Pam
Wave
##wic
##QU
##ono
##abel
deton
possessed
miserable
Written
Whereas
Economy
distracted
observer
evacuated
lungs
Hassan
CAP
E3
Giant
Kob
##Source
tomb
shattered
persecution
flame
governed
terrific
139
excuses
Neal
##afia
Assass
##iffe
announcements
crafting
Lockheed
AIRED
FX
Fra
Lance
Pav
pins
##buster
##illas
##asser
Rece
Carp
employs
Parents
determines
settling
cleaned
recommends
Mozilla
Supplementary
hallway
outraged
Lucy
manipulated
Historical
Nus
Rough
Tall
cros
##41
##inas
thwart
##idad
##thy
sperm
##ogene
unins
blo
relevance
Quite
poorer
graduation
granting
Waters
Bruins
Ottoman
melting
relieved
Bundes
Kra
dar
erupt
panc
##itus
drums
domination
verge
turmoil
resisted
surroundings
trainer
Destiny
elephants
Punj
landlords
jungle
alley
unidentified
##resses
accustomed
payload
programmes
Anglo
armies
Webb
depths
forgive
podium
fertility
staple
username
Ce
Shen
laps
##fires
##ndry
##ilib
incidence
##ewell
DeM
##tte
versatile
researching
circuits
robbed
restriction
honesty
neighbouring
##Trans
Province
crushing
##rahim
JSON
Pont
mesh
##kit
##urst
allerg
##ificent
##ounge
surreal
##ggie
Adult
designation
147
airlines
negatively
narratives
perpetrators
stakeholders
frost
rampant
converting
decorated
seizure
reconciliation
Miguel
Observatory
BT
MW
OUT
lbs
##dain
##eon
outfield
##neum
Replay
##iola
Carbon
Elite
Writer
CONT
tubes
Celtics
locking
nas
##odore
workload
foo
carpet
exceptionally
Thankfully
Epic
Customs
infringement
disadvantage
Links
bounds
wanna
wiki
##ка
heights
expired
##ibal
##ancers
Alleg
charitable
Canucks
Centers
looming
revolt
staffer
ISPs
criticisms
sadness
mandated
Nicotine
Marketing
##Photos
Protestant
Nigel
Tickets
lol
poker
##orf
##oslav
##andra
blink
##encia
betting
##eele
Exit
Notre
animations
Counsel
rewarding
Mahm
anticipation
YOUR
omn
Caval
waking
##rera
##cock
##ortium
exh
possessions
gluc
sexist
Contract
misery
slept
rumours
certificates
tossed
Embassy
Cream
Craft
Location
Mint
Vince
##news
##pie
scouting
induct
Bring
communal
nightclub
accessing
favors
cannon
##ONE
##ONG
Roma
organizational
Evidence
sponsorship
fascism
utilized
screenshots
Quality
##vasive
Terrorism
smokers
Categ
NI
Sig
fade
jugg
kits
lamp
pand
##gae
##63
tox
##icidal
traced
canvas
cracks
Alz
cellphone
Macron
accomplishments
resembles
enforcing
Mourinho
Bug
Kau
sins
##million
##Box
##pc
##enza
##isure
frac
trilogy
envelope
replay
Angels
diets
##versely
schedules
Victory
withdrew
bomber
hypothetical
Surviv
Advertising
IRA
Sou
##mn
##mand
##atra
likewise
##avi
recurring
communism
30pm
skies
Medal
Arabs
departed
coherent
Rescue
Eff
lou
penny
##vable
##iu
plight
repro
relay
Clo
deported
filib
hardship
131
proponents
Amnesty
militias
destined
schizophren
remarked
bubbles
persuaded
Blockchain
Finnish
inadvert
Kre
Niss
##Out
##See
stalk
allev
##ochem
##thouse
amass
unto
Barrett
supermarket
Quote
Labs
lifelong
Motion
savvy
surgical
stimulation
Beatles
incorrectly
infantry
irregular
Bened
Cycling
fried
xen
##group
##HP
##93
forc
##orsi
1500
##atorial
swear
equals
Carn
potatoes
supervision
Gods
Millenn
plugins
Bahrain
cruelty
Client
Bottom
Schwarz
Boot
Gaw
PU
Pale
SAN
sor
##sch
##OK
##enment
Weber
blonde
##elli
multinational
strips
judgement
explosions
floods
mosqu
puppet
Trophy
ecc
crashing
remn
rooft
##azer
differential
restart
##ikers
Doing
mythology
counseling
tsun
stubborn
Porsche
NPC
##Ds
##isting
##ouring
doomed
Thing
remedy
carved
continuation
protested
poorest
learns
1938
dependence
acknowledging
Honestly
temporal
Fuj
composer
IMA
Ran
lith
##Te
##ра
##enberg
sting
##geons
playable
Meh
Belfast
spectacle
Summary
contradiction
halted
poisoning
tornado
profoundly
Frost
undersc
shoots
Property
CAR
Lac
Trou
groom
mudd
sigh
##83
scandals
myriad
##ells
monkey
confessed
charm
redef
obsess
honors
Patterson
Trevor
##keeping
fulfilling
shrinking
Wyoming
unreasonable
Fernand
Kot
LEG
Nate
##IAL
##Just
##isman
##essa
friction
Whole
indo
indicted
Branch
specially
Aboriginal
radioactive
ACA
vanished
intimidation
asteroid
Pit
dop
tan
##Map
##holm
##cano
##uilt
##arium
beaches
##tering
##ulatory
##oka
dislike
##axies
##otechn
systematically
refrain
Transform
rigged
loudly
Cuomo
inflicted
aspirations
refreshing
peculiar
Eisen
Finding
JP
LW
##FTA
##col
##long
##atri
atoms
chin
20s
cancell
Stam
##ribes
##roduct
##ORY
revival
diagram
Jeb
##guided
adjusting
boosting
heightened
LinkedIn
##oscience
Combat
diminished
pseudo
airstrikes
Naturally
VC
Vick
ale
longevity
##isch
sham
partition
acclaimed
Produc
Mechan
calib
oils
1933
dismissal
Foods
Publishing
clerk
endeav
bronze
ubiquitous
dilemma
512
AHL
Bot
Ner
dere
##Ref
stair
##obic
idol
Britt
charming
gloss
##ublished
Davidson
Constant
translates
Aviv
concerts
Falcon
Document
Semitism
underwent
Strategic
Dy
Luk
LTE
MY
Million
bash
lakes
sung
##Why
##54
##â€
stalled
##ifi
Than
strains
Isis
Seg
##ushima
massively
superst
burial
undo
safeguard
Constitutional
APIs
Braves
##DonaldTrump
sanctioned
Liquid
Fargo
Pra
yelled
##rared
##cot
##lins
##Page
##Am
##fi
##irteen
##osph
suing
chorus
advertisements
intervals
brass
subord
declar
packaged
worthwhile
Schultz
Boom
salv
predicts
lieutenant
shells
disciplinary
reproduce
transcend
Soros
pupils
Prosecutors
awe
##lia
forged
traps
adam
unex
polite
descended
Residents
verification
wilderness
harmony
transforming
Osama
gateway
Sentinel
irresponsible
Dif
Mug
Mead
pac
##utory
crank
##ysc
##ieri
Myers
tempo
mechanic
##IDIA
Nora
REP
signaling
jurisdictions
anarchist
impaired
Au
Emanuel
Floyd
ROM
##Watch
stared
##imental
Thr
Stark
incarn
quart
discom
insiders
realDonaldTrump
parental
##ushi
antit
evaluating
Elections
synthesis
reversal
Rapids
procure
Honey
##rt
##feed
##Car
##ichi
Hein
##obb
smash
##media
marvel
analogy
##rington
23rd
declines
replies
logistics
doubling
counterfe
Juda
Strategy
Rivera
##falls
reservation
##ucci
Answer
Caucus
ICC
Lanka
Nest
##amel
contenders
##economic
perceptions
##integr
discern
highways
Leeds
Teen
136
proposes
Gujar
strive
definite
##ombies
##ipple
1937
cracking
skelet
survivor
futures
Minecraft
Crawford
Inspector
Fah
Lone
Yug
edu
##ritional
##BY
##press
unsc
##ignment
dissemin
grains
metals
Barr
energet
revive
260
##aniel
##ariat
##ihil
Daniels
tunnels
accusation
Typically
Application
oxid
blueprint
Schneider
Agg
DD
##bc
wasting
notify
herb
evenly
acoust
Shannon
##althy
redund
Janet
packing
Chev
salmon
ample
guessing
unpaid
mailing
accidental
Premium
Origin
hypothes
Issue
Johann
bodily
Wheeler
intoler
Hav
Mang
Wolves
ben
lid
##wear
overc
apples
implant
cove
amazed
lasts
insulin
##otti
133
Abst
Nationals
turf
Opening
scheduling
diplomacy
dragging
Keystone
gestures
Physical
Petersburg
rabbit
Frederick
Ach
SY
frog
##oliberal
##ods
206
transmit
refresh
potato
Warning
##iji
rebound
sellers
uniquely
Ironically
disruptive
cocktail
Semitic
Docker
Ether
Sounds
TA
Tier
tipped
##smith
##Gu
##KS
##°C
##atible
##seys
shining
Threat
clay
##aways
metropolitan
Ort
Amber
billed
specification
Watts
hoax
misdemeanor
ARE
Fen
LO
Vault
ip
##Ph
##yon
##91
##utton
##ileaks
recycling
##ottest
138
##artha
Monroe
tenant
CNBC
Surve
bombings
downloading
Known
sucks
submissions
validity
Hannah
abolition
atrocities
bigotry
Nvidia
##viol
##atum
##itures
##ului
##astics
##ubs
unite
offender
elastic
circulated
silicon
optimized
rotating
Bradford
weighs
Zhang
Flying
Ps
Pie
Rhod
sadd
somed
##bons
prefix
attain
##identally
##ixed
cheat
Phantom
Examples
destiny
Correction
Silent
Developer
Apache
Surely
demolition
Spotify
foresee
incapable
4G
LAN
WM
hatch
hug
mas
rude
##idable
##acs
stumbled
invasive
subd
146
##ENS
##zzy
##boarding
microbi
unlocked
forecasts
scanning
Leslie
hesitate
Aus
Gn
Hour
Oval
dessert
##olia
fringe
arises
supplier
corro
explor
airing
fallout
Perkins
divisive
allegiance
Schwe
regulating
nominal
gradual
##risy
pencil
AAP
BDS
Jab
Lots
Raspberry
Sinn
Tut
ferry
tying
##say
##icable
whopping
foll
brig
##aths
Shore
Thatcher
deprec
McA
landsc
Santos
rumor
narrowly
correlated
LSD
Rhode
exaggerated
disproportionately
Crosby
Dell
EST
cush
pas
##hall
##enko
Infl
arth
Chocolate
coached
Alert
##plan
medd
specs
autobi
continuity
frontier
averages
miscon
Murder
reproduction
Lamar
someday
BI
Gerald
Random
ech
fal
mund
mocked
wax
##1D
##Play
##yen
##alone
stif
##emade
repression
scans
blues
Marriage
drastic
##iked
Sexual
campaigned
24th
Baron
gunfire
drawings
##ICO
spiral
stationed
interacting
goddess
prohibits
Concern
Restaur
commodities
instincts
Grap
Pep
Rapt
Sara
Wid
cough
eve
pist
##heid
styl
usher
incub
displace
recap
lawful
Arist
##raper
limbs
Garrett
configure
graffiti
borrowers
Resistance
Shutterstock
Danger
Wear
wit
##02
liable
yearly
newborn
##rugged
confinement
editions
McF
sniff
##Inst
Khal
philanthrop
Podesta
undergraduate
abnormal
Dre
Dort
DLC
Lun
Ya
ace
hats
ie
voy
##fu
##RNA
##eted
seaf
1918
induce
bush
Sheikh
superstar
shooters
misrep
Solo
skeleton
guitarist
strengthened
cynical
Dot
Kub
##von
##wait
##oton
##otations
##verages
compilation
##ometric
215
Herman
330
insurgency
Background
Irving
decreasing
Equality
##Another
marching
fundraiser
imperfect
submarine
Stephanie
Innovation
Rig
WIN
gays
tapping
##lair
##WH
##CAR
##hea
heap
cohes
whereby
##ribing
Shap
Scout
developmental
AdvertisementThe
roller
advertised
laptops
reservations
cherry
Optim
NVIDIA
Wesley
Bie
pope
puls
sunk
##ril
##aran
##odi
Sto
opera
collusion
1940s
Fairfax
##olphin
madness
conceal
garnered
chromos
1080p
Judaism
Eston
Wis
waving
##build
##05
##kef
strongh
insign
ruler
commenting
ignores
Deliver
restrictive
1930
simplest
disagreement
rationale
microwave
Saskat
Cous
NP
Ore
RES
Voting
WILL
baff
pes
rapp
##MM
##COM
##stated
##arty
plural
Thirty
invaded
Album
Cliff
##ratic
judiciary
goalt
admir
3DS
unanimous
Eugene
Cause
ND
Pett
Sense
ii
linem
##bee
##riber
spawn
decomp
amen
Adobe
Problem
succession
sourced
susceptible
banana
circulating
misguided
televised
ACT
fantas
##criptions
Elliot
Nepal
millennials
Dragons
ostens
Dollar
antenna
Ful
Tucker
turt
##hat
##RP
##ña
##string
heir
Steele
performer
Weaver
smiles
passages
demons
glowing
drills
props
nationalists
installations
Goldberg
drafting
Silk
melted
prepares
fragments
Revolutionary
override
Rouge
contingent
unofficial
efficacy
DOWN
SAT
mans
##rance
##то
orph
chambers
decree
##oys
Ank
obj
Sharks
Spo
readings
Blasio
openness
elbow
Orb
sensory
pathways
architectural
Technologies
Electoral
Otto
innocence
overturned
Duck
Fri
Lil
Lenn
Sark
plac
##ourt
##ograms
Heather
coerc
guild
restoring
afflu
situated
22nd
executing
prints
sharks
acquaint
queer
Fortune
affiliation
galaxies
Corporate
Factory
municipalities
hormones
##runner
Declaration
Bil
Done
HB
Jal
NZ
olig
##gents
##inth
##ación
##imation
hex
hears
##este
chilling
##ificant
lawmaker
runway
esteem
equations
statutory
respectful
consulted
jointly
Estate
illnesses
Knowing
escalation
pedestrians
haunted
Gujarat
Hil
Hamb
Raven
bapt
##db
##eded
stain
##term
expelled
nood
downside
opposes
typed
api
barbec
Eden
Laws
broadcasts
DEA
Ivanka
ecosystems
Sergeant
McLaren
commemor
restraint
ay
rented
##donald
##cs
##79
##itant
thigh
Analyst
##insky
generals
policymakers
Medium
punched
Creator
futur
Kindle
Kosovo
Filipino
Aurora
Basket
Cance
Dion
##eated
##nie
##Back
##61
outwe
invari
thinkers
Arms
respir
statues
Address
grandpar
Seeing
Salman
semif
##eddy
clarified
HTML5
Rash
RNC
WP
Worth
gel
##dens
##athing
##acted
unman
thanked
scrat
Marijuana
Markets
conflicting
Error
Joey
lobbyist
RCMP
Flyers
depicting
Bolt
Lok
Wide
wired
##pur
##JS
##Rel
##nton
fox
Suz
radi
barbar
commentator
Cornell
Superior
Articles
splitting
tweeting
Raq
Royals
brake
insulting
Nusra
Cory
Gain
NH
RW
Tumblr
gee
##ré
##icus
Ing
resh
Champ
##avan
impending
Pros
devote
Coord
imagin
dispatched
##burse
Slow
##coholic
advertisers
Gallup
Status
Explorer
##Art
authenticity
descendants
yeast
narciss
##occup
Wendy
Windsor
Nolan
SOU
UFO
Yuk
aided
nap
##bag
##rob
notions
##abase
trunk
spun
##akis
peril
Uns
182
Minutes
212
Securities
misses
Immedi
Steph
thankful
Info
Cannon
Primary
Shiite
disconnect
freelance
PTSD
2x
Cave
Tou
Xia
lord
##zh
##ño
##store
##stown
chased
evid
legends
concussion
glam
formidable
Twilight
##oshop
harmless
gravitational
Rockef
Settings
abruptly
plummet
Bend
Boulder
Jak
bolt
sang
##aris
##mentia
##berries
explode
patrons
collateral
squat
Recomm
Opin
planting
ANY
Opportun
Commercial
awaited
inflammation
vigilant
TIME
Alzheimer
discomfort
Jail
TT
Wald
tore
##08
beverages
prose
##ifax
clusters
keeper
142
shortages
guessed
Holiday
Andrews
therapist
dumping
decentralized
Celebr
Dixon
Golf
Mant
bidding
pant
sou
##rays
##tical
##avez
histories
successive
labs
imaginary
grandchildren
Understanding
##ravity
microbes
folded
gigantic
jihadist
Amp
FM
Moy
##51
##stood
##image
hemp
comet
plague
Stack
disqual
poke
nowadays
stranded
confess
Console
Schw
racially
##hibition
##OUT
##umni
##onnaissance
Archive
Physics
swiftly
Bengal
Minority
transplant
##enhagen
umbrella
Falk
Gaga
Hang
Lakes
cues
##kowski
##A1
##71
##atical
##orously
Throw
##eworthy
##issible
Blocked
visions
electrons
awake
essays
remembering
kidney
philosophers
##baum
puzzles
pharmac
drunken
nutrient
gratitude
inheritance
notoriously
Balk
Fry
Laz
Ride
mansion
##hma
##Bar
##hee
pervasive
Chat
##iba
impuls
untr
149
Demon
indications
snip
assisting
Winner
disagreed
##Force
Renew
Zelda
Purple
inconsist
contraception
provocative
practitioners
##croft
Kushner
Gawker
Midd
Poss
UW
ga
hottest
sulf
##mala
##ет
##itations
insec
prod
apprent
interception
slate
depicts
Scalia
servant
##uckland
Twitch
specifications
catalyst
merged
initiate
youths
SpaceX
evacuation
overlap
Punjab
Aber
Bast
Duty
Nu
Pizza
fixture
ratt
zoning
##FP
##onial
frenz
##andy
##orman
playground
obey
Schem
##roductive
Syrians
heavyweight
constructive
obstruction
hurry
Ethics
Eleven
Choose
deprived
pesticides
nephew
Bhar
Gors
Mile
Wo
bully
gospel
pact
hefty
congestion
##type
homework
emerges
petty
limitation
comfortably
browsing
terminated
Cathedral
culpr
Talking
condemnation
flipped
Jaguars
AJ
Cain
JUST
Mood
MIS
WAS
etern
##range
##Many
##Pass
##erk
##leased
##otle
whip
Stem
scrim
downplay
##henko
simulations
152
143
kindness
Southampton
##olean
handsome
rejecting
1936
Guardians
yielded
Frontier
lectures
Kathleen
hypocrisy
refriger
Nissan
SIG
stare
##charge
heel
deception
##ignant
##assis
extinct
##ohan
explores
breaches
##ursed
employing
Manit
companions
Roberto
rocky
##check
dinosaurs
termination
Device
##Photo
Tibetan
Gael
eup
reneg
##pad
##Wind
##zai
##én
##amation
congregation
neon
##ivities
##avier
##avior
remake
proportions
versa
Grab
executions
standardized
irrig
exploits
Latinos
prolific
##Share
fulfilled
clergy
Observer
chickens
aggravated
Bom
Poc
ore
##rades
##bands
##gage
##urers
assemble
##usp
peaked
Chavez
Weight
persona
headphones
##ropolis
killers
workshops
burger
##razy
Families
Horror
Osborne
altering
Zionist
disgrace
Voters
Auckland
Pure
UM
Witt
hamp
wishing
##pent
##adic
realizes
demographics
glue
counters
existential
objected
##hetics
crosses
1934
Rocket
dissatisf
Annie
Reporting
##racuse
NGOs
griev
blatant
cohort
Cambodia
louder
AFC
Cunning
Elementary
Lords
lust
tiles
##lich
##Pl
##Key
##sexual
regression
smear
termed
parcel
Consequently
progressed
sorted
installment
peninsula
commercially
villains
INFO
mutation
clarification
moose
smuggling
arrows
majors
Guatemala
tsunami
Hands
Poe
RED
Risk
Vita
VIP
uh
##iak
##IZ
##orting
##arding
Chrys
Unblock
worldview
Alcohol
confession
Syracuse
fearful
sunny
Knicks
Technical
Fields
Hawaiian
Hannity
Pedro
Gotham
##ilibrium
Benedict
DEL
Ducks
Gamb
HC
PVP
Sina
egreg
todd
##stru
notch
spider
liking
residency
blur
assurance
oppressed
Willie
Godzilla
Agu
buddy
dispatch
PRO
accumulation
Nielsen
Chemical
undermining
Wagner
Claude
Gos
Kris
gor
mour
tipping
##FR
##Ag
##Since
##62
inmate
seating
fridge
##uds
compost
Chart
bucks
surrog
surgeon
placebo
rests
Concept
sentiments
Fey
espionage
injunction
separating
Billboard
Maduro
labeling
Patriot
astronomers
Abstract
Eld
N0F
Viv
Zoo
pneum
saga
##tar
##unity
##solete
1914
interconn
##oyalties
speculative
restruct
este
deepest
##ECD
Hammer
Charleston
ARM
PayPal
##gredients
Lowe
rituals
Abram
Ibrahim
Rutgers
Killer
Ole
cemetery
##eer
##mission
##gic
##HI
##heart
##leys
##urprisingly
lev
oversh
scout
Brid
transp
Course
latency
crisp
Baylor
timer
pairing
mutually
grabs
experimenting
tomatoes
implication
inspectors
synthes
Lindsey
Phillip
Indonesian
Ninja
sodium
python
Platform
pivotal
envisioned
fluoride
Rockefeller
DHS
Hank
hitter
##wig
##Plus
##Ac
Stick
knives
backpack
guerr
##rorism
generators
##swick
fairy
5000
cycl
villagers
Organisation
obliged
Rosa
infectious
punching
merchants
Hansen
toughest
UAE
Lis
MN
NOW
Sul
##hawks
##ingle
##etter
disrupted
addicted
##grass
Spons
##ussy
##gger
redevelop
holdings
Grimm
superfic
goalie
admire
snipp
magnificent
thriving
betrayed
Armenian
Traffic
Competition
Fukushima
DIS
Houth
##utation
Therap
usable
##inda
disbel
commute
showdown
finite
Spart
famed
158
maritime
Megan
sexism
Edgar
Herbert
Contribut
steer
Compared
365
balances
angular
escaping
thrott
frameworks
Santorum
Hardy
##Query
Uncle
Beginning
Participants
regeneration
Hull
Tool
Vaugh
Wool
Wash
aunt
fills
hi
pains
rh
trolls
zoo
##mt
seism
canal
adapter
closes
##eca
peaks
impover
Newman
longstanding
boil
parody
breasts
partnered
mortar
excellence
phenomenal
alerted
parallels
swinging
intensified
Graphics
Guantan
##iovascular
glucose
Coul
Cauc
Martha
lent
##pal
haired
neoliberal
bets
##ossip
monuments
##ornings
violently
templates
Congo
27th
defenseman
Alexis
unsett
Goodman
renewables
Nicole
Carey
leaned
WHAT
coded
injected
earthquakes
rewrite
supremacist
Vernon
##nick
relic
reapp
##selling
Stats
polished
ammo
startling
boiling
Prospect
rulers
##llington
316
commanded
tendencies
Testing
reciproc
Noble
imperialism
applause
Orioles
interpreter
respiratory
FD
Hicks
Position
Rudd
lure
nud
pads
sinking
##chens
##ás
reef
##heres
##epress
Rebel
Clara
pops
burdens
Sims
deploying
rumored
implicated
tearing
Guantanamo
Cafe
Kah
Pasc
VS
Wine
bots
hiking
ranc
â€
##Most
##inarily
##atts
##vez
confer
##allic
##oks
img
DeV
continental
##atta
organism
antagon
competed
Defensive
fatally
crafts
praying
Giul
Carlson
stimulate
unexpectedly
cumulative
Sinclair
AAA
LD
OB
OECD
ba
nause
pess
##oids
##loe
##stals
##acer
spies
##ichael
##ousse
thereof
Chicken
##onds
poems
caller
##pling
warp
commanding
insurgents
Copenhagen
enhancing
exceeds
ethnicity
metabolic
Cyprus
forfeiture
Hate
UV
aisle
tighter
£4
##03
##orical
##ilm
havoc
##orde
##etsk
announces
Boost
slew
psychic
transferring
Denis
Wikileaks
outsiders
Charlottesville
Growing
marginalized
demolished
glyph
unavailable
Morocco
Dortmund
Fors
Gender
IX
SIM
XML
##cars
##yton
##adan
dementia
##odus
leisure
invites
idiot
##lette
Excell
Glad
burnt
##osterone
trailing
Films
##written
Boyd
Durant
Napole
Buckley
pioneer
router
energetic
Duc
Fasc
Fellow
Hond
Omega
Soy
Vert
dots
fue
faded
##wered
##losed
##hev
atom
##ocial
2022
quir
poles
blitz
amnesty
##umps
infrared
30s
##atsu
Flames
breakout
sniper
centralized
Subject
Slate
##kinson
Webster
Farage
exploiting
Stafford
##Cloud
losers
##gradation
Essentially
Brunswick
Javascript
Wireless
bureaucratic
Vive
rup
##iya
##FX
##city
##Down
##herty
clicks
afflic
limb
apoc
##irsty
caste
Milk
##marked
nutritional
semester
railroad
skyrock
dictate
ceremonies
manifesto
##0000000000000000
Sporting
inexpensive
filibuster
Cunningham
AWS
MTV
Pablo
Vander
tones
##mos
##pret
##She
##esto
##oday
##endo
setback
insc
behold
immers
Actor
await
curves
precinct
##ETA
Alexa
Roj
Campus
downturn
tribunal
theoretically
discourage
##patrick
Stevenson
expenditures
slices
Aer
Bath
GIF
KS
Tip
fals
uint
°F
##chin
##ocre
##akens
foil
invoked
removes
##odynam
Scand
dealings
notebook
Franco
STR
Improve
universally
GMO
##ixtures
Volks
presumed
tissues
Bulgar
jihadists
fishermen
Weapons
resentment
Malta
Yugoslav
850
Aston
Kro
##ldom
##ivist
compute
pert
scor
foam
Shock
Beau
ObamaCare
Iranians
geop
fortunes
pledges
McKin
gentleman
Joyce
Lomb
Patel
Words
kings
##Our
##enary
spices
outgoing
outdoors
1915
supplying
discarded
retaining
retiring
membr
skating
162
summ
Enough
28th
Into
##ACH
Macdonald
##ELD
Burg
Mickey
harassed
mathematic
preceding
arcade
erected
Gut
Gone
kidding
lar
##ben
##LES
##uras
orthodox
spelling
worm
compression
peas
herald
quoting
Sho
daylight
Teachers
##ronics
Enh
hearted
sunset
exercising
subsidy
Mahar
Population
triggering
screwed
Chandler
vicinity
grandparents
Gamer
Hos
POW
Xen
vind
##09
##59
beverage
peek
Alv
obsolete
Shoot
Spy
speculated
##prom
Philly
Sylv
debug
livelihood
homemade
collector
respectable
Robot
Transl
celebrates
geography
dinosaur
constructor
dissolved
sandwic
insistence
frightened
tyranny
Stefan
rehears
DN
KR
MHz
Von
burr
##eff
##tails
ingen
outward
##ellers
syrup
Reference
##places
141
Orion
bitch
Haram
captive
squir
Thomson
earnest
Durham
Dres
DON
GHz
Joker
PLA
Rt
Witch
bounty
geek
ptr
tac
##Met
##uu
##58
##ighting
chunks
saus
##astro
expire
overweight
reclaim
prefers
##ovy
symmet
triangle
##They
Desk
hops
Blacks
Louise
Underground
##ugger
timed
assessing
##bnb
theatrical
Normal
Normally
scrutin
cockpit
kissing
disturbed
Witnesses
volcanic
crossover
Fol
Kabul
Pig
Pist
lakh
marsh
sacked
##alach
##ivated
Alison
##ahon
##ceptive
Blank
testament
Dems
##ospace
Serbian
Torres
Transfer
MacBook
resisting
Looks
Kuwait
corpse
Croatia
Hoffman
S3
scept
tmp
prud
##ivism
interceptions
Whis
##luded
belts
Alonso
Levy
153
Elon
robber
thrill
collaborate
tomato
feminine
condemning
##beck
filtering
Employment
Azerbaijan
inadvertently
Battery
Kab
PO
nude
##vine
##Gen
##inges
suicidal
##ogo
interd
wraps
monet
Deut
151
Canadiens
replaces
Patric
999
Greeks
outputs
Divine
Savage
merchant
tempted
PKK
spontaneous
Yorkshire
Zuckerberg
Bib
Quran
Tact
dynasty
##park
##gars
##ère
##urations
outc
sob
expands
##oya
sliding
programmed
productions
nonviol
culturally
existent
fronts
speeding
crowdfund
Founder
commercials
Remove
breweries
interpretations
plotting
Darkness
Testament
Critical
alphabet
mantra
Practice
Advisory
Dial
Fest
Gy
Mick
PI
VER
##File
##pes
##3d
usr
##ogical
##acey
pointers
brink
Spark
medals
elusive
drank
148
purse
Donna
raided
enjoyment
Supporters
motivations
validate
circumstance
pinch
##oppers
shields
Tamil
surrendered
Maurice
##ichever
addictive
geometry
pyramid
Analytics
Gorsuch
Billion
Das
Kaw
Says
Siber
SEL
ah
##GR
##ovable
pointless
172
Flood
Calder
keyword
specialty
steak
diary
promoter
cruc
trainers
optimization
PS3
Morrissey
Barton
Regarding
undermined
Rifle
Murdoch
mundane
KO
SET
Singer
Wong
rents
##iates
##Craft
##на
Sty
##fts
indisc
teamed
Alger
##ysics
realism
Assess
401
groundbreaking
briefed
480
substantive
decreases
isolate
Messenger
##walks
summoned
telecommunications
nineteenth
Cald
Sue
Vul
Voy
lan
##pot
##ablish
shaken
recess
backst
differs
Refer
genetics
subset
headers
##bek
blockade
Paulo
Emmy
discriminate
sinister
vocabulary
piracy
Abrams
foreclosure
Paramount
Libertarian
Fir
##lang
##bishop
##Every
##ол
thieves
##elin
cooldown
##angling
Ans
guiding
modular
Bea
prophet
26th
cardiovascular
Lastly
encouragement
1932
##bourg
Standards
Config
extraordinarily
discounts
unreli
empowered
Cannabis
Meeting
mimic
cylinder
biomass
Gavin
corrobor
Crazy
Dota
Gat
Hip
Mam
Sixt
Wins
durable
rejo
##uding
blades
##atte
schooling
amounted
##ANG
secretive
Consum
selections
thriller
harmon
REAL
consciously
narrator
cartoons
forgiveness
warmth
Conflic
exhibited
gamma
distributing
##committee
unleashed
Avery
Dew
Hague
Kang
Rate
Sample
TP
Zak
gamer
pony
£10
##bble
##Ver
##jin
##omatic
##igated
##udic
overhe
factual
Marathon
cheering
distorted
Bean
conservatism
ordeal
tweak
medicines
##laus
simplified
pumping
tabs
Equal
##ecessors
Telescope
Knowledge
escalating
atheism
tariffs
LCD
unintended
mushrooms
integer
##Value
Dent
Wyn
Yo
ai
bait
hates
alright
##ewitness
overload
registry
discrep
skysc
##ursor
Carne
##ARK
challenger
Emmanuel
Bucc
CEOs
ecst
widow
taller
Balance
possesses
FAQ
ghosts
Pearson
Hubble
loser
turbines
Kol
Rena
Tac
borne
punt
slick
##jah
alcoholic
outlines
upro
resumed
goodbye
##otte
glor
Exact
ensl
Interactive
##akedown
Cardiff
wiret
Archives
vaccination
owl
stabbing
thickness
Creation
converts
##walker
lingering
sideline
Lumia
schizophrenia
Away
Cult
Elf
Haley
Kep
Ng
Tet
ket
razor
##anol
##oug
##thood
underp
Beacon
debating
footsteps
improv
##ANC
predecessors
Sword
admired
penned
Solutions
upgrading
Julius
IDF
rubble
preceded
Bonus
unfairly
##yclop
teaspoon
Fernando
lineman
Hue
Hiro
Tuls
##ea
##BB
##ithe
oft
##igator
withstand
##outheastern
princess
Stap
dominating
loops
ceased
##ENCE
Believe
attractions
Caroline
##liga
unpro
stressful
##idelity
experimentation
halluc
towel
Frequ
Various
Cherry
Pixel
prominently
egregious
Doyle
Hulu
Journey
QU
Roe
aux
##nn
##wy
##El
##eder
rept
degradation
##roud
Storage
twitch
##obil
centric
camping
numbered
pathetic
Apps
motions
undes
Monter
##Although
ADHD
Azure
liquidity
Crowley
##Controller
Podcast
cryptocurrencies
Celtic
postponed
unexpl
Dru
Diana
GRE
Papers
TG
bids
dolphins
mum
mong
mornings
##mill
##RB
##emi
chore
learnt
##rawl
billing
finalized
##umbles
McCl
oneself
STAT
##ILE
Summers
NASCAR
Thinking
Guns
bowling
undertake
Gregg
premiered
steril
seizures
DIY
Raqqa
Cres
FI
Gin
Tong
TER
erosion
ja
woo
##not
##cos
##GG
##jad
toes
wast
scouts
##velength
careless
Allan
marketed
verses
antiqu
implementations
stockp
Hunting
Battlefield
replication
nickel
Biology
##poena
masked
rallied
Alternative
mediocre
Tasman
CBO
Hew
Klan
Lip
Lara
Session
Twe
bishop
##FW
##Ke
##heit
##nders
##ayette
##urgeon
##orem
adhere
##lication
scaled
supplements
monarchy
provoked
183
##overty
Guys
##ynchron
Keys
motors
Serial
graduating
Accept
##ammers
pilgr
reliably
pedoph
owing
photographers
Greene
sucked
disciplined
nostalgia
lithium
dereg
AZ
Bub
Era
Tang
Towers
v1
##vd
##John
##heus
##alie
##imo
comrades
abusing
##allow
##uba
standoff
classrooms
deval
Amid
Harm
collectors
automotive
submitting
rotate
Derby
portrayal
toilets
unhealthy
Ethiopia
##Updated
pessim
Dir
Dual
Houd
Lah
Yel
bishops
##uced
##Pre
##hene
##itious
hect
neoc
##ivas
comprehend
Weiner
interchange
provoke
passports
differentiate
Donetsk
THC
balcon
salvation
Malley
restricting
rainbow
entitlement
mysteries
coward
Message
Rowe
browse
Lilly
Paw
Pull
##Best
##YP
##anne
reaff
##amoto
orn
##actor
##pta
Truman
Arri
booming
filings
distrust
solicit
devised
declares
quarterly
tweaks
petroleum
Milton
contexts
afforded
configured
McGu
assignments
Strauss
WATCHED
ambiguous
circumcision
UEFA
Cod
Grove
MON
cries
mish
vow
##eri
##irling
##andro
outpost
perimeter
Weinstein
inval
vein
Levin
275
urges
textures
Liberation
skinny
##visors
illustrations
brutally
Scarborough
Effects
wandering
meltdown
Rhodes
ostensibly
Manitoba
CJ
Catch
FPS
Rib
REC
osc
sighed
##name
##lene
##DN
##etr
conquer
Schedule
allowance
##aida
Institution
professionally
circus
predator
sensational
correctness
Salem
Avoid
Dunn
polymer
Brewers
Buffett
telesc
hierarch
rewritten
enlisted
overseeing
Leadership
Ankara
Trey
rails
tsp
##enf
##ipes
##ftime
subpoena
detract
advising
reflex
Guitar
treaties
tracker
Belarus
Terms
punches
Humans
IPCC
wheelchair
fatalities
Levi
Productions
Issues
laundry
Terminal
compulsory
Cred
Miz
SER
Wershe
Xavier
daunting
gems
lays
x86
##mitt
##Paul
begging
onions
##berto
weekday
##getown
passer
157
Pepper
Cricket
290
screened
occupying
guardian
scrub
Wikimedia
sandbox
Creating
Derrick
Albany
Beautiful
succumb
intricate
Ranch
sar
tread
##lord
##Top
##jack
##amins
stacks
##imer
##agogue
bye
##andum
##answered
appalling
##arger
Worlds
##ettle
##yrus
songwriter
##naire
Galile
visuals
abandoning
Damn
exhibits
Doesn
stereo
Initial
Cobb
Traditional
prominence
elders
acoustic
3G
Flet
Higgins
Rend
Tot
jour
##anan
##olation
##oche
adren
clad
##ishi
Claud
Allied
Canal
Plans
##working
Sunder
Assuming
wavelength
strapped
Regiment
peacefully
Liberties
reminding
procedural
oversees
constituted
Katrina
accelerating
physicist
NOTE
Astros
Yemeni
museums
simultaneous
cubic
ESA
Hz
HQ
NT
Wol
Yak
dick
daring
##06
##UK
##inished
toast
Theme
weights
##andem
##artime
spice
reperc
Fraser
Shir
Scots
standalone
visc
menus
similarity
interviewing
modeled
Subst
commissioners
virgin
listener
cheapest
Setting
Engineers
diminish
Sioux
grammar
dishonest
jewelry
sprawling
LT
Morm
Sally
YORK
ko
omin
tink
##raining
##link
##uper
##fill
##VC
theological
##isy
##urf
staging
##rio
##ppery
soaring
##ibus
invoke
monst
##ontent
##grown
##otech
Howe
Harmon
labelled
##onsters
Robbie
##class
sickness
confronting
Opera
Telecom
tolerant
##unciation
dopamine
Cind
Fut
JC
Jungle
Liam
rang
ranch
troll
##hol
##kan
##kok
##Att
##VI
##agi
chassis
2021
Charge
##perform
Whilst
deserving
rover
Forget
extr
Clock
oppressive
posture
prevailing
Flip
##rugu
barr
snack
chiefs
bulb
geographical
Keeping
Hindus
feder
CLOSE
Viking
vibe
Halifax
Frozen
maturity
slogans
uninsured
1M
Gol
Jind
Tat
Xin
cob
df
##Def
##KK
##omorph
##terrorism
asy
##chant
prow
scent
##reath
boast
socks
##leground
Worst
multitude
Parts
Instant
##ritical
Airbnb
Communication
variance
1935
disappearing
bleak
insults
compliant
McMahon
disproportionate
Django
Bucks
Cout
Loss
Nets
Poverty
Tuc
bounced
nerves
tiger
zeal
##Path
##ли
##utable
seldom
##ackers
scorer
appe
commits
Compar
Sci
177
Westbrook
##zza
##ambig
##ambled
spanning
pumped
##enerative
##https
receptors
Eyes
Materials
Beauty
Athletic
Valentine
Mahmoud
CRE
Gospel
Kobe
Laf
yuan
##cats
##Note
##oter
congreg
##river
disdain
recyc
serge
Anat
paraly
incremental
emperor
valve
Northwestern
keywords
blockbuster
textbook
lifes
Goldsmith
rejects
Watching
1929
tolerated
screams
possessing
intimidating
exemptions
paused
reimburse
Lennon
Basketball
invaluable
Achie
SG
cue
fury
lumin
paced
##liness
##aying
##esting
downright
nonp
Islamists
surpassed
Tripoli
sleeve
whistleblower
undisclosed
Gru
Hoy
Humph
Riot
Tian
Tyson
arous
bir
dental
eats
##rase
##Direct
##Eng
##ét
##hey
inception
##amic
arising
foes
##weather
Speech
Atari
Proceed
lineage
##dened
corrections
Reader
turkey
##OTH
##icipality
Rockets
consultants
Horizon
nicotine
Klopp
stirring
compassionate
crawl
sixty
endeavor
swallow
obliv
Jenny
LR
Role
Sikh
Uh
bob
malf
pamp
ted
wow
wander
##eg
##Print
##inav
##reb
##alls
2050
doom
unused
sys
idle
metre
testosterone
##annah
##umbo
packet
fearing
snacks
ensured
conditioned
tasting
Secondly
Hawkins
liberalism
##monds
Payne
Everett
htm
scanner
flourish
Psychology
Snapchat
derivatives
reelection
eccentric
Bam
Gren
Ling
Punk
Pione
Uz
ginger
maternal
rant
sorrow
##witz
##Even
##에서
##igger
noteworthy
207
arist
gras
Arlington
parish
Scorp
164
hitters
educators
capitalists
Associates
psychologists
shoppers
boosted
synth
SHAR
utilizing
Providence
Dreams
Venezuelan
sincerely
contradictory
Paradise
cancellation
Bulgaria
Bacon
Naj
NRL
paved
##cover
##PO
##Comm
##itars
reside
brighter
156
glaring
accessibility
Appeal
##ATOR
UKIP
NASL
brewers
bullpen
Jennings
undertaking
annoyed
fiery
drummer
Bosnia
Weapon
##Activity
Cecil
unreliable
Ranger
pou
증가
##rag
##hies
##Other
##uber
##ер
coined
stride
Leah
Present
Manual
rulings
totals
Appalach
Smoke
legalize
shootout
independents
silk
##alyptic
qualifications
Maxwell
ironically
Mathem
Hoover
sacrifices
Panther
Abdel
moisture
anomal
Shapiro
Renaissance
1B
Cody
Cotton
Kany
PBS
Vale
Zika
yen
##eat
##zone
##itiveness
##ortional
##assic
bride
##resident
prototypes
classics
179
Donovan
##ricted
##engeance
cyclist
grandson
launcher
qualification
Priest
sudo
earns
Advance
replica
ruthless
720
Duffy
Hollow
Hilton
Rogue
Urugu
Yas
eruption
hid
##FE
thief
##opl
shores
composite
coated
##ishly
bricks
suppressed
Newt
monkeys
genital
##mson
Lego
Scouts
166
Flat
opting
steals
Patients
##burst
##iciencies
Liberia
hacks
witnessing
disclosures
pipelines
Sixth
Levine
Griffith
whiskey
HuffPost
impressions
barbecue
Nab
S1
Sonic
Wit
Zar
##hoe
##HE
##imi
##umen
abd
quake
Reven
##oths
154
classmates
campaigners
debunk
Offensive
##rimp
INT
Maher
diagnostic
homelessness
Owens
aspiring
concede
disguise
BUT
EFF
Kai
NW
dens
rud
##Requ
##inen
##enos
excel
alliances
outing
Strat
##ogens
unravel
##ickers
strat
fares
payer
wording
##teenth
legalized
Martian
turbul
Highlights
ambient
cinematic
Bolton
Hollande
discharged
intercepted
padding
underwear
Kazakh
Quantum
Penguins
avenues
Broadcasting
Fletcher
GU
Niet
ni
##bsp
##Set
Inquir
liar
claw
polish
informing
##anguard
wrongly
cardboard
cleanup
Associate
cooled
punishing
##innamon
Rooney
dreamed
environmentalists
fascinated
Retail
asserts
Format
mosques
resembl
Animals
unrealistic
Cousins
Houdini
Dob
DNS
Eat
KN
Lamp
Luna
Rw
Vac
banners
dwind
gossip
hers
##iago
##hones
##edo
##vet
##urp
##robe
##imens
##istine
impulse
##icker
backend
##isson
simulate
slapped
believer
glove
Suicide
Resident
hostages
volcano
Sandra
##hetamine
Regular
variability
bombed
Turns
inventor
gamble
martyr
fonts
imperialist
calcium
monopol
enlarge
bureaucrats
Survivor
affluent
Clement
Dee
Faul
Favor
Nem
Tools
gigg
##wagen
##uo
##onics
##urances
##sex
##ctica
Ther
conve
unload
##quin
##ouns
Brom
booking
255
Statement
specializes
representations
copying
homage
audition
auditor
Jacques
jurors
axe
accomplishment
dividends
Clinical
hazardous
Chaos
POLIT
Category
Kepler
Ced
Dish
Hyp
HOW
Lucky
RM
Swe
Tomb
Ware
##wave
##Tor
##icular
bean
##ldon
##imet
fru
##ocese
outset
##ideo
##iann
imperson
headache
Indie
nightmar
pressured
##geries
gunshot
checkout
##OLL
Putting
stresses
Henri
Gardens
Straight
horns
penetration
defects
wielding
hurdles
Jamaica
##otechnology
EVER
KB
KY
Rade
Roland
eclipse
greens
nil
pint
wed
wartime
##ienced
##hift
##Rs
##onel
framing
exams
outfits
##iza
##obl
##manent
Revel
Sequ
##elsius
devotion
multicultural
Monetary
##arrison
silently
drafts
iPhones
Norris
Epstein
parenting
Sharon
Venice
CBD
libertarians
peripheral
energies
masturb
Luxem
eyebrows
##ovakia
ivory
unmanned
Bench
Dol
Push
cav
tilt
##uania
##finder
##inness
##termin
##olice
dean
segreg
##antha
offending
qui
quasi
1919
Button
commuters
flush
memes
confuse
depiction
planners
profiling
easing
propelled
referencing
Georgetown
decidedly
recognizable
biases
Letters
petrol
wealthiest
Burlington
registering
guarded
Hawk
Warsaw
widget
pinpoint
Infantry
Bangkok
coloured
loosely
Bullet
tempting
Hort
Loop
Mund
Wise
gimm
mourn
ot
purity
##dan
##tec
##rosc
##opal
peanut
##onte
##spe
163
debit
Neut
##ARS
Congrat
Africans
angels
slightest
sticky
optimize
##ochond
rainfall
Hunts
##Once
eurozone
bacterial
comprise
disparity
betrayal
dividing
sabotage
Bundesliga
Boko
COP
CMS
IO
MJ
Tale
UF
lact
malt
wicked
##oat
##Par
##Cre
##ва
##atches
##isine
pee
brakes
phosph
minist
differing
prevail
167
kindly
##atorium
171
nationality
Warrior
222
commonplace
Corner
logos
ensuing
harmed
##romagn
ethic
weighted
arresting
constructing
terminate
Baltic
tailored
entrenched
disposable
Felix
Cantor
receptor
sailors
Dwight
forcibly
oscill
DOM
Hulk
Roh
Wolver
holog
##corn
##Ed
##Tech
##Vs
##Service
##info
##anke
##alities
204
melee
mediafire
##owser
Doct
titan
revital
forehead
automobile
Lynd
escalated
nuanced
Hispanics
plaintiff
LEGO
Eri
Ngu
RNA
Tort
mog
mater
pits
ump
va
##rer
##Don
##xter
##Line
##icz
Ingredients
knight
1916
##ullah
args
Doe
waiver
expectancy
ISS
curtain
avoidance
##riminal
Bitcoins
derail
Judy
Wrong
radicals
signaled
skeptics
##elvet
##enoord
Rochester
Nutrition
masculine
confiscated
redesign
evidenced
Lap
Nay
Rails
Ticket
bachelor
lore
ont
stern
##odic
##osate
##ibo
simulated
Archer
focal
Percent
environmentally
admiration
undec
assistants
STS
malaria
mirac
Ellison
manipulating
elevation
Springfield
capsule
Stockholm
Separ
Saunders
immortal
Surveillance
Napoleon
immersive
Cage
Fior
Fiction
Pall
Purch
Tales
WT
Wan
Yose
lame
##Ah
##City
##arf
##itched
##ustral
enric
unquest
disintegr
blaze
genres
soci
builder
Byr
denomin
erase
ISP
rebuilt
Iraqis
##haus
births
hangs
presumpt
Limbaugh
vaguely
Commentator
viability
Lithuania
intrinsic
Mage
NOR
cc
hips
hikes
mocking
##ebr
##Cap
##SD
ish
##usable
Heb
implements
##gren
transitions
Leia
##aja
builders
161
##mington
immoral
shareholder
Quad
globalization
cardinal
Booth
assaulting
strikeouts
semic
mandates
battled
OFF
Buddy
vegetation
exceeding
Lindsay
discounted
Marxism
cautioned
##Before
Malaysian
resurrect
recounted
errone
Clayton
Numbers
inexper
adulthood
loophole
0b00000000
dictionary
lows
mug
##station
##verts
deeds
shades
unatt
wherein
reload
##ologne
obese
DeL
powerhouse
159
sket
OnePlus
policemen
Meat
equilibrium
responders
fastball
Laure
Burger
##ventional
Journalism
advancement
configurations
desperation
ICO
outsider
shameful
Candid
nerd
##withstanding
Anaheim
embodied
bogus
paranoid
repercussions
Jindal
Kahn
nails
sands
waved
##sight
##gard
##abouts
goof
commons
Forg
meticul
choke
blogging
##uggets
Clemson
Walton
praising
pumps
landslide
ECB
##Works
pragmatic
newcomers
spawned
alleviate
Dresden
4a
Dart
Tank
##hist
##lis
##Po
##idian
amuse
amusing
##azers
visibly
##bey
Warfare
Resolution
Photoshop
misinformation
permitting
Malik
derive
sticker
Knox
subsidized
Career
Romanian
screamed
intellectuals
Bowman
collapsing
ancestry
bells
dungeon
USSR
revisit
Wrestling
Mormons
Lobby
Yout
##wd
##ynt
inh
##root
staunch
##estine
noticing
chalk
exported
imprint
commence
regrets
Shaun
##ricks
humour
##ursion
Worse
summed
figur
convoy
235
administrations
##ANK
contracting
misuse
McCoy
##zzle
turbo
iPod
masterpiece
asthma
Islanders
esque
stereotyp
cultivation
Uganda
Restaurant
##yclopedia
Fog
Lodge
eSports
len
##notes
##org
##oran
##immer
ants
deity
##allah
##ipation
##ovsky
##uchi
retains
avid
swings
swamp
##afa
superc
##iodiversity
biologist
Monaco
Sketch
casually
wallets
Fallout
fragment
consolidation
##affeine
Alexandria
##Reddit
Fellows
Parsons
Producer
Cul
Lau
dicer
pc
tucked
woes
zombies
##erity
##etus
##anta
##thal
evapor
Chloe
1912
Asians
strained
ideally
Imam
Resource
##ranch
Quint
Photo11
##ocracies
Judicial
##uddle
protestors
apartheid
##AAAA
Forever
corresponds
perpetual
Engineer
Fifty
Wizard
##User
Pubmed
Territory
autopsy
IoT
psychedelic
superficial
diceroll
Bale
Yosh
raced
##evil
##wen
##Text
##iona
##istence
abiding
##angular
##blems
discovers
Reply
bites
plead
pleasing
totalitarian
volatility
##borg
Become
safeguards
armored
Rubin
Developers
Downing
incorporating
##geoning
SDK
superiority
recreation
DAV
Trying
paragraphs
cursor
detrimental
Volkswagen
420
Fake
Sz
Sister
Zap
cauc
gy
hull
raging
să
sib
vain
##mite
##House
##är
alarmed
spilled
soaked
apprehend
bloss
Blind
Scan
lateral
swords
242
combust
periodically
revived
##unta
banker
uncover
escorted
creditors
Samar
Frankf
REM
tasty
cartel
pediatric
Products
unfolding
MARK
Bronx
plunged
numerical
rooftop
procurement
Scandinav
증가시
Dil
Jude
OM
Ways
mars
##oi
##lund
##fest
##Ste
##atz
##illions
exe
##arte
sap
##berman
##owner
endurance
Ships
Goals
businessmen
caus
##comings
Abuse
mattered
Schol
trek
Chester
bombard
Burning
oddly
Farrell
Ramsey
assertions
bathrooms
##ebus
Whitney
Alternatively
Pilot
##raeus
##â€™
Creed
Fit
Haj
Heck
UL
aura
wik
##far
thirteen
##alla
goat
flashes
##anking
Marcel
Bey
sitcom
Yorkers
Somebody
worthless
unsustainable
Priebus
consequently
Skill
##blog
affiliates
arbitration
Destroy
Tobacco
fibre
ramifications
##volent
hawk
Clintons
echoes
Hamburg
outweigh
Sinai
Pascal
resemblance
AOL
Celsius
HUD
IE
Jihad
Liv
LDS
Mash
Went
mism
tandem
##Gold
##zman
##enthal
onboard
chanting
Thought
herd
twists
remix
mins
extras
Marion
drowned
Colt
501
inflated
##inoids
Sergio
seriousness
documenting
Intro
substit
catcher
harv
murderer
Madden
fluores
molecule
Kaiser
Variety
analysed
fractured
sewer
stabilize
affirmative
burglary
pissed
pardon
Ek
Fuel
GI
HU
Mouse
PST
PART
S2
YPG
fuss
##Check
forge
timeout
seasoned
encoding
Somehow
Instruct
barn
##arius
380
clicked
Protocol
##EMA
Veget
admittedly
##wright
Volt
fucked
styled
toxicity
patriotism
prosperous
archaeological
prestige
Cavaliers
apocalyptic
Patricia
Kant
Patch
VG
Watt
Zack
casc
fri
mu
##mus
##lar
##Det
##Please
##SW
##omas
##sten
reint
##imoto
prolet
cla
unanswered
imped
addicts
famine
cheered
breached
proportional
singled
##astery
pleading
treason
escort
##101
inspir
HDMI
fossils
scarcity
intrusive
evidently
EDIT
Combine
##rupal
snapshot
Gemini
linguistic
grenade
squeezed
Assassin
Exactly
Tulsa
CITY
Kes
Lans
Lights
Pike
Yad
bri
gag
guru
ousted
wo
##kt
sailing
undergone
helpless
##landers
seeming
##pora
##liner
Chef
integrating
freshly
Egyptians
weaponry
Miranda
PDT
pumpkin
WWII
hamstring
wrapping
Treatment
sliced
orchestrated
Catalan
grenades
metabolism
Beverly
impoverished
BAT
Cats
Pru
Sed
Yun
bury
lyn
ripe
##number
##wire
##OOD
##loc
##D5
beams
stature
##agar
allege
alumni
203
worsh
##angs
##arko
indec
wrench
Spiel
Allison
176
##INK
##ISH
29th
indicative
Mostly
disappro
angered
Lawyers
340
crystals
acquitted
timest
##ihar
Remote
Miche
adaptations
Forty
floated
conveniently
owes
counselor
##enzo
robotics
Customers
enthusiast
patriarch
hazards
disgust
Soldier
imbalance
Moody
seismic
Kanye
Dwar
Hutch
MEG
NB
Root
joking
pity
tet
##dies
##hov
##During
##Your
bystand
##anti
##ako
Stoke
expires
##quist
Wellington
commissions
Scen
standout
standings
Pratt
viewpoint
makeshift
damned
snakes
inefficient
Strength
Booker
1922
Funding
torch
Behavior
relieve
Legislative
immensely
Shelby
mistakenly
disciplines
José
Antarctic
insecure
Elim
KEY
NBN
Overs
Pik
Psy
RG
ff
waged
##Imp
##Will
##UX
Them
hass
spoon
disli
quota
protester
##spec
##ERT
213
revoked
##enchant
edits
Caller
championed
Sirius
Temp
Awesome
slippery
Rahul
reopen
Pry
Tant
Utt
npm
##Dig
##KA
##imil
##riv
quot
donating
##ologic
Spin
boasted
Cola
understandably
causal
Perth
innate
imagining
Marty
Built
##ramble
stickers
synonymous
##ozy
cousins
envoy
neatly
##Despite
repetitive
horrified
coveted
recycled
DAT
EB
Fernandez
Kaine
Mae
NM
Pill
bending
cakes
##tz
##bf
##IB
##rost
##opathy
trending
##endant
adorable
airspace
policeman
Mayer
hourly
shortcomings
painfully
expresses
squads
squares
slowdown
##idae
Suns
deduction
novelty
Betty
academia
Called
CDs
cowork
suspicions
Oilers
Dalton
iterations
Antarctica
twentieth
adamant
Tips
Vox
bouncing
hust
pens
sizable
yell
zu
##metic
##bat
##bors
##bians
##VIL
##HN
##사의
reorgan
rethink
##omez
compressed
contends
Alright
insanity
carriage
Scr
quests
169
pasta
##coal
GeForce
screenplay
Recovery
Regist
spirited
murdering
Petro
concluding
astounding
quantitative
joints
simplify
outsk
Lyon
Facts
comprising
spoilers
Caesar
temptation
psychiatrist
arrogant
Direc
Ches
Gym
Slam
cott
mapped
pedd
##iets
##NING
##onen
##lys
##adia
seals
208
compress
flatt
##ernick
##coon
Coch
Guest
##regor
dangerously
trusts
Healthcare
CHD
prohibiting
brightness
Ricky
Grizz
Municipal
sprink
halftime
Awakens
jerk
jerseys
Argentine
Brighton
Architecture
Dispatch
unequiv
Sulf
VAL
##cair
##bil
##Gs
##LO
##Life
##inged
##itic
##reak
##elman
shave
outp
1910
reconnaissance
implying
##lectric
creations
parse
researched
Amir
50s
##ricting
reviewers
horrors
communicated
hateful
Vehicle
motorists
##trak
dragons
Curiosity
Township
recreate
knockout
NGO
GNU
Database
resilient
incompetent
lodged
dataset
Youtube
Bain
Cay
Mog
Rings
Taken
bv
##ql
##isance
##icia
##ilion
##ivision
spurred
upright
crater
Tracy
##othermal
beforehand
filtered
engulf
capitalize
diverted
reflective
Missing
husbands
##omsky
Norfolk
calculating
Boyle
simplistic
Bulldogs
SEAL
Brewery
theorists
Factor
fabricated
impartial
futuristic
JR
Nah
Pomp
Rally
Vista
dared
jog
nets
x2
##taking
##lance
##Count
##eting
##estial
Unique
Leading
Presidents
morale
Feature
apologies
heartbreaking
timber
##guin
coordinates
asserting
torrent
Extreme
tagged
chatting
Runner
lymph
Employees
##ABLE
Exclusive
Dawkins
augmented
Franç
Athletics
Ortiz
outskirts
FB
FIN
Giving
Kun
Wester
ist
lig
##Build
##cation
##Pe
##Pr
##anqu
##ilo
abide
usat
clut
pretext
presently
guitars
discrete
greatness
coron
Synt
presentations
Grid
homicides
Chess
shipments
Relief
dreaming
scripted
Saudis
0x00
geared
relaxing
smells
pirate
abolished
anarchists
deprivation
invariably
Carnegie
sergeant
4x
dir
icy
nested
delt
##arthed
algae
agon
Changing
Newark
demos
Sheff
Notting
Granted
Worldwide
Drum
Contem
captivity
roadmap
streamed
Petraeus
Millions
spectators
tackled
Cruise
Marcos
springs
miniature
paradise
pillars
comprises
homosexuals
Souls
Argument
Prosecutor
fingerprints
duplicate
Mystery
amassed
remnants
##Related
Cube
Katherine
lava
rains
vampire
##Form
##umann
tray
##oused
##ooks
Chain
bloom
flock
depressing
metallic
##comput
Barney
judgments
packets
Correct
Networks
Mali
##IDA
##clays
Rockies
subscriber
ATM
ecology
muscular
Andreas
stereotype
Identity
Shepherd
horrifying
resilience
relegated
autobiography
Immediately
crowdfunding
Sunderland
Kathy
PF
RU
Rip
SAL
drib
eb
##othing
spar
clich
Hearts
recol
backbone
Leone
meanings
encaps
Interstate
Moz
affordability
forgetting
rallying
distinctly
Debbie
eagerly
stimuli
transcription
Chapman
Mugabe
증가시킴
Bic
Ez
Gift
ger
##iem
##waves
##Lab
##thora
upstream
flashing
readiness
Blanc
percentages
##appa
skirt
1600
174
antis
publishes
Keats
##Start
Madd
##IDEO
##steen
Monte
federation
replicated
incompatible
NAFTA
Drugs
tutorials
Animation
turbine
Rabbit
Carpenter
meddling
Opinion
restructuring
overshadow
Oy
VW
bak
braz
png
sockets
tid
tainted
v2
##gam
##fin
##zon
##620
##éd
##oufl
##alis
shaky
##endously
##ffff
intra
##iband
##awei
deficiency
handic
1200
refine
situ
Flow
physiological
winding
admissions
##chewan
375
thrilling
Goodell
##00000
INS
Historic
##people
dresses
hydra
DEF
omitted
empowering
Needless
Spectrum
Shepard
expansive
extradition
Chrysler
geopolitical
enriched
DirecTV
Cyn
Fill
Flex
calf
fats
gh
ridd
##ln
##aan
##NP
##Gate
##PER
##mpt
evade
USDA
approving
##being
baseman
Suite
gunmen
barring
Broken
Superintendent
Arabian
ringing
Temper
##Level
vigorously
inhabited
Nigerian
corridors
Tunisia
CU
Casc
Gret
Killed
Mast
MAC
NX
NES
Riy
Sle
Sons
Trop
Vital
rash
txt
##vic
##Fire
##cents
##flight
##Sim
conquest
##orean
##elo
spelled
freight
improb
esports
Peak
Kingston
harbor
Greatest
MP3
cartels
1928
volunteered
paramilit
torque
faulty
mystical
Gunn
MAY
laden
resembling
CCTV
Dawson
discontinued
Coyotes
Philosophy
##olithic
Byrne
Cly
Hurricanes
Molly
Sag
Tests
boun
##from
##VEL
##ickey
##stones
##ppe
##oco
perch
##into
191
##ossal
defiance
##resented
smoker
Alc
constrained
Sega
173
youngsters
##aldi
competitiveness
Barclays
Peyton
supervised
Ages
Agents
Jeep
Upgrade
raping
splits
strategically
trailers
adaptive
Matrix
torped
moons
fertile
Songs
Norton
ribs
reunion
Dropbox
whispered
abducted
frenzy
Crescent
Comet
Hed
Ivy
Krug
WOR
hed
hover
mp
ros
##hile
##uant
inert
##urious
stomp
##olson
abbre
Chomsky
##rued
##ensual
##awk
Whites
transist
distortion
currents
redacted
Allies
##phi
178
Amtrak
Feld
statutes
barric
burgeoning
##Str
permissions
Salon
intensely
Created
Potential
Concord
hesitant
intervened
Rupert
Juvent
Saleh
VIII
ALSO
COU
DP
Rural
ferv
mash
mai
##Cr
##rections
##omial
##start
##owler
stitch
della
tres
Chambers
blasp
roaming
handheld
continents
videog
Demand
##anni
Carney
keynote
Assault
applicant
IST
survives
##eroids
Samantha
ethanol
Protesters
therapies
Matters
inspections
hooks
cocoa
beneficiaries
misunderstanding
articulate
Dustin
dysfunctional
receipt
Saskatchewan
sandwiches
DPR
EE
Lect
MU
Miy
Patt
R2
gum
tents
##vie
thou
##idation
hegem
##artz
chol
##akin
upstairs
preoccup
stray
##ussian
specimens
slider
boolean
emph
formations
deviation
swipe
Feinstein
Actual
Elm
textbooks
precarious
Economist
stormed
plugs
unnot
Leary
escalate
Combined
distributions
transcripts
Furious
concession
submarines
scrapped
Clooney
Rojava
outcry
Pioneer
Bols
Rin
Sic
TOR
ss
yog
##dar
##tml
##nuts
##hurst
##Police
##fell
##ни
##го
##stant
##odor
unilateral
##obar
foe
grill
##liance
submer
##aird
waits
paints
StarCraft
curved
Turks
counterterrorism
##iership
hospitalized
Groups
sustaining
Fedora
visualization
emphasizes
collaborated
Disneyland
Kaep
Toby
Qualcomm
Dominic
persistence
Soldiers
unintention
cereal
Sidney
antidepress
counterfeit
sibling
CTV
Daddy
Ibn
Maced
PER
Pitch
Sage
Wired
Writers
ou
£20
##bid
##Rem
##urous
fraternity
2025
1913
Tray
##erton
Mari
Blvd
informant
valuation
Carrie
magist
billionaires
urg
Romans
deliveries
Greenland
casts
ethos
exercised
defensively
scrambling
validated
strangely
##peace
Homer
cosplay
Somali
digitally
misunderstood
Ernst
Corker
landscapes
fantasies
Opportunity
irrigation
disbelief
Cologne
Dry
Muk
Nit
duel
jelly
lions
liner
x00
##door
##Mar
##laught
##path
##uish
##busters
##Cal
##imeters
whichever
spouses
clam
workings
undermines
assurances
Athe
Scale
redemption
Preston
taxing
50th
Ens
circa
Contrary
29A
Belle
Window
literacy
Bernanke
Sumner
reactionary
flagged
folding
Holdings
municipality
Huawei
intrigued
LCS
##Black
grips
artifact
Dynamic
wizard
ASP
Coca
DK
Dude
FAA
Maker
Options
Rays
Vader
##cup
##loo
##gre
##hearted
##inqu
Inj
##lium
Shooting
##ussen
##cester
##engers
redeem
Convers
footing
Secure
##INS
Benz
370
##rels
Weekend
##USE
Carlton
Olson
surfing
unconventional
Logic
kissed
##Class
adapting
intimidate
patriotic
GPUs
Adventures
cultivated
mammal
dashboard
relocated
##Color
undefined
shaft
Faulk
Cull
Coven
JD
Qaida
Sana
borough
penn
tile
##worm
##Next
##alan
##acters
stump
stained
depl
exploding
turnaround
skipped
##affer
Seguin
Twins
Christina
lively
Harlem
00pm
edged
midterm
325
##ICH
Recogn
##OTT
iceberg
##OUND
Irvine
medicinal
Farmer
frustrations
Volunte
Continental
Keynes
Infinity
advisors
oversaw
cooperating
stemming
allocate
Domestic
Movies
Chapel
mascot
tattoos
adolescent
balcony
DH
Eh
Gins
Lack
duct
graft
kay
##sburg
##BUR
##GP
bew
onwards
##uden
##ongs
knit
inducing
insens
courthouse
detached
cheers
parano
181
basin
authoritative
##efully
customize
plethora
##ORS
Designed
polled
reacting
scientifically
Soviets
Scotia
##onomy
mouths
Operating
Rapid
Aquino
Historically
Methods
sculpture
disturbance
plunge
Estonia
##ynchronous
Bod
Fate
Kw
Lemon
P2
Trial
cis
##jee
stove
whist
Wein
crab
assail
strides
##retched
Shea
humidity
sidewalks
blackmail
Parish
extremes
##boat
closures
Mexicans
Sloven
stringent
pinned
lesbians
bursts
reluctance
rods
enclosure
parser
sixteen
prioritize
ounces
hurdle
grappling
prowess
AH
Carly
FIR
Gomez
Wish
sings
£6
##made
##hua
##wolf
##DER
##Kit
topping
##ulus
##ackets
outnumber
contag
arson
Chop
##area
quotation
Leaving
publicized
Beg
awhile
latitude
respecting
Morales
driveway
timet
##habi
Didn
kilograms
1905
SEE
##663
mitochond
Daesh
vitamins
avoids
Farmers
Gateway
beetles
Failure
exponentially
foreseeable
Raptors
Juventus
Aad
Hmm
Lund
MAD
Ned
Piper
POST
Tina
TON
Ves
gears
£7
##FOR
##ри
##ég
shale
spicy
##ryn
knuck
Butt
##eryl
Unlimited
openings
skins
taxed
earners
customized
personalized
TVs
Blackhawks
disappears
Hamm
punitive
Gareth
tunes
Keller
##SSL
Stephenson
Deadly
devastation
discouraged
accumulate
grocer
patrols
Swansea
stronghold
Radeon
Doctrine
Frankfurt
Dmit
Liga
SEO
Vine
WI
css
dj
##pable
##XX
##eniable
##arry
##rovers
##opus
envy
Request
Arbor
Pluto
247
mindfulness
Grade
checkpoint
friendships
calorie
Elvis
##opsis
Recession
Torah
MacDonald
Madonna
petitions
examines
PCI
rollout
mortal
Updates
brightest
##Char
CrossRef
978
stadiums
bolst
gentlemen
Cosby
Mulcair
Mazda
enrichment
interfering
charismatic
mourning
Giuliani
Kaepernick
Cena
Cumm
Gee
Kiw
guts
##Total
##6d
spikes
##endas
libel
compel
herbs
endlessly
roasted
slain
Atomic
affinity
Fein
totaling
##shots
Patent
cardiac
Complet
##ukes
ethn
Karzai
mastermind
tightening
Maver
motivate
coordinating
Anniversary
Damien
Calling
Everest
##Spec
mercury
Tsar
ventures
Padres
Catalonia
renovation
reconcile
##lifting
cleansing
Tucson
Couch
Dah
Element
Ud
biting
bald
fug
huh
pH
pear
surn
sidel
##Week
inward
##asers
thumbs
whim
##chief
canned
Trading
ops
Spread
Leap
Connell
generosity
questionnaire
Managing
216
sorting
warranty
breathtaking
trophies
pronounce
reassuring
fiercely
café
swallowed
##dragon
salvage
grievances
glyphosate
Bard
Bates
LIVE
Rookie
eco
fountain
hires
ridden
##Max
##lake
##uers
##YN
##PT
##stead
steroids
##ushes
shrine
spans
##duino
politely
guise
postal
##aneously
debugging
swung
Harley
docs
customary
310
Compare
992
##kien
##OUS
Directors
microbial
Hyde
anonymously
Katz
Armor
Equipment
pioneering
incarcerated
mantle
##quisite
unseen
hysteria
benign
Consumers
pamph
Hatch
Hidden
Lens
Peps
RX
TTC
bake
faux
jav
looting
royalties
##rl
##lift
##know
##GC
inline
##icity
##ete
##ulously
extermin
##ifty
sparse
uphill
evasion
scrolling
feast
##welling
defunct
flop
downstream
##ixel
kinderg
brok
Manz
##sworth
checkpoints
citations
influencing
countered
undeniable
sleek
mixes
hospitality
unsub
familiarity
Guardiola
Archae
uneven
Increased
monumental
disguised
inducted
Deutsche
Assessment
Buccane
Sheffield
Gly
Kraft
Mell
Morsi
Vid
##Click
##ţi
whipped
##atement
##usa
shack
kne
amino
consortium
Newport
##anked
emulate
headaches
marches
conditional
##hetically
Greenwald
satire
Airways
Default
Maliki
Journalists
defaults
instituted
1924
##ships
fluids
Sharif
dictated
Fantastic
Birds
Nyarko
Legendary
##iphate
disconnected
illuminated
unspec
eternity
indiscrim
caucuses
Aly
Caf
Dud
FP
Hale
Jag
nond
sank
##mag
##Mer
##GHz
##frey
##3D
##َا
##reon
##uton
##adal
stam
##ilor
stric
fourteen
swarm
Carrier
##comp
##Step
Overwatch
embro
attracts
knowledgeable
temperament
Species
battleground
pedal
Olive
faults
NOAA
Gilles
shovel
GNOME
Approx
eldest
sacrificed
Ridley
MX
Pump
RGB
Vog
Wah
piled
##oS
##Code
##Que
##stellar
##etty
exits
cland
unthink
##ookies
disin
scars
Hegel
recapt
Newtown
Anch
surged
surgeries
methy
Orwell
Sev
Enlight
educating
Countries
Cheese
Recipe
##rimination
harbour
Transpar
murderous
unsigned
Slav
falsehood
Surrey
Deck
ATT
reliant
Origins
tailed
Establish
prostitutes
Workshop
loopholes
scrimmage
Alvarez
stricter
5m
Fav
PRE
YES
cf
caval
fences
i7
lest
##cu
##inous
##orestation
beasts
209
blames
discontent
##azar
slang
coral
conco
Maya
Demp
##uffled
224
damning
##ISS
predatory
handset
divert
Berger
translator
battered
##III
owls
absorption
facilitated
stripes
FOIA
Cheng
megaw
camoufl
wreckage
unfolded
##Google
##orrh
negligence
inexplic
misogyny
SHARES
POLITICO
unnoticed
BACK
EFI
Laud
Ober
Rove
bord
piles
tidal
vested
##igating
chant
plugged
spree
butcher
ensh
cling
##ecoin
manned
coven
##ellation
deflect
##ankind
simmer
discredit
ideologies
##appings
Plato
debacle
Guang
2017The
beginnings
characterize
273
volley
progresses
Milky
Kimber
Sharia
melody
Hayden
flavour
endorsing
##ioxid
courageous
Bundy
abolish
intuition
Clippers
##hardt
PvP
displacement
Conflict
urgently
BAR
Dies
Font
fiat
taps
на
##uance
##fy
##Live
isot
##opf
##odka
exting
##emb
pertaining
##ultan
noisy
mayoral
##ussie
boiler
Scala
advises
Plain
Measure
hitch
Acting
Activity
condol
Artists
##lantic
belongings
battalion
supers
perpetrated
stylish
Experiment
amidst
wrapper
enhancements
Crimson
[...]
